{
  "version": "1.0",
  "truncation": null,
  "padding": null,
  "added_tokens": [
    {
      "id": 0,
      "content": "[PAD]",
      "single_word": false,
      "lstrip": false,
      "rstrip": false,
      "normalized": false,
      "special": true
    },
    {
      "id": 1,
      "content": "[UNK]",
      "single_word": false,
      "lstrip": false,
      "rstrip": false,
      "normalized": false,
      "special": true
    },
    {
      "id": 2,
      "content": "[CLS]",
      "single_word": false,
      "lstrip": false,
      "rstrip": false,
      "normalized": false,
      "special": true
    },
    {
      "id": 3,
      "content": "[SEP]",
      "single_word": false,
      "lstrip": false,
      "rstrip": false,
      "normalized": false,
      "special": true
    },
    {
      "id": 4,
      "content": "[MASK]",
      "single_word": false,
      "lstrip": false,
      "rstrip": false,
      "normalized": false,
      "special": true
    },
    {
      "id": 5,
      "content": "<s>",
      "single_word": false,
      "lstrip": false,
      "rstrip": false,
      "normalized": false,
      "special": true
    },
    {
      "id": 6,
      "content": "</s>",
      "single_word": false,
      "lstrip": false,
      "rstrip": false,
      "normalized": false,
      "special": true
    },
    {
      "id": 7,
      "content": "<pad>",
      "single_word": false,
      "lstrip": false,
      "rstrip": false,
      "normalized": false,
      "special": true
    }
  ],
  "normalizer": null,
  "pre_tokenizer": {
    "type": "Whitespace"
  },
  "post_processor": null,
  "decoder": null,
  "model": {
    "type": "BPE",
    "dropout": null,
    "unk_token": "[UNK]",
    "continuing_subword_prefix": null,
    "end_of_word_suffix": null,
    "fuse_unk": false,
    "byte_fallback": false,
    "ignore_merges": false,
    "vocab": {
      "[PAD]": 0,
      "[UNK]": 1,
      "[CLS]": 2,
      "[SEP]": 3,
      "[MASK]": 4,
      "<s>": 5,
      "</s>": 6,
      "<pad>": 7,
      "!": 8,
      "\"": 9,
      "#": 10,
      "$": 11,
      "%": 12,
      "&": 13,
      "'": 14,
      "(": 15,
      ")": 16,
      "*": 17,
      "+": 18,
      ",": 19,
      "-": 20,
      ".": 21,
      "/": 22,
      "0": 23,
      "1": 24,
      "2": 25,
      "3": 26,
      "4": 27,
      "5": 28,
      "6": 29,
      "7": 30,
      "8": 31,
      "9": 32,
      ":": 33,
      ";": 34,
      "=": 35,
      "?": 36,
      "@": 37,
      "A": 38,
      "B": 39,
      "C": 40,
      "D": 41,
      "E": 42,
      "F": 43,
      "G": 44,
      "H": 45,
      "I": 46,
      "J": 47,
      "K": 48,
      "L": 49,
      "M": 50,
      "N": 51,
      "O": 52,
      "P": 53,
      "Q": 54,
      "R": 55,
      "S": 56,
      "T": 57,
      "U": 58,
      "V": 59,
      "W": 60,
      "X": 61,
      "Y": 62,
      "Z": 63,
      "[": 64,
      "\\": 65,
      "]": 66,
      "_": 67,
      "`": 68,
      "a": 69,
      "b": 70,
      "c": 71,
      "d": 72,
      "e": 73,
      "f": 74,
      "g": 75,
      "h": 76,
      "i": 77,
      "j": 78,
      "k": 79,
      "l": 80,
      "m": 81,
      "n": 82,
      "o": 83,
      "p": 84,
      "q": 85,
      "r": 86,
      "s": 87,
      "t": 88,
      "u": 89,
      "v": 90,
      "w": 91,
      "x": 92,
      "y": 93,
      "z": 94,
      "¢": 95,
      "£": 96,
      "°": 97,
      "±": 98,
      "Å": 99,
      "Ø": 100,
      "ß": 101,
      "à": 102,
      "á": 103,
      "â": 104,
      "ã": 105,
      "ä": 106,
      "æ": 107,
      "ç": 108,
      "è": 109,
      "é": 110,
      "ê": 111,
      "í": 112,
      "î": 113,
      "ï": 114,
      "ñ": 115,
      "ò": 116,
      "ó": 117,
      "ô": 118,
      "õ": 119,
      "ö": 120,
      "ø": 121,
      "ú": 122,
      "ü": 123,
      "ā": 124,
      "ą": 125,
      "ć": 126,
      "č": 127,
      "ĩ": 128,
      "ī": 129,
      "ı": 130,
      "ń": 131,
      "ŋ": 132,
      "ō": 133,
      "Ś": 134,
      "š": 135,
      "ũ": 136,
      "ū": 137,
      "Ɔ": 138,
      "Ɛ": 139,
      "ƒ": 140,
      "ǝ": 141,
      "ɑ": 142,
      "ɓ": 143,
      "ɔ": 144,
      "ɛ": 145,
      "ɲ": 146,
      "ʋ": 147,
      "́": 148,
      "ε": 149,
      "е": 150,
      "р": 151,
      "इ": 152,
      "ई": 153,
      "फ": 154,
      "ल": 155,
      "ह": 156,
      "ा": 157,
      "ẹ": 158,
      "ẽ": 159,
      "ụ": 160,
      "–": 161,
      "—": 162,
      "‘": 163,
      "’": 164,
      "“": 165,
      "”": 166,
      "…": 167,
      "€": 168,
      "₵": 169,
      "ℇ": 170,
      "Ↄ": 171,
      "ジ": 172,
      "ョ": 173,
      "网": 174,
      "，": 175,
      "🦅": 176,
      "yɛ": 177,
      "an": 178,
      "sɛ": 179,
      "no": 180,
      "wɔ": 181,
      "ne": 182,
      "na": 183,
      "so": 184,
      "ma": 185,
      "yi": 186,
      "re": 187,
      "yɛn": 188,
      "aa": 189,
      "de": 190,
      "bi": 191,
      "bɛ": 192,
      "ye": 193,
      "se": 194,
      "ni": 195,
      "kɔ": 196,
      "te": 197,
      "ka": 198,
      "me": 199,
      "ra": 200,
      "ho": 201,
      "fo": 202,
      "dw": 203,
      "sɛm": 204,
      "mu": 205,
      "rɛ": 206,
      "nk": 207,
      "man": 208,
      "wo": 209,
      "yina": 210,
      "di": 211,
      "kw": 212,
      "si": 213,
      "wɔn": 214,
      "kye": 215,
      "nan": 216,
      "sa": 217,
      "ɛn": 218,
      "pa": 219,
      "hw": 220,
      "adw": 221,
      "bɔ": 222,
      "kyerɛ": 223,
      "hɔ": 224,
      "foɔ": 225,
      "ba": 226,
      "nyina": 227,
      "ko": 228,
      "nea": 229,
      "ɛyɛ": 230,
      "ani": 231,
      "ti": 232,
      "uma": 233,
      "nso": 234,
      "nni": 235,
      "asɛm": 236,
      "ur": 237,
      "ɛma": 238,
      "nyinaa": 239,
      "ri": 240,
      "ya": 241,
      "kwan": 242,
      "fa": 243,
      "Sɛ": 244,
      "nne": 245,
      "tu": 246,
      "ta": 247,
      "hwɛ": 248,
      "be": 249,
      "fi": 250,
      "pɛ": 251,
      "wa": 252,
      "deɛ": 253,
      "nanso": 254,
      "ara": 255,
      "hyɛ": 256,
      "mi": 257,
      "nneɛma": 258,
      "ene": 259,
      "bo": 260,
      "eɛ": 261,
      "ase": 262,
      "su": 263,
      "adwuma": 264,
      "ɛsɛ": 265,
      "ɛbɛ": 266,
      "ɔman": 267,
      "Me": 268,
      "mo": 269,
      "to": 270,
      "baa": 271,
      "mma": 272,
      "hu": 273,
      "da": 274,
      "nn": 275,
      "nko": 276,
      "saa": 277,
      "obi": 278,
      "nkur": 279,
      "kwa": 280,
      "ro": 281,
      "aman": 282,
      "Ɛyɛ": 283,
      "adwene": 284,
      "nim": 285,
      "ɛwɔ": 286,
      "anim": 287,
      "ɔfoɔ": 288,
      "gye": 289,
      "ku": 290,
      "hi": 291,
      "Wɔ": 292,
      "on": 293,
      "en": 294,
      "nyɛ": 295,
      "tumi": 296,
      "den": 297,
      "Anan": 298,
      "Ananse": 299,
      "Nan": 300,
      "gyina": 301,
      "ak": 302,
      "Nanso": 303,
      "nsa": 304,
      "yɛbɛ": 305,
      "pi": 306,
      "kɔɔ": 307,
      "ha": 308,
      "po": 309,
      "ɛnyɛ": 310,
      "ag": 311,
      "kware": 312,
      "yie": 313,
      "bu": 314,
      "do": 315,
      "ana": 316,
      "nkurɔfoɔ": 317,
      "ɛfa": 318,
      "ayɛ": 319,
      "nte": 320,
      "nnipa": 321,
      "ad": 322,
      "we": 323,
      "ama": 324,
      "hia": 325,
      "kɛ": 326,
      "nsɛm": 327,
      "Gh": 328,
      "Ɛno": 329,
      "akwan": 330,
      "Ghana": 331,
      "ban": 332,
      "li": 333,
      "wu": 334,
      "mm": 335,
      "nipa": 336,
      "dwuma": 337,
      "bɔɔ": 338,
      "nkɔ": 339,
      "aho": 340,
      "ɛre": 341,
      "Ɛnyɛ": 342,
      "bɛyɛ": 343,
      "nu": 344,
      "boa": 345,
      "sika": 346,
      "aseɛ": 347,
      "nokware": 348,
      "nti": 349,
      "ako": 350,
      "rɔ": 351,
      "soɔ": 352,
      "mme": 353,
      "Yɛn": 354,
      "mmo": 355,
      "kasa": 356,
      "wɔre": 357,
      "hwe": 358,
      "die": 359,
      "firi": 360,
      "pii": 361,
      "Na": 362,
      "aba": 363,
      "wi": 364,
      "at": 365,
      "kɛse": 366,
      "le": 367,
      "mmɔ": 368,
      "ane": 369,
      "adeɛ": 370,
      "ɛbɛma": 371,
      "paa": 372,
      "ɔre": 373,
      "biara": 374,
      "teɛ": 375,
      "akyi": 376,
      "yɔ": 377,
      "bere": 378,
      "hyi": 379,
      "ɔyɛ": 380,
      "obiara": 381,
      "sɛnea": 382,
      "ɛkyerɛ": 383,
      "ɔbɛ": 384,
      "akɔ": 385,
      "hye": 386,
      "anaa": 387,
      "nya": 388,
      "wɔbɛ": 389,
      "Ko": 390,
      "kra": 391,
      "ago": 392,
      "wɔwɔ": 393,
      "baako": 394,
      "ce": 395,
      "yɛhwɛ": 396,
      "he": 397,
      "kae": 398,
      "gu": 399,
      "amanyɔ": 400,
      "kyerɛɛ": 401,
      "Ɛsɛ": 402,
      "ran": 403,
      "nkonim": 404,
      "dɔ": 405,
      "nt": 406,
      "ɛfata": 407,
      "werɛ": 408,
      "mp": 409,
      "ɔwɔ": 410,
      "al": 411,
      "dwo": 412,
      "nka": 413,
      "ree": 414,
      "bea": 415,
      "kaa": 416,
      "anan": 417,
      "Nnipa": 418,
      "bɔɔl": 419,
      "yɛɛ": 420,
      "mmi": 421,
      "hyia": 422,
      "fu": 423,
      "du": 424,
      "uru": 425,
      "mmom": 426,
      "amanyɔsɛm": 427,
      "nkwa": 428,
      "st": 429,
      "sie": 430,
      "ano": 431,
      "fofo": 432,
      "rima": 433,
      "ng": 434,
      "wɔde": 435,
      "ar": 436,
      "kɛseɛ": 437,
      "Kofi": 438,
      "adi": 439,
      "aka": 440,
      "ɛno": 441,
      "nna": 442,
      "daa": 443,
      "ɛrekɔ": 444,
      "anigye": 445,
      "tena": 446,
      "aso": 447,
      "dɛn": 448,
      "baabi": 449,
      "ɛkɔ": 450,
      "ke": 451,
      "Wɔn": 452,
      "hyehyɛ": 453,
      "wan": 454,
      "suo": 455,
      "tion": 456,
      "hunu": 457,
      "nta": 458,
      "tɔ": 459,
      "fe": 460,
      "raa": 461,
      "maa": 462,
      "hwehwɛ": 463,
      "Saa": 464,
      "bree": 465,
      "gya": 466,
      "duru": 467,
      "ny": 468,
      "sua": 469,
      "yiye": 470,
      "ananse": 471,
      "bebree": 472,
      "mfa": 473,
      "dan": 474,
      "nom": 475,
      "san": 476,
      "yɛyɛ": 477,
      "co": 478,
      "fra": 479,
      "taa": 480,
      "er": 481,
      "yɛre": 482,
      "Wo": 483,
      "20": 484,
      "la": 485,
      "ade": 486,
      "wode": 487,
      "ɔde": 488,
      "kura": 489,
      "yin": 490,
      "anya": 491,
      "aban": 492,
      "enu": 493,
      "nnɛ": 494,
      "ɔpɛ": 495,
      "woyɛ": 496,
      "abɔ": 497,
      "yɛde": 498,
      "ɛte": 499,
      "ranteɛ": 500,
      "mpa": 501,
      "ate": 502,
      "uro": 503,
      "asa": 504,
      "wanwa": 505,
      "nteaseɛ": 506,
      "sɛe": 507,
      "agorɔ": 508,
      "ty": 509,
      "kɔsɛm": 510,
      "adu": 511,
      "ɛhia": 512,
      "akwantu": 513,
      "nwanwa": 514,
      "mmara": 515,
      "fɛ": 516,
      "as": 517,
      "nkyɛn": 518,
      "wɔyɛ": 519,
      "ebi": 520,
      "hene": 521,
      "ɔden": 522,
      "asom": 523,
      "ci": 524,
      "ɛbɛyɛ": 525,
      "mmienu": 526,
      "abu": 527,
      "wom": 528,
      "yɛwɔ": 529,
      "bom": 530,
      "mpo": 531,
      "ahoɔden": 532,
      "asomdwo": 533,
      "kuo": 534,
      "ɔfo": 535,
      "wopɛ": 536,
      "pe": 537,
      "ansa": 538,
      "No": 539,
      "rt": 540,
      "hyɛɛ": 541,
      "nnyina": 542,
      "anigyeɛ": 543,
      "anansesɛm": 544,
      "ɛnsɛ": 545,
      "202": 546,
      "wiase": 547,
      "pɔ": 548,
      "bɔne": 549,
      "nku": 550,
      "vi": 551,
      "mmerɛ": 552,
      "lo": 553,
      "dii": 554,
      "sisi": 555,
      "yɛkɔ": 556,
      "ankasa": 557,
      "koraa": 558,
      "tee": 559,
      "ki": 560,
      "yɛnni": 561,
      "nsuo": 562,
      "ɔmanfoɔ": 563,
      "ntam": 564,
      "neɛ": 565,
      "nam": 566,
      "dodo": 567,
      "dwumadie": 568,
      "akan": 569,
      "kraman": 570,
      "berɛ": 571,
      "nkye": 572,
      "yare": 573,
      "tiri": 574,
      "kyɛ": 575,
      "asomdwoeɛ": 576,
      "dz": 577,
      "mepɛ": 578,
      "din": 579,
      "abo": 580,
      "anyin": 581,
      "am": 582,
      "abakɔsɛm": 583,
      "foforo": 584,
      "bɛkɔ": 585,
      "asase": 586,
      "tie": 587,
      "wɔa": 588,
      "in": 589,
      "bra": 590,
      "nkurɔfo": 591,
      "fie": 592,
      "dɛ": 593,
      "koma": 594,
      "too": 595,
      "kɔkɔɔ": 596,
      "fam": 597,
      "nkɔmmɔ": 598,
      "ter": 599,
      "soro": 600,
      "biri": 601,
      "twa": 602,
      "ɛfiri": 603,
      "kan": 604,
      "Ɛnnɛ": 605,
      "haw": 606,
      "nto": 607,
      "ll": 608,
      "nkɔsoɔ": 609,
      "Nk": 610,
      "Mo": 611,
      "mmɔden": 612,
      "foforɔ": 613,
      "tum": 614,
      "bɔɔlo": 615,
      "nkyerɛ": 616,
      "tra": 617,
      "Ɔse": 618,
      "akoma": 619,
      "Nokware": 620,
      "barima": 621,
      "reka": 622,
      "ei": 623,
      "bɛka": 624,
      "atwa": 625,
      "Kwa": 626,
      "Mepɛ": 627,
      "ve": 628,
      "rekɔ": 629,
      "ɛho": 630,
      "ge": 631,
      "Mma": 632,
      "ru": 633,
      "yɛpɛ": 634,
      "tete": 635,
      "rs": 636,
      "asi": 637,
      "aw": 638,
      "dwene": 639,
      "hwee": 640,
      "panyin": 641,
      "wɔpɛ": 642,
      "ɛda": 643,
      "basa": 644,
      "wote": 645,
      "tun": 646,
      "ɛkɔɔ": 647,
      "nimdeɛ": 648,
      "sii": 649,
      "Be": 650,
      "ɔne": 651,
      "sesa": 652,
      "Co": 653,
      "tuntum": 654,
      "adwumayɛ": 655,
      "yam": 656,
      "Ɛwɔ": 657,
      "nhyehyɛ": 658,
      "akoko": 659,
      "nal": 660,
      "nsam": 661,
      "um": 662,
      "ment": 663,
      "of": 664,
      "kyi": 665,
      "fitaa": 666,
      "mmu": 667,
      "ata": 668,
      "\".": 669,
      "yɛka": 670,
      "nyansa": 671,
      "mfo": 672,
      "ue": 673,
      "mmeranteɛ": 674,
      "susu": 675,
      "ɔhaw": 676,
      "awerɛ": 677,
      "ete": 678,
      "Ma": 679,
      "ca": 680,
      "bɛba": 681,
      "fuo": 682,
      "Ama": 683,
      "ato": 684,
      "yɛnhwɛ": 685,
      "feɛ": 686,
      "nkuran": 687,
      "port": 688,
      "th": 689,
      "biribi": 690,
      "nɛ": 691,
      "meka": 692,
      "ck": 693,
      "2025": 694,
      "anom": 695,
      "how": 696,
      "go": 697,
      "yɛnyɛ": 698,
      "Ebi": 699,
      "gyae": 700,
      "yɛbɔ": 701,
      "akansie": 702,
      "ry": 703,
      "ɔkwan": 704,
      "ua": 705,
      "Dr": 706,
      "kuu": 707,
      "dua": 708,
      "nnwom": 709,
      "tirim": 710,
      "twe": 711,
      "Nkur": 712,
      "mmoa": 713,
      "nkabom": 714,
      "nkra": 715,
      "anin": 716,
      "Yaw": 717,
      "kita": 718,
      "akokoduru": 719,
      "Eyi": 720,
      "ataa": 721,
      "ɔte": 722,
      "ahyia": 723,
      "mmaa": 724,
      "bisa": 725,
      "ɛne": 726,
      "ren": 727,
      "ɔhene": 728,
      "ɛnni": 729,
      "Bo": 730,
      "mehwɛ": 731,
      "akyerɛ": 732,
      "Mi": 733,
      "mfi": 734,
      "bɔɔlobɔ": 735,
      "yɛdi": 736,
      "frɛ": 737,
      "anida": 738,
      "hyɛn": 739,
      "aduane": 740,
      "ss": 741,
      "tia": 742,
      "ch": 743,
      "brabɔ": 744,
      "Ɔman": 745,
      "nsɛ": 746,
      "nnyɛ": 747,
      "nneyɛɛ": 748,
      "efi": 749,
      "ɔso": 750,
      "mehu": 751,
      "ɛde": 752,
      "Aane": 753,
      "abrabɔ": 754,
      "dze": 755,
      "afe": 756,
      "mmarima": 757,
      "nten": 758,
      "ahyɛ": 759,
      "Af": 760,
      "Wei": 761,
      "mfeɛ": 762,
      "seɛ": 763,
      "Da": 764,
      "pɔn": 765,
      "ɛna": 766,
      "Ju": 767,
      "abusua": 768,
      "adaa": 769,
      "yɛbɛka": 770,
      "Sɛnea": 771,
      "gi": 772,
      "adan": 773,
      "ly": 774,
      "wie": 775,
      "bɛyɛɛ": 776,
      "Si": 777,
      "pono": 778,
      "sti": 779,
      "nteɛ": 780,
      "baeɛ": 781,
      "asetena": 782,
      "ɔbarima": 783,
      "onal": 784,
      "hɔn": 785,
      "ayare": 786,
      "papa": 787,
      "yɛbɛtumi": 788,
      "wobɛ": 789,
      "or": 790,
      "dwen": 791,
      "nnaadaa": 792,
      "tw": 793,
      "nhwɛ": 794,
      "mfasoɔ": 795,
      "kuro": 796,
      "yɛbɛyɛ": 797,
      "poli": 798,
      "kyerɛkyerɛ": 799,
      "bio": 800,
      "sta": 801,
      "akwanya": 802,
      "akyiri": 803,
      "apa": 804,
      "nnya": 805,
      "ɛbɛboa": 806,
      "koro": 807,
      "betumi": 808,
      "abɛ": 809,
      "Kwame": 810,
      "ɛbɛba": 811,
      "animfoɔ": 812,
      "toɔ": 813,
      "sukuu": 814,
      "ɔdɔ": 815,
      "kyere": 816,
      "panin": 817,
      "asɛ": 818,
      "Ne": 819,
      "agodie": 820,
      "ɛnnɛ": 821,
      "nnwa": 822,
      "ɔhyɛ": 823,
      "kwaeɛ": 824,
      "Ac": 825,
      "Nkurɔfoɔ": 826,
      "Aba": 827,
      "ɔno": 828,
      "dwom": 829,
      "ts": 830,
      "anka": 831,
      "momma": 832,
      "wɔreyɛ": 833,
      "ayaresa": 834,
      "tam": 835,
      "Ni": 836,
      "ɛnsa": 837,
      "wose": 838,
      "amammerɛ": 839,
      "anidasoɔ": 840,
      "daakye": 841,
      "cy": 842,
      "ɔse": 843,
      "Ɔkraman": 844,
      "tuo": 845,
      "gh": 846,
      "reba": 847,
      "nuanom": 848,
      "ɔkraman": 849,
      "hunuu": 850,
      "afa": 851,
      "sra": 852,
      "ol": 853,
      "pro": 854,
      "ble": 855,
      "Afri": 856,
      "bɛtumi": 857,
      "faa": 858,
      "ɛmaa": 859,
      "sia": 860,
      "nhyehyɛeɛ": 861,
      "yera": 862,
      "ou": 863,
      "anko": 864,
      "ɛm": 865,
      "sɛɛ": 866,
      "woate": 867,
      "yɛma": 868,
      "ɛba": 869,
      "siesie": 870,
      "wɛ": 871,
      "wɔte": 872,
      "CO": 873,
      "ɔn": 874,
      "sɛdeɛ": 875,
      "sere": 876,
      "amaneɛ": 877,
      "cra": 878,
      "Ɛnsɛ": 879,
      "Po": 880,
      "kaeɛ": 881,
      "ɛhyɛ": 882,
      "con": 883,
      "ɔbaa": 884,
      "kete": 885,
      "ver": 886,
      "kyerɛw": 887,
      "hyiaa": 888,
      "tor": 889,
      "ac": 890,
      "asiane": 891,
      "akwankyerɛ": 892,
      "reyɛ": 893,
      "sen": 894,
      "efisɛ": 895,
      "Sta": 896,
      "Sika": 897,
      "Jo": 898,
      "yɛhu": 899,
      "ɛtɔ": 900,
      "NP": 901,
      "mpanimfoɔ": 902,
      "aboa": 903,
      "gy": 904,
      "rehwɛ": 905,
      "nnye": 906,
      "nsu": 907,
      "woa": 908,
      "Re": 909,
      "row": 910,
      "neɛma": 911,
      "nkrataa": 912,
      "mmea": 913,
      "tional": 914,
      "afi": 915,
      "doɔ": 916,
      "Hwɛ": 917,
      ",\"": 918,
      "basabasa": 919,
      "Se": 920,
      "dɔm": 921,
      "binom": 922,
      "Ba": 923,
      "Ɛte": 924,
      "nua": 925,
      "redi": 926,
      "Bere": 927,
      "NPP": 928,
      "ssi": 929,
      "Asɛm": 930,
      "umadi": 931,
      "rd": 932,
      "wura": 933,
      "awerɛho": 934,
      "and": 935,
      "bɛdi": 936,
      "Baa": 937,
      "bisaa": 938,
      "wɔnni": 939,
      "dia": 940,
      "amanaman": 941,
      "abatoɔ": 942,
      "yɛnnyɛ": 943,
      "kɔn": 944,
      "kɛkɛ": 945,
      "ah": 946,
      "som": 947,
      "rebɔ": 948,
      "nkete": 949,
      "adwumayɛfoɔ": 950,
      "pɛɛ": 951,
      "akwa": 952,
      "ɔkɔ": 953,
      "Bi": 954,
      "ball": 955,
      "mmabaa": 956,
      "ɛka": 957,
      "nneyɛ": 958,
      "lli": 959,
      "bɔɔlbɔ": 960,
      "beaeɛ": 961,
      "mmarahyɛ": 962,
      "mekae": 963,
      "nkutoo": 964,
      "afiri": 965,
      "onipa": 966,
      "nkunim": 967,
      "el": 968,
      "Au": 969,
      "un": 970,
      "ahosuo": 971,
      "cial": 972,
      "agumadi": 973,
      "rɔfo": 974,
      "cu": 975,
      "for": 976,
      "dɔɔso": 977,
      "nyaa": 978,
      "yɛa": 979,
      "ketewa": 980,
      "19": 981,
      "ɛdi": 982,
      "gyinaa": 983,
      "wuo": 984,
      "00": 985,
      "ankopɔn": 986,
      "amanfoɔ": 987,
      "nkɔanim": 988,
      "Mme": 989,
      "eyi": 990,
      "dy": 991,
      "tal": 992,
      "per": 993,
      "kor": 994,
      "agu": 995,
      "Maa": 996,
      "es": 997,
      "ada": 998,
      "wodi": 999,
      "Mmaa": 1000,
      "Aman": 1001,
      "mmere": 1002,
      "adwo": 1003,
      "susuw": 1004,
      "As": 1005,
      "dodoɔ": 1006,
      "Ɔkaa": 1007,
      "lu": 1008,
      "Maame": 1009,
      "nnw": 1010,
      "ɔka": 1011,
      "nyankopɔn": 1012,
      "bɔɔlɔ": 1013,
      "uri": 1014,
      "Onyankopɔn": 1015,
      "bae": 1016,
      "Nneɛma": 1017,
      "gal": 1018,
      "ntɛm": 1019,
      "asraa": 1020,
      "lack": 1021,
      "yɔfoɔ": 1022,
      "yɛnya": 1023,
      "akokɔ": 1024,
      "cal": 1025,
      "Te": 1026,
      "woka": 1027,
      "yareɛ": 1028,
      "Ɔsebɔ": 1029,
      "amanneɛ": 1030,
      "tua": 1031,
      "bota": 1032,
      "Baako": 1033,
      "ayaresabea": 1034,
      "wɔkɔ": 1035,
      "cha": 1036,
      "ports": 1037,
      "ɛnneɛ": 1038,
      "mfoɔ": 1039,
      "yɛbɛkɔ": 1040,
      "ent": 1041,
      "De": 1042,
      "wɔka": 1043,
      "Nti": 1044,
      "Abakɔsɛm": 1045,
      "ir": 1046,
      "nnyinasoɔ": 1047,
      "yɛfa": 1048,
      "teeɛ": 1049,
      "Nana": 1050,
      "Su": 1051,
      "asɛnni": 1052,
      "suban": 1053,
      "mmiɛnsa": 1054,
      "atwam": 1055,
      "agye": 1056,
      "ral": 1057,
      "nkyerɛkyerɛ": 1058,
      "nsesa": 1059,
      "nkonto": 1060,
      "asetra": 1061,
      "nkonimdie": 1062,
      "ntoma": 1063,
      "ong": 1064,
      "nteɛsoɔ": 1065,
      "esi": 1066,
      "keka": 1067,
      "amanyɔfoɔ": 1068,
      "Maha": 1069,
      "ataade": 1070,
      "ame": 1071,
      "ot": 1072,
      "wɔhwɛ": 1073,
      "ɛteɛ": 1074,
      "wɔdi": 1075,
      "huu": 1076,
      "gyinagyina": 1077,
      "aha": 1078,
      "Momma": 1079,
      "bɛn": 1080,
      "nkontompo": 1081,
      "ɔhwɛ": 1082,
      "yɛte": 1083,
      "ster": 1084,
      "Accra": 1085,
      "amansan": 1086,
      "Tete": 1087,
      "tse": 1088,
      "bɛma": 1089,
      "ld": 1090,
      "He": 1091,
      "the": 1092,
      "wɔfa": 1093,
      "Mini": 1094,
      "Black": 1095,
      "mpaeɛ": 1096,
      "resi": 1097,
      "ntumi": 1098,
      "Wi": 1099,
      "anu": 1100,
      "tions": 1101,
      "nnua": 1102,
      "sei": 1103,
      "kora": 1104,
      "media": 1105,
      "nnan": 1106,
      "anaasɛ": 1107,
      "agya": 1108,
      "gyee": 1109,
      "ahodoɔ": 1110,
      "DC": 1111,
      "kakra": 1112,
      "ɛreba": 1113,
      "ɛnde": 1114,
      "Wose": 1115,
      "dwi": 1116,
      "tta": 1117,
      "Yɛ": 1118,
      "mmabu": 1119,
      "basaa": 1120,
      "Akwa": 1121,
      "yɛanya": 1122,
      "kyɛw": 1123,
      "ɔnni": 1124,
      "yewa": 1125,
      "ahwɛ": 1126,
      "reɛ": 1127,
      "dwa": 1128,
      "Mm": 1129,
      "Ɔhene": 1130,
      "son": 1131,
      "jo": 1132,
      "sifoɔ": 1133,
      "Ku": 1134,
      "ɔkaa": 1135,
      "Mahama": 1136,
      "wɔfrɛ": 1137,
      "umba": 1138,
      "asɛnnibea": 1139,
      "nnwuma": 1140,
      "Ɛfiri": 1141,
      "ɔbɛyɛ": 1142,
      "ɔbɔ": 1143,
      "'.": 1144,
      "wɔbɛyɛ": 1145,
      "maame": 1146,
      "mete": 1147,
      "sikasɛm": 1148,
      "July": 1149,
      "Lumba": 1150,
      "abi": 1151,
      "Ghanafoɔ": 1152,
      "mmɔfra": 1153,
      "bɛboa": 1154,
      "ap": 1155,
      "Yi": 1156,
      "asɛe": 1157,
      "il": 1158,
      "badw": 1159,
      "Cha": 1160,
      "ab": 1161,
      "wotee": 1162,
      "tɔn": 1163,
      "ɔdi": 1164,
      "bɛnya": 1165,
      "sini": 1166,
      "ntinn": 1167,
      "ste": 1168,
      "pintinn": 1169,
      "iɛ": 1170,
      "sɔ": 1171,
      "asɔre": 1172,
      "ɔfa": 1173,
      "onyam": 1174,
      "ber": 1175,
      "afoɔ": 1176,
      "ɛnt": 1177,
      "dzi": 1178,
      "Ɛwom": 1179,
      "yɛbɛfa": 1180,
      "Anansesɛm": 1181,
      "awi": 1182,
      "Ɛda": 1183,
      "ɔreyɛ": 1184,
      "Pro": 1185,
      "akɛ": 1186,
      "sey": 1187,
      "Sa": 1188,
      "ɔbɛkɔ": 1189,
      "biako": 1190,
      "tenten": 1191,
      "ct": 1192,
      "adesua": 1193,
      "Wa": 1194,
      "akonnwa": 1195,
      "Sha": 1196,
      "nteteeɛ": 1197,
      "up": 1198,
      "Ɔde": 1199,
      "amanɔne": 1200,
      "twɛn": 1201,
      "nyi": 1202,
      "enti": 1203,
      "abufuo": 1204,
      "gua": 1205,
      "Dan": 1206,
      "Mmarima": 1207,
      "nsakra": 1208,
      "mfoni": 1209,
      "yɛkasa": 1210,
      "ket": 1211,
      "Le": 1212,
      "Augu": 1213,
      "Ɔbaa": 1214,
      "Ab": 1215,
      "wunya": 1216,
      "nkonimdi": 1217,
      "ɔkɔɔ": 1218,
      "lity": 1219,
      "ɛhɔ": 1220,
      "ahorow": 1221,
      "kuta": 1222,
      "sec": 1223,
      "ɔnim": 1224,
      "renya": 1225,
      "ɔbɛtumi": 1226,
      "Enti": 1227,
      "ɛbɛtumi": 1228,
      "amane": 1229,
      "botaeɛ": 1230,
      "mpe": 1231,
      "ekyi": 1232,
      "mmofra": 1233,
      "ga": 1234,
      "manfoɔ": 1235,
      "tive": 1236,
      "Poli": 1237,
      "Adwuma": 1238,
      "ɛkwan": 1239,
      "Ɛhɔ": 1240,
      "asraafoɔ": 1241,
      "ID": 1242,
      "wɔbɛdi": 1243,
      "rekyerɛ": 1244,
      "hena": 1245,
      "nwa": 1246,
      "Abe": 1247,
      "yaw": 1248,
      "wɔreka": 1249,
      "August": 1250,
      "Wɔde": 1251,
      "amsey": 1252,
      "fɔ": 1253,
      "ze": 1254,
      "pɔnkɔ": 1255,
      "nneɛ": 1256,
      "Mmo": 1257,
      "NDC": 1258,
      "Yɛnhwɛ": 1259,
      "ɔda": 1260,
      "inte": 1261,
      "ebinom": 1262,
      "Di": 1263,
      "hip": 1264,
      "gyi": 1265,
      "ita": 1266,
      "wɔbɔ": 1267,
      "gra": 1268,
      "ning": 1269,
      "ing": 1270,
      "int": 1271,
      "nkuro": 1272,
      "pae": 1273,
      "ɛbɛkyerɛ": 1274,
      "ɔkae": 1275,
      "twi": 1276,
      "ɔpanyin": 1277,
      "hwere": 1278,
      "Chi": 1279,
      "ahu": 1280,
      "Mmara": 1281,
      "mpi": 1282,
      "nnu": 1283,
      "bammɔ": 1284,
      "sakra": 1285,
      "Ad": 1286,
      "yan": 1287,
      "nokwareɛ": 1288,
      "nsi": 1289,
      "ence": 1290,
      "ntaa": 1291,
      "wɔbɛtumi": 1292,
      "ɛt": 1293,
      "Yiw": 1294,
      "adanseɛ": 1295,
      "akye": 1296,
      "efiri": 1297,
      "nneyɛe": 1298,
      "ture": 1299,
      "amanyɔkuo": 1300,
      "yɛkura": 1301,
      "aduon": 1302,
      "ɔreka": 1303,
      "agyina": 1304,
      "mmabun": 1305,
      "Papa": 1306,
      "nsesaeɛ": 1307,
      "biribiara": 1308,
      "srɛ": 1309,
      "Aban": 1310,
      "yɛhia": 1311,
      "Ho": 1312,
      "rity": 1313,
      "rekasa": 1314,
      "fuw": 1315,
      "ɔpa": 1316,
      "ɛbi": 1317,
      "FA": 1318,
      "atadeɛ": 1319,
      "ɔsebɔ": 1320,
      "yɛnka": 1321,
      "anea": 1322,
      "fufuo": 1323,
      "yɛboa": 1324,
      "wunni": 1325,
      "tan": 1326,
      "hosan": 1327,
      "Ampa": 1328,
      "Ar": 1329,
      "GH": 1330,
      "ɛbɛsɛe": 1331,
      "nifoɔ": 1332,
      "sante": 1333,
      "wotumi": 1334,
      "dom": 1335,
      "We": 1336,
      "Shatta": 1337,
      "ɛboa": 1338,
      "otball": 1339,
      "dibea": 1340,
      "mpɛ": 1341,
      "tey": 1342,
      "Par": 1343,
      "nkɔm": 1344,
      "adwumakuo": 1345,
      "some": 1346,
      "bue": 1347,
      "mpɔ": 1348,
      "abɛyɛ": 1349,
      "nee": 1350,
      "ɔko": 1351,
      "ria": 1352,
      "akwahosan": 1353,
      "bɛbɔ": 1354,
      "wɔrehwɛ": 1355,
      "ex": 1356,
      "stry": 1357,
      "pu": 1358,
      "Man": 1359,
      "TV": 1360,
      "ɛdan": 1361,
      "Ɔkae": 1362,
      "wɔdze": 1363,
      "tic": 1364,
      "awerɛhow": 1365,
      "ɔbɛdi": 1366,
      "Do": 1367,
      "mia": 1368,
      "atena": 1369,
      "pre": 1370,
      "dent": 1371,
      "sradeɛ": 1372,
      "urity": 1373,
      "car": 1374,
      "Africa": 1375,
      "ahobammɔ": 1376,
      "nkita": 1377,
      "nwo": 1378,
      "akwanhyia": 1379,
      "urt": 1380,
      "rante": 1381,
      "kuma": 1382,
      "hwan": 1383,
      "Mu": 1384,
      "afoforo": 1385,
      "hwehwɛɛ": 1386,
      "Abo": 1387,
      "lec": 1388,
      "ɛbɛkɔ": 1389,
      "akyire": 1390,
      "In": 1391,
      "ahyehyɛ": 1392,
      "Wale": 1393,
      "dwiri": 1394,
      "hwi": 1395,
      "abɔnten": 1396,
      "nsakraeɛ": 1397,
      "yɛnnyina": 1398,
      "ananmu": 1399,
      "yɛbɛnya": 1400,
      "Ɛbɛyɛ": 1401,
      "social": 1402,
      "nkitaho": 1403,
      "aduonu": 1404,
      "tro": 1405,
      "wɔbɛbɔ": 1406,
      "ekyir": 1407,
      "wieeɛ": 1408,
      "ef": 1409,
      "Uni": 1410,
      "uraa": 1411,
      "ron": 1412,
      "alth": 1413,
      "wɔhyɛ": 1414,
      "line": 1415,
      "ɔmo": 1416,
      "Ɔka": 1417,
      "ɛkyɛ": 1418,
      "ɛnna": 1419,
      "Ɛkyerɛ": 1420,
      "buaa": 1421,
      "Asa": 1422,
      "tare": 1423,
      "llion": 1424,
      "nhyia": 1425,
      "mmra": 1426,
      "akɛseɛ": 1427,
      "boɔ": 1428,
      "difoɔ": 1429,
      "Akwatia": 1430,
      "nidi": 1431,
      "nno": 1432,
      "adaka": 1433,
      "im": 1434,
      "han": 1435,
      "Ɛnneɛ": 1436,
      "ght": 1437,
      "Mmeranteɛ": 1438,
      "galamsey": 1439,
      "Li": 1440,
      "bosome": 1441,
      "aduru": 1442,
      "ɔyɛɛ": 1443,
      "agoru": 1444,
      "les": 1445,
      "fɛɛ": 1446,
      "wɔbɛfa": 1447,
      "pra": 1448,
      "ɔkyerɛ": 1449,
      "Agya": 1450,
      "COV": 1451,
      "COVID": 1452,
      "akasa": 1453,
      "sion": 1454,
      "pho": 1455,
      "ahaban": 1456,
      "mono": 1457,
      "yɛbɛma": 1458,
      "titiri": 1459,
      "rebu": 1460,
      "pri": 1461,
      "asesa": 1462,
      "Yɛwɔ": 1463,
      "Nipa": 1464,
      "animgu": 1465,
      "krataa": 1466,
      "titiriw": 1467,
      "Nea": 1468,
      "aeɛ": 1469,
      "yɛmfa": 1470,
      "abofra": 1471,
      "Gol": 1472,
      "ahwehwɛ": 1473,
      "koto": 1474,
      "yɛreka": 1475,
      "mpae": 1476,
      "asomdwoe": 1477,
      "der": 1478,
      "nkoaa": 1479,
      "heli": 1480,
      "Nige": 1481,
      "yɛgye": 1482,
      "pter": 1483,
      "nkyɛ": 1484,
      "ting": 1485,
      "Dɛn": 1486,
      "sɔre": 1487,
      "So": 1488,
      "nse": 1489,
      "dea": 1490,
      "Ebinom": 1491,
      "Dad": 1492,
      "wɔanya": 1493,
      "rika": 1494,
      "National": 1495,
      "duruu": 1496,
      "abusuabɔ": 1497,
      "yii": 1498,
      "can": 1499,
      "ted": 1500,
      "wɔgyina": 1501,
      "wunim": 1502,
      "qua": 1503,
      "tutu": 1504,
      "ation": 1505,
      "ataadeɛ": 1506,
      "To": 1507,
      "Al": 1508,
      "egyina": 1509,
      "che": 1510,
      "bɛsɛe": 1511,
      "ebia": 1512,
      "Stars": 1513,
      "akwantuo": 1514,
      "Joh": 1515,
      "nnamfo": 1516,
      "football": 1517,
      "asɔ": 1518,
      "kar": 1519,
      "ɔkasa": 1520,
      "Obiara": 1521,
      "wore": 1522,
      "outh": 1523,
      "ssion": 1524,
      "pene": 1525,
      "Minister": 1526,
      "Hi": 1527,
      "sh": 1528,
      "Bawu": 1529,
      "twerɛ": 1530,
      "team": 1531,
      "wɔtwe": 1532,
      "Daddy": 1533,
      "ɛhe": 1534,
      "awa": 1535,
      "nsia": 1536,
      "baawa": 1537,
      "copter": 1538,
      "Bawumia": 1539,
      "gyaa": 1540,
      "kyɛn": 1541,
      "abom": 1542,
      "sɛn": 1543,
      "ɔnyɛ": 1544,
      "nnis": 1545,
      "sports": 1546,
      "mber": 1547,
      "atade": 1548,
      "awerɛhoɔ": 1549,
      "ces": 1550,
      "mpɔtam": 1551,
      "nkaeɛ": 1552,
      "reko": 1553,
      "Mar": 1554,
      "polisifoɔ": 1555,
      "wɔayɛ": 1556,
      "hwɛɛ": 1557,
      "table": 1558,
      "wɔrebɔ": 1559,
      "lub": 1560,
      "lue": 1561,
      "ɛmfa": 1562,
      "Obi": 1563,
      "adze": 1564,
      "gyidi": 1565,
      "yɛkae": 1566,
      "yim": 1567,
      "mmerɛw": 1568,
      "kuw": 1569,
      "wɔredi": 1570,
      "pɛɛpɛ": 1571,
      "ɔdii": 1572,
      "2024": 1573,
      "yɛbɛdi": 1574,
      "au": 1575,
      "suro": 1576,
      "atar": 1577,
      "Ro": 1578,
      "akannifoɔ": 1579,
      "awerɛhosɛm": 1580,
      "stice": 1581,
      "EC": 1582,
      "afoforɔ": 1583,
      "awieeɛ": 1584,
      "stra": 1585,
      "nhyehyɛɛ": 1586,
      "nhwehwɛ": 1587,
      "yɛgyina": 1588,
      "Kw": 1589,
      "sk": 1590,
      "ɛnnyɛ": 1591,
      "Nigeria": 1592,
      "mman": 1593,
      "AF": 1594,
      "Ɔpɛ": 1595,
      "Commi": 1596,
      "ɔma": 1597,
      "nnim": 1598,
      "tenaa": 1599,
      "deo": 1600,
      "bobɔ": 1601,
      "hɔnom": 1602,
      "ɔfra": 1603,
      "rld": 1604,
      "Wiase": 1605,
      "security": 1606,
      "woan": 1607,
      "basabasayɛ": 1608,
      "nhyɛ": 1609,
      "pla": 1610,
      "nketenkete": 1611,
      "Ako": 1612,
      "rth": 1613,
      "Police": 1614,
      "abere": 1615,
      "Kwadwo": 1616,
      "sport": 1617,
      "ɛsɛe": 1618,
      "Go": 1619,
      "Ɔkɔɔ": 1620,
      "pɛpɛɛpɛ": 1621,
      "nhwɛsoɔ": 1622,
      "ɛbɔ": 1623,
      "yere": 1624,
      "see": 1625,
      "ans": 1626,
      "nkɔso": 1627,
      "Vi": 1628,
      "brɛ": 1629,
      "par": 1630,
      "Ɛyɛɛ": 1631,
      "pue": 1632,
      "korɛ": 1633,
      "bɔfoɔ": 1634,
      "dɔɔ": 1635,
      "Amanyɔ": 1636,
      "Dabi": 1637,
      "wɔne": 1638,
      "yɛreyɛ": 1639,
      "urna": 1640,
      "atoro": 1641,
      "Mmɔfra": 1642,
      "yɔnko": 1643,
      "nson": 1644,
      "monhwɛ": 1645,
      "sto": 1646,
      "Afe": 1647,
      "ɔbɔɔ": 1648,
      "sor": 1649,
      "Fi": 1650,
      "pong": 1651,
      "national": 1652,
      "renee": 1653,
      "sy": 1654,
      "yɛbɛhu": 1655,
      "edi": 1656,
      "mba": 1657,
      "Bu": 1658,
      "ɔbɛka": 1659,
      "wɔbɛma": 1660,
      "nhyehyɛe": 1661,
      "Nko": 1662,
      "dane": 1663,
      "John": 1664,
      "Esi": 1665,
      "spe": 1666,
      "yɛnkɔ": 1667,
      "lic": 1668,
      "blue": 1669,
      "ɛwom": 1670,
      "korɔ": 1671,
      "ampa": 1672,
      "nd": 1673,
      "nneyɛeɛ": 1674,
      "fɛɛfɛ": 1675,
      "mmeaeɛ": 1676,
      "lf": 1677,
      "pon": 1678,
      "wɔbɔɔ": 1679,
      "\",": 1680,
      "Nsɛm": 1681,
      "adɛn": 1682,
      "animu": 1683,
      "awiei": 1684,
      "yɛhyɛ": 1685,
      "ness": 1686,
      "deda": 1687,
      "Nkurɔfo": 1688,
      "woyi": 1689,
      "dio": 1690,
      "Asante": 1691,
      "ɔɔ": 1692,
      "ms": 1693,
      "mmerante": 1694,
      "Addo": 1695,
      "ons": 1696,
      "yaa": 1697,
      "Presi": 1698,
      "yo": 1699,
      "emu": 1700,
      "Ɛdan": 1701,
      "serew": 1702,
      "Cup": 1703,
      "mantam": 1704,
      "menim": 1705,
      "nye": 1706,
      "ɛsi": 1707,
      "tire": 1708,
      "ae": 1709,
      "by": 1710,
      "Ban": 1711,
      "ayi": 1712,
      "ɔbɛma": 1713,
      "animuonyam": 1714,
      "video": 1715,
      "duku": 1716,
      "kɔsi": 1717,
      "cre": 1718,
      "Ɛbi": 1719,
      "Ɔkɔ": 1720,
      "ɛbaa": 1721,
      "ɔrehwɛ": 1722,
      "ague": 1723,
      "enne": 1724,
      "kyeree": 1725,
      "ɛsom": 1726,
      "ɔmanpanin": 1727,
      "Sports": 1728,
      "Ɔbarima": 1729,
      "gugu": 1730,
      "kosi": 1731,
      "ɛyɛɛ": 1732,
      "ph": 1733,
      "animguaseɛ": 1734,
      "fii": 1735,
      "boro": 1736,
      "Wɔka": 1737,
      "wube": 1738,
      "mmɔdenbɔ": 1739,
      "MP": 1740,
      "gyeɛ": 1741,
      "Nnua": 1742,
      "badwa": 1743,
      "ɛso": 1744,
      "cho": 1745,
      "dis": 1746,
      "kyerɛe": 1747,
      "lan": 1748,
      "ɔrekyerɛ": 1749,
      "raman": 1750,
      "mic": 1751,
      "akata": 1752,
      "Adan": 1753,
      "ɛmu": 1754,
      "Ei": 1755,
      "yɛhwehwɛ": 1756,
      "Ri": 1757,
      "Adɛn": 1758,
      "tsena": 1759,
      "wɔyɛɛ": 1760,
      "Regi": 1761,
      "Amanyɔsɛm": 1762,
      "life": 1763,
      "tow": 1764,
      "yɛfoɔ": 1765,
      "rɛw": 1766,
      "yɛbu": 1767,
      "Chief": 1768,
      "South": 1769,
      "rema": 1770,
      "ɛneɛ": 1771,
      "Mr": 1772,
      "Ser": 1773,
      "agodifoɔ": 1774,
      "mmirika": 1775,
      "gen": 1776,
      "million": 1777,
      "nkonnwa": 1778,
      "Kojo": 1779,
      "dwoo": 1780,
      "ɛkura": 1781,
      "bility": 1782,
      "cation": 1783,
      "nsah": 1784,
      "Ɔmanpanyin": 1785,
      "Ti": 1786,
      "Fo": 1787,
      "ctor": 1788,
      "vo": 1789,
      "abue": 1790,
      "nnam": 1791,
      "rankaa": 1792,
      "obu": 1793,
      "Aberanteɛ": 1794,
      "anɛt": 1795,
      "ati": 1796,
      "Ɛneɛ": 1797,
      "mpan": 1798,
      "hamme": 1799,
      "sic": 1800,
      "adane": 1801,
      "vice": 1802,
      "amah": 1803,
      "World": 1804,
      "nkura": 1805,
      "ɛreyɛ": 1806,
      "kanyan": 1807,
      "Ɔyɛ": 1808,
      "mfimfi": 1809,
      "nkum": 1810,
      "kro": 1811,
      "Justice": 1812,
      "ɔrekɔ": 1813,
      "Fe": 1814,
      "High": 1815,
      "ling": 1816,
      "tom": 1817,
      "sm": 1818,
      "atɛnt": 1819,
      "acci": 1820,
      "bena": 1821,
      "Binom": 1822,
      "nkae": 1823,
      "US": 1824,
      "kɔeɛ": 1825,
      "abɔfra": 1826,
      "ayera": 1827,
      "Mfeɛ": 1828,
      "abe": 1829,
      "tes": 1830,
      "tho": 1831,
      "hammed": 1832,
      "bɛhyɛ": 1833,
      "ɔbɛfa": 1834,
      "ɛɛ": 1835,
      "wɔhwehwɛ": 1836,
      "atɔ": 1837,
      "yɛrehwɛ": 1838,
      "bibi": 1839,
      "lls": 1840,
      "anuonyam": 1841,
      "twaa": 1842,
      "retwa": 1843,
      "nhwehwɛmu": 1844,
      "Koto": 1845,
      "ɛnam": 1846,
      "ɛdɔɔso": 1847,
      "ɔbɛnya": 1848,
      "intanɛt": 1849,
      "ɔmanpanyin": 1850,
      "North": 1851,
      "EO": 1852,
      "spi": 1853,
      "wɔrekɔ": 1854,
      "nho": 1855,
      "dium": 1856,
      "President": 1857,
      "dus": 1858,
      "nnamfoɔ": 1859,
      "mpaboa": 1860,
      "je": 1861,
      "rɔfoɔ": 1862,
      "Kudus": 1863,
      "owuo": 1864,
      "eneral": 1865,
      "Afrika": 1866,
      "dwiriw": 1867,
      "yɛnim": 1868,
      "mpoano": 1869,
      "wɔnyɛ": 1870,
      "ɔhyɛɛ": 1871,
      "afiase": 1872,
      "Pe": 1873,
      "ɔbɛkyerɛ": 1874,
      "afei": 1875,
      "kame": 1876,
      "ɔgyina": 1877,
      "Yɛnni": 1878,
      "nkwadaa": 1879,
      "abote": 1880,
      "fufuw": 1881,
      "esisi": 1882,
      "nnum": 1883,
      "aduro": 1884,
      "helicopter": 1885,
      "is": 1886,
      "Ɔno": 1887,
      "nipadua": 1888,
      "sereɛ": 1889,
      "akokɔsradeɛ": 1890,
      "afo": 1891,
      "dge": 1892,
      "tch": 1893,
      "Ɔbɛ": 1894,
      "mpanin": 1895,
      "nhyiamu": 1896,
      "baabiara": 1897,
      "Nkwa": 1898,
      "nnyi": 1899,
      "tew": 1900,
      "day": 1901,
      "niwa": 1902,
      "boaboa": 1903,
      "nnyinaso": 1904,
      "Yɛhia": 1905,
      "hwiren": 1906,
      "atɛntrenee": 1907,
      "Ɛne": 1908,
      "nwura": 1909,
      "vision": 1910,
      "anadwo": 1911,
      "yer": 1912,
      "nokorɛ": 1913,
      "hyeɛ": 1914,
      "muo": 1915,
      "ɔmanfo": 1916,
      "kum": 1917,
      "Mepa": 1918,
      "wɔbɛkɔ": 1919,
      "golf": 1920,
      "kyiri": 1921,
      "kyerɛkyerɛɛ": 1922,
      "mpanyin": 1923,
      "age": 1924,
      "inter": 1925,
      "mpaebɔ": 1926,
      "Mohammed": 1927,
      "General": 1928,
      "sho": 1929,
      "ration": 1930,
      "mmeɛnsa": 1931,
      "mehyɛ": 1932,
      "ben": 1933,
      "atia": 1934,
      "wene": 1935,
      "Mensah": 1936,
      "tene": 1937,
      "wɔnam": 1938,
      "mpre": 1939,
      "anidaso": 1940,
      "Aku": 1941,
      "Mon": 1942,
      "Nya": 1943,
      "daadaa": 1944,
      "nin": 1945,
      "rehyɛ": 1946,
      "nwonwa": 1947,
      "yɛnkyerɛ": 1948,
      "mpem": 1949,
      "bɛfa": 1950,
      "fɛfɛɛfɛ": 1951,
      "pan": 1952,
      "ju": 1953,
      "ɛgyina": 1954,
      "wɔmfa": 1955,
      "yɛnyina": 1956,
      "Agye": 1957,
      "tuu": 1958,
      "fee": 1959,
      "wuhu": 1960,
      "nkɔmhyɛ": 1961,
      "Mmarahyɛ": 1962,
      "num": 1963,
      "amanneɛbɔ": 1964,
      "tiee": 1965,
      "lia": 1966,
      "dɛɛ": 1967,
      "tsi": 1968,
      "yɛhunu": 1969,
      "bɛto": 1970,
      "rɛn": 1971,
      "Con": 1972,
      "yɛbisa": 1973,
      "tran": 1974,
      "box": 1975,
      "bɛkyerɛ": 1976,
      "ding": 1977,
      "tain": 1978,
      "frankaa": 1979,
      "qu": 1980,
      "Ɔpa": 1981,
      "amanmuo": 1982,
      "cou": 1983,
      "stru": 1984,
      "bɔɔlobɔfoɔ": 1985,
      "Car": 1986,
      "Mese": 1987,
      "abotare": 1988,
      "ds": 1989,
      "ast": 1990,
      "yɛfrɛ": 1991,
      "dadeɛ": 1992,
      "ebien": 1993,
      "faako": 1994,
      "mienu": 1995,
      "Ɔsebo": 1996,
      "wɔahyehyɛ": 1997,
      "yɛan": 1998,
      "wia": 1999,
      "reyi": 2000,
      "mfiri": 2001,
      "asua": 2002,
      "bɛgyina": 2003,
      "paw": 2004,
      "Wu": 2005,
      "gre": 2006,
      "000": 2007,
      "baayewa": 2008,
      "ɔbɛboa": 2009,
      "bɛkaa": 2010,
      "ws": 2011,
      "Ɛkame": 2012,
      "rehu": 2013,
      "duro": 2014,
      "awo": 2015,
      "Ɔso": 2016,
      "ser": 2017,
      "atumi": 2018,
      "Adu": 2019,
      "chi": 2020,
      "ɔhunuu": 2021,
      "nkyin": 2022,
      "yɛkyerɛ": 2023,
      "hyehye": 2024,
      "ji": 2025,
      "onim": 2026,
      "ɛntɛn": 2027,
      "Kwabena": 2028,
      "Ɛna": 2029,
      "wɔhu": 2030,
      "wogye": 2031,
      "hwene": 2032,
      "afidie": 2033,
      "wɔdii": 2034,
      "wotwa": 2035,
      "wadi": 2036,
      "hyerɛn": 2037,
      "funu": 2038,
      "mpions": 2039,
      "GFA": 2040,
      "ahwehwɛniwa": 2041,
      "bɛtena": 2042,
      "tics": 2043,
      "shi": 2044,
      "mfonini": 2045,
      "ntie": 2046,
      "wanya": 2047,
      "Kuma": 2048,
      "aniwu": 2049,
      "awu": 2050,
      "mmuaeɛ": 2051,
      "ataare": 2052,
      "wer": 2053,
      "ɛhyɛn": 2054,
      "ok": 2055,
      "ɛpono": 2056,
      "kɔkɔ": 2057,
      "monyɛ": 2058,
      "Kotoko": 2059,
      "mpong": 2060,
      "talent": 2061,
      "Adwene": 2062,
      "Nsuo": 2063,
      "cle": 2064,
      "gital": 2065,
      "res": 2066,
      "stitu": 2067,
      "ente": 2068,
      "Ministry": 2069,
      "wɔaka": 2070,
      "mar": 2071,
      "hyew": 2072,
      "tennis": 2073,
      "mpɔn": 2074,
      "ties": 2075,
      "wɔsɛe": 2076,
      "wiem": 2077,
      "rest": 2078,
      "Wɔpɛ": 2079,
      "mmuo": 2080,
      "dwadie": 2081,
      "ami": 2082,
      "Boamah": 2083,
      "llo": 2084,
      "aniwuo": 2085,
      "Oman": 2086,
      "Nnipakuo": 2087,
      "syste": 2088,
      "yɛrekɔ": 2089,
      "atra": 2090,
      "ogya": 2091,
      "wowɔ": 2092,
      "Gya": 2093,
      "fura": 2094,
      "bɛpɛ": 2095,
      "egu": 2096,
      "waa": 2097,
      "nananom": 2098,
      "nkunimdie": 2099,
      "Wɔse": 2100,
      "soci": 2101,
      "men": 2102,
      "por": 2103,
      "nter": 2104,
      "ric": 2105,
      "hyira": 2106,
      "Aborɔfo": 2107,
      "anɔpa": 2108,
      "ɔfiri": 2109,
      "hokwan": 2110,
      "yɛbɛgyina": 2111,
      "Sukuu": 2112,
      "asu": 2113,
      "mfaso": 2114,
      "af": 2115,
      "dada": 2116,
      "Ebia": 2117,
      "ahyɛn": 2118,
      "asiesie": 2119,
      "elec": 2120,
      "pen": 2121,
      "ɛkanyan": 2122,
      "court": 2123,
      "kanea": 2124,
      "Ɔbɔɔ": 2125,
      "ls": 2126,
      "dɛm": 2127,
      "Nkwadaa": 2128,
      "wor": 2129,
      "Ɔhyɛ": 2130,
      "radio": 2131,
      "list": 2132,
      "nnyae": 2133,
      "yɛbɛhwɛ": 2134,
      "woahunu": 2135,
      "abien": 2136,
      "ace": 2137,
      "abɛka": 2138,
      "ahoma": 2139,
      "cer": 2140,
      "inve": 2141,
      "twene": 2142,
      "blic": 2143,
      "Mmofra": 2144,
      "Kwe": 2145,
      "om": 2146,
      "wɔbɛboa": 2147,
      "League": 2148,
      "ns": 2149,
      "ens": 2150,
      "ɔnya": 2151,
      "wɔhyehyɛ": 2152,
      "mfonin": 2153,
      "party": 2154,
      "Woka": 2155,
      "Web": 2156,
      "key": 2157,
      "For": 2158,
      "ɔkaeɛ": 2159,
      "kyerɛkyerɛfoɔ": 2160,
      "phone": 2161,
      "Bank": 2162,
      "wɔbɛka": 2163,
      "GhanaWeb": 2164,
      "NA": 2165,
      "ɛtwa": 2166,
      "bɛhwɛ": 2167,
      "Amo": 2168,
      "ney": 2169,
      "bɛhu": 2170,
      "woanya": 2171,
      "club": 2172,
      "dwe": 2173,
      "Ago": 2174,
      "ɛhwehwɛ": 2175,
      "wɔrekyerɛ": 2176,
      "abɔdeɛ": 2177,
      "ction": 2178,
      "didi": 2179,
      "lɔ": 2180,
      "cture": 2181,
      "pere": 2182,
      "nkitahodie": 2183,
      "ahe": 2184,
      "wɔfiri": 2185,
      "wei": 2186,
      "gyaee": 2187,
      "ɛkame": 2188,
      "lle": 2189,
      "mask": 2190,
      "apɔ": 2191,
      "Able": 2192,
      "ten": 2193,
      "prama": 2194,
      "Commission": 2195,
      "II": 2196,
      "kuraa": 2197,
      "tical": 2198,
      "ɛbɛtena": 2199,
      "ffi": 2200,
      "music": 2201,
      "cip": 2202,
      "top": 2203,
      "Service": 2204,
      "Ablekuma": 2205,
      "wui": 2206,
      "ɔbea": 2207,
      "nnamfonom": 2208,
      "tɛ": 2209,
      "enyim": 2210,
      "The": 2211,
      "aku": 2212,
      "Ɔbaako": 2213,
      "dwumadi": 2214,
      "mpren": 2215,
      "red": 2216,
      "him": 2217,
      "atɛn": 2218,
      "eco": 2219,
      "bɛsi": 2220,
      "mmuni": 2221,
      "firii": 2222,
      "ach": 2223,
      "wee": 2224,
      "ɛnkyerɛ": 2225,
      "agyapa": 2226,
      "ssa": 2227,
      "Health": 2228,
      "ɔpatuo": 2229,
      "trans": 2230,
      "afahyɛ": 2231,
      "baasa": 2232,
      "Wɔre": 2233,
      "wubetumi": 2234,
      "ramani": 2235,
      "ɛdɛn": 2236,
      "wɔkɔɔ": 2237,
      "digital": 2238,
      "agyae": 2239,
      "rship": 2240,
      "ttee": 2241,
      "Pre": 2242,
      "ard": 2243,
      "versi": 2244,
      "demo": 2245,
      "ahofa": 2246,
      "Ɛnɛ": 2247,
      "adwumayɛbea": 2248,
      "bɔɔlbɔfoɔ": 2249,
      "yɛeɛ": 2250,
      "nkogu": 2251,
      "mate": 2252,
      "ina": 2253,
      "woahwɛ": 2254,
      "Ag": 2255,
      "wɔma": 2256,
      "akokoɔ": 2257,
      "wɔboa": 2258,
      "24": 2259,
      "metumi": 2260,
      "akuraa": 2261,
      "akansi": 2262,
      "Omane": 2263,
      "asisi": 2264,
      "ɛsii": 2265,
      "ɔboa": 2266,
      "wuiɛ": 2267,
      "offi": 2268,
      "ɛhaw": 2269,
      "indu": 2270,
      "Ye": 2271,
      "nwɔtwe": 2272,
      "Mete": 2273,
      "leade": 2274,
      "pɛn": 2275,
      "wogyina": 2276,
      "Yɛre": 2277,
      "15": 2278,
      "refa": 2279,
      "val": 2280,
      "Ntikuma": 2281,
      "nsunsu": 2282,
      "wubehu": 2283,
      "10": 2284,
      "ker": 2285,
      "abubu": 2286,
      "Dramani": 2287,
      "ses": 2288,
      "atu": 2289,
      "sukuufoɔ": 2290,
      "stan": 2291,
      "kama": 2292,
      "Fran": 2293,
      "Sto": 2294,
      "sane": 2295,
      "repɛ": 2296,
      "gyei": 2297,
      "health": 2298,
      "nkrabea": 2299,
      "wofa": 2300,
      "afuo": 2301,
      "Bɔɔ": 2302,
      "bɔfra": 2303,
      "wɔbɛnya": 2304,
      "hel": 2305,
      "nsunsuan": 2306,
      "Stadium": 2307,
      "Pri": 2308,
      "nyame": 2309,
      "United": 2310,
      "Sar": 2311,
      "tri": 2312,
      "ɔrebɔ": 2313,
      "abobɔ": 2314,
      "wɔnya": 2315,
      "2023": 2316,
      "Kumasi": 2317,
      "ɔsan": 2318,
      "wɔan": 2319,
      "mfe": 2320,
      "sociation": 2321,
      "mfimfini": 2322,
      "arti": 2323,
      "strate": 2324,
      "Ɛdɛn": 2325,
      "Ofo": 2326,
      "yɛbɛbɔ": 2327,
      "nkuranhyɛ": 2328,
      "Ɔpatuo": 2329,
      "anwu": 2330,
      "pem": 2331,
      "King": 2332,
      "tebea": 2333,
      "mon": 2334,
      "stri": 2335,
      "Ta": 2336,
      "od": 2337,
      "ɛbɛyɛɛ": 2338,
      "vacci": 2339,
      "wɔrehyɛ": 2340,
      "CON": 2341,
      "Abu": 2342,
      "Court": 2343,
      "nose": 2344,
      "arts": 2345,
      "pefee": 2346,
      "Ame": 2347,
      "bia": 2348,
      "nes": 2349,
      "beebi": 2350,
      "nteɛteɛ": 2351,
      "Ah": 2352,
      "ig": 2353,
      "ntadeɛ": 2354,
      "akasakasa": 2355,
      "Que": 2356,
      "nation": 2357,
      "agoprama": 2358,
      "atwerɛ": 2359,
      "atwe": 2360,
      "ɔbɛba": 2361,
      "ntɔ": 2362,
      "Yo": 2363,
      "sector": 2364,
      "system": 2365,
      "wɔnim": 2366,
      "nifa": 2367,
      "akwantufoɔ": 2368,
      "Partey": 2369,
      "ɛhwɛ": 2370,
      "AFCON": 2371,
      "discip": 2372,
      "mede": 2373,
      "meteɛ": 2374,
      "awareɛ": 2375,
      "Nyame": 2376,
      "sin": 2377,
      "yɛgyae": 2378,
      "Ex": 2379,
      "ɔsom": 2380,
      "FM": 2381,
      "mer": 2382,
      "buo": 2383,
      "Barima": 2384,
      "und": 2385,
      "AC": 2386,
      "pl": 2387,
      "yɛsesa": 2388,
      "tsir": 2389,
      "Agra": 2390,
      "tru": 2391,
      "nnuane": 2392,
      "Golf": 2393,
      "uni": 2394,
      "ɛmfata": 2395,
      "mpanyi": 2396,
      "nkron": 2397,
      "Kor": 2398,
      "ames": 2399,
      "ananmusini": 2400,
      "Owu": 2401,
      "meyɛ": 2402,
      "metee": 2403,
      "Yɛnyɛ": 2404,
      "nkɔmmɔdie": 2405,
      "Akan": 2406,
      "yɛwerɛ": 2407,
      "foro": 2408,
      "sup": 2409,
      "bro": 2410,
      "siness": 2411,
      "mpon": 2412,
      "wɔnnyɛ": 2413,
      "Afei": 2414,
      "cri": 2415,
      "asraafo": 2416,
      "Ap": 2417,
      "yɛnam": 2418,
      "mini": 2419,
      "mehunu": 2420,
      "annye": 2421,
      "guu": 2422,
      "Agradaa": 2423,
      "kɔe": 2424,
      "industry": 2425,
      "us": 2426,
      "lympi": 2427,
      "lar": 2428,
      "rus": 2429,
      "nsem": 2430,
      "Association": 2431,
      "yɛtie": 2432,
      "nkan": 2433,
      "Mmranteɛ": 2434,
      "ɛpo": 2435,
      "agement": 2436,
      "ɔrekasa": 2437,
      "anigyesɛm": 2438,
      "yɛsakra": 2439,
      "18": 2440,
      "dwane": 2441,
      "Ɔpanyin": 2442,
      "Cen": 2443,
      "ring": 2444,
      "akyekyere": 2445,
      "Kaa": 2446,
      "wɔgye": 2447,
      "abibi": 2448,
      "wea": 2449,
      "versity": 2450,
      "renyɛ": 2451,
      "Mema": 2452,
      "net": 2453,
      "Ɔmanpanin": 2454,
      "EOCO": 2455,
      "Champions": 2456,
      "rentumi": 2457,
      "siafo": 2458,
      "Gold": 2459,
      "chool": 2460,
      "adwe": 2461,
      "apagya": 2462,
      "Ge": 2463,
      "zi": 2464,
      "nwoma": 2465,
      "penee": 2466,
      "discipline": 2467,
      "sesei": 2468,
      "titire": 2469,
      "agumadifoɔ": 2470,
      "Daa": 2471,
      "hea": 2472,
      "dri": 2473,
      "denne": 2474,
      "ɛbɛka": 2475,
      "nnomaa": 2476,
      "Owusu": 2477,
      "ɔpanin": 2478,
      "ers": 2479,
      "wonni": 2480,
      "saw": 2481,
      "fɔm": 2482,
      "Region": 2483,
      "tiaa": 2484,
      "election": 2485,
      "borɔ": 2486,
      "akyerɛkyerɛ": 2487,
      "aberanteɛ": 2488,
      "Ch": 2489,
      "Ha": 2490,
      "baanu": 2491,
      "akura": 2492,
      "ɛsen": 2493,
      "adɔ": 2494,
      "cil": 2495,
      "Prof": 2496,
      "nkurow": 2497,
      "kata": 2498,
      "muel": 2499,
      "ley": 2500,
      "Samuel": 2501,
      "boxing": 2502,
      "structure": 2503,
      "bre": 2504,
      "retwɛn": 2505,
      "African": 2506,
      "wogyae": 2507,
      "bas": 2508,
      "mihunu": 2509,
      "mehuu": 2510,
      "wobɛhu": 2511,
      "kente": 2512,
      "Ɛtɔ": 2513,
      "Wote": 2514,
      "don": 2515,
      "Ɛhyɛn": 2516,
      "ɔpɔnkɔ": 2517,
      "dam": 2518,
      "wohwɛ": 2519,
      "it": 2520,
      "bal": 2521,
      "amann": 2522,
      "kyire": 2523,
      "daw": 2524,
      "dɔn": 2525,
      "nment": 2526,
      "yini": 2527,
      "legal": 2528,
      "Gal": 2529,
      "nest": 2530,
      "abaso": 2531,
      "king": 2532,
      "woahu": 2533,
      "11": 2534,
      "Osei": 2535,
      "ɔkyerɛɛ": 2536,
      "nance": 2537,
      "akyɛ": 2538,
      "liament": 2539,
      "akwannya": 2540,
      "fl": 2541,
      "mprempren": 2542,
      "HI": 2543,
      "sem": 2544,
      "frama": 2545,
      "ɔyareɛ": 2546,
      "nkwase": 2547,
      "Tema": 2548,
      "nda": 2549,
      "bɛte": 2550,
      "work": 2551,
      "ɛkeka": 2552,
      "retu": 2553,
      "kyekyere": 2554,
      "botae": 2555,
      "ɔfata": 2556,
      "lympic": 2557,
      "nsamu": 2558,
      "ahoto": 2559,
      "amu": 2560,
      "tɔɔ": 2561,
      "Abena": 2562,
      "Mmoa": 2563,
      "wɔbɛhwɛ": 2564,
      "pment": 2565,
      "ary": 2566,
      "fɛw": 2567,
      "goal": 2568,
      "awerɛhɔ": 2569,
      "adom": 2570,
      "yɛayɛ": 2571,
      "antumi": 2572,
      "twitwa": 2573,
      "Ca": 2574,
      "muden": 2575,
      "Mmienu": 2576,
      "nkuraa": 2577,
      "rds": 2578,
      "nhwiren": 2579,
      "senea": 2580,
      "fidie": 2581,
      "Queens": 2582,
      "Ɔwɔ": 2583,
      "mfiridwuma": 2584,
      "nsunsuansoɔ": 2585,
      "tt": 2586,
      "yɛbɛtena": 2587,
      "public": 2588,
      "tapho": 2589,
      "Woyɛ": 2590,
      "wobɛyɛ": 2591,
      "Abranteɛ": 2592,
      "police": 2593,
      "Akwan": 2594,
      "thi": 2595,
      "tech": 2596,
      "aborɔfo": 2597,
      "ɛtete": 2598,
      "Hearts": 2599,
      "Highlife": 2600,
      "benkum": 2601,
      "Wɔyɛ": 2602,
      "buu": 2603,
      "adidi": 2604,
      "velo": 2605,
      "Ga": 2606,
      "ves": 2607,
      "kyerɛwfoɔ": 2608,
      "fan": 2609,
      "land": 2610,
      "ɔgye": 2611,
      "fã": 2612,
      "yɛmmɔ": 2613,
      "sono": 2614,
      "nsoro": 2615,
      "gyinaeɛ": 2616,
      "akodi": 2617,
      "ennen": 2618,
      "llow": 2619,
      "denneennen": 2620,
      "ɔbaako": 2621,
      "akwadaa": 2622,
      "akokoɔduro": 2623,
      "etwa": 2624,
      "yɛbɛboa": 2625,
      "srahwɛ": 2626,
      "Ɛhe": 2627,
      "nkurase": 2628,
      "glo": 2629,
      "wɔnhwɛ": 2630,
      "cent": 2631,
      "bɛgye": 2632,
      "wɔkyeree": 2633,
      "Mpo": 2634,
      "kyinkyin": 2635,
      "Bro": 2636,
      "University": 2637,
      "point": 2638,
      "Yɛpɛ": 2639,
      "agyapadeɛ": 2640,
      "nwi": 2641,
      "aburo": 2642,
      "ahunu": 2643,
      "kyekye": 2644,
      "nkateɛ": 2645,
      "Alha": 2646,
      "Stone": 2647,
      "Inter": 2648,
      "Ken": 2649,
      "kunu": 2650,
      "kyerɛkyerɛni": 2651,
      "cto": 2652,
      "mbe": 2653,
      "soa": 2654,
      "cess": 2655,
      "Show": 2656,
      "Tra": 2657,
      "kɛntɛn": 2658,
      "ries": 2659,
      "Dire": 2660,
      "ahabanmono": 2661,
      "Ɛnnyɛ": 2662,
      "nnɔ": 2663,
      "waka": 2664,
      "her": 2665,
      "Ɔsoafoɔ": 2666,
      "Ke": 2667,
      "lla": 2668,
      "nsoromma": 2669,
      "ɔba": 2670,
      "rgy": 2671,
      "sur": 2672,
      "Ɔmanfoɔ": 2673,
      "Baw": 2674,
      "bɛhunu": 2675,
      "vie": 2676,
      "ɛdeɛn": 2677,
      "chan": 2678,
      "30": 2679,
      "dwumadibea": 2680,
      "Bawku": 2681,
      "yansa": 2682,
      "uncil": 2683,
      "Berɛ": 2684,
      "ketball": 2685,
      "16": 2686,
      "Bar": 2687,
      "Kenne": 2688,
      "wɔadi": 2689,
      "dɔteɛ": 2690,
      "Ɛkɔɔ": 2691,
      "fini": 2692,
      "gover": 2693,
      "14": 2694,
      "FI": 2695,
      "Won": 2696,
      "ntaban": 2697,
      "fata": 2698,
      "aduan": 2699,
      "comp": 2700,
      "ine": 2701,
      "yɛdwen": 2702,
      "bag": 2703,
      "op": 2704,
      "Amanfoɔ": 2705,
      "Adwumayɛfoɔ": 2706,
      "lɔɔre": 2707,
      "Ɔtwe": 2708,
      "adwi": 2709,
      "woy": 2710,
      "ntetee": 2711,
      "uroni": 2712,
      "dɛw": 2713,
      "bwoy": 2714,
      "obe": 2715,
      "nkyi": 2716,
      "Mehwɛ": 2717,
      "ɛtene": 2718,
      "Stonebwoy": 2719,
      "',": 2720,
      "wɔtɔn": 2721,
      "Nkonnwa": 2722,
      "tter": 2723,
      "ɔkura": 2724,
      "wotie": 2725,
      "Yɛbɛ": 2726,
      "whe": 2727,
      "Nyi": 2728,
      "ntease": 2729,
      "akodeɛ": 2730,
      "ul": 2731,
      "nenam": 2732,
      "mekyerɛ": 2733,
      "12": 2734,
      "mere": 2735,
      "tral": 2736,
      "nteɛso": 2737,
      "atifi": 2738,
      "Ibra": 2739,
      "ɛhyɛɛ": 2740,
      "ɛboro": 2741,
      "deɛn": 2742,
      "Bri": 2743,
      "Club": 2744,
      "frɛɛ": 2745,
      "asan": 2746,
      "mɛ": 2747,
      "Abaayewa": 2748,
      "wɔatumi": 2749,
      "nsɛn": 2750,
      "buae": 2751,
      "business": 2752,
      "fessi": 2753,
      "wɔayi": 2754,
      "ghts": 2755,
      "nketewa": 2756,
      "cul": 2757,
      "anwea": 2758,
      "nhoma": 2759,
      "ff": 2760,
      "Ɔyɛɛ": 2761,
      "wɔhyɛɛ": 2762,
      "Moro": 2763,
      "esiane": 2764,
      "sifo": 2765,
      "Pra": 2766,
      "renyin": 2767,
      "wɔse": 2768,
      "meda": 2769,
      "atete": 2770,
      "wobɛhwɛ": 2771,
      "mmabaawa": 2772,
      "rg": 2773,
      "Ɔne": 2774,
      "ven": 2775,
      "rown": 2776,
      "Ade": 2777,
      "yɛbɛhunu": 2778,
      "beree": 2779,
      "Adeɛ": 2780,
      "nsrahwɛ": 2781,
      "ɛfo": 2782,
      "toral": 2783,
      "Parliament": 2784,
      "ware": 2785,
      "ham": 2786,
      "akyirikyiri": 2787,
      "Agyapong": 2788,
      "kɔm": 2789,
      "wotena": 2790,
      "Hɔn": 2791,
      "annya": 2792,
      "nolo": 2793,
      "wɔro": 2794,
      "Ci": 2795,
      "noo": 2796,
      "sodeɛ": 2797,
      "rence": 2798,
      "Kye": 2799,
      "green": 2800,
      "ckey": 2801,
      "toto": 2802,
      "atare": 2803,
      "akatua": 2804,
      "cor": 2805,
      "Tu": 2806,
      "WA": 2807,
      "Ababaawa": 2808,
      "ɔkan": 2809,
      "bibire": 2810,
      "Yoo": 2811,
      "one": 2812,
      "pira": 2813,
      "spital": 2814,
      "velopment": 2815,
      "Opo": 2816,
      "pta": 2817,
      "bɔdeɛ": 2818,
      "ducation": 2819,
      "Efi": 2820,
      "naa": 2821,
      "yellow": 2822,
      "nomy": 2823,
      "Council": 2824,
      "vate": 2825,
      "gyedie": 2826,
      "commi": 2827,
      "policy": 2828,
      "ntaade": 2829,
      "Ibrahim": 2830,
      "Abɔfra": 2831,
      "yɛfiri": 2832,
      "Ka": 2833,
      "horo": 2834,
      "pia": 2835,
      "Kumi": 2836,
      "cco": 2837,
      "nyin": 2838,
      "nkwaseasɛm": 2839,
      "Onyame": 2840,
      "bɛda": 2841,
      "West": 2842,
      "Kennedy": 2843,
      "Ben": 2844,
      "yɛe": 2845,
      "book": 2846,
      "lex": 2847,
      "Ɔkwan": 2848,
      "wɔkasa": 2849,
      "board": 2850,
      "akɛse": 2851,
      "Central": 2852,
      "ance": 2853,
      "quali": 2854,
      "MA": 2855,
      "ining": 2856,
      "pte": 2857,
      "kwaa": 2858,
      "owu": 2859,
      "wobɛka": 2860,
      "chair": 2861,
      "Char": 2862,
      "Er": 2863,
      "kraa": 2864,
      "wosusuw": 2865,
      "wɔahyia": 2866,
      "ɔdan": 2867,
      "wɔda": 2868,
      "amammuo": 2869,
      "Septe": 2870,
      "Morocco": 2871,
      "Atta": 2872,
      "nkasa": 2873,
      "sing": 2874,
      "Director": 2875,
      "wɔahyɛ": 2876,
      "September": 2877,
      "lass": 2878,
      "Ɔte": 2879,
      "toom": 2880,
      "bisae": 2881,
      "Opoku": 2882,
      "Ɔmo": 2883,
      "fira": 2884,
      "adwumaden": 2885,
      "Ada": 2886,
      "Pa": 2887,
      "yɛtumi": 2888,
      "mmoden": 2889,
      "Mills": 2890,
      "Asraa": 2891,
      "Wɔkaa": 2892,
      "yɛrekyerɛ": 2893,
      "stic": 2894,
      "yɛne": 2895,
      "rea": 2896,
      "bɔn": 2897,
      "Elec": 2898,
      "hy": 2899,
      "wɔkyerɛ": 2900,
      "Meka": 2901,
      "awia": 2902,
      "yɛda": 2903,
      "ntwi": 2904,
      "mmarahyɛbadwa": 2905,
      "Agyeman": 2906,
      "apo": 2907,
      "gan": 2908,
      "enyi": 2909,
      "vid": 2910,
      "kiti": 2911,
      "Ɔpɛpɔn": 2912,
      "woe": 2913,
      "woakɔ": 2914,
      "wrest": 2915,
      "wosusu": 2916,
      "Wopɛ": 2917,
      "tary": 2918,
      "wɔreba": 2919,
      "mmarahyɛbadw": 2920,
      "Nyimpa": 2921,
      "stu": 2922,
      "part": 2923,
      "ɛbɛsi": 2924,
      "aboterɛ": 2925,
      "At": 2926,
      "ankɔ": 2927,
      "kodoɔ": 2928,
      "yɛbɛgyae": 2929,
      "dor": 2930,
      "seesei": 2931,
      "esii": 2932,
      "ngua": 2933,
      "ahyiam": 2934,
      "Olympic": 2935,
      "yɛrebɔ": 2936,
      "anum": 2937,
      "frastructure": 2938,
      "yɛrehu": 2939,
      "kurow": 2940,
      "mpanyimfoɔ": 2941,
      "Offi": 2942,
      "ndua": 2943,
      "yɛtee": 2944,
      "taphor": 2945,
      "Euro": 2946,
      "yɛahu": 2947,
      "ign": 2948,
      "wheel": 2949,
      "ɔnam": 2950,
      "wate": 2951,
      "17": 2952,
      "mmɔfoɔ": 2953,
      "ɛreka": 2954,
      "ɔsɛe": 2955,
      "wɔkura": 2956,
      "atwi": 2957,
      "yɛrebu": 2958,
      "flag": 2959,
      "hanti": 2960,
      "sea": 2961,
      "Sɛdeɛ": 2962,
      "lap": 2963,
      "nke": 2964,
      "wɔnkɔ": 2965,
      "ɛnso": 2966,
      "ɔrehyɛ": 2967,
      "nkata": 2968,
      "wrestling": 2969,
      "kɔhwehwɛɛ": 2970,
      "Ashanti": 2971,
      "Dua": 2972,
      "boaa": 2973,
      "Nokwareɛ": 2974,
      "nnuan": 2975,
      "Chri": 2976,
      "denti": 2977,
      "kurom": 2978,
      "nyimpa": 2979,
      "wɔhunu": 2980,
      "billion": 2981,
      "koo": 2982,
      "management": 2983,
      "Mor": 2984,
      "counta": 2985,
      "bɛkasa": 2986,
      "wofiri": 2987,
      "Aye": 2988,
      "SA": 2989,
      "wonim": 2990,
      "ɔtee": 2991,
      "ton": 2992,
      "yɛrehyɛ": 2993,
      "ters": 2994,
      "Pono": 2995,
      "artiste": 2996,
      "akyere": 2997,
      "aduasa": 2998,
      "amannɔne": 2999,
      "baage": 3000,
      "power": 3001,
      "Achea": 3002,
      "professi": 3003,
      "Acheampong": 3004,
      "moa": 3005,
      "roup": 3006,
      "wim": 3007,
      "kyini": 3008,
      "mmabunu": 3009,
      "FIFA": 3010,
      "Tama": 3011,
      "Geor": 3012,
      "noa": 3013,
      "ntama": 3014,
      "Kwaku": 3015,
      "13": 3016,
      "dade": 3017,
      "saase": 3018,
      "adwenem": 3019,
      "ɔbɛbɔ": 3020,
      "Mfo": 3021,
      "asotwe": 3022,
      "Lo": 3023,
      "mebisa": 3024,
      "mogya": 3025,
      "boah": 3026,
      "ahwe": 3027,
      "my": 3028,
      "ɛbɛdi": 3029,
      "2028": 3030,
      "Tor": 3031,
      "ofiri": 3032,
      "ɛpɛ": 3033,
      "ɛberɛ": 3034,
      "ɛrebɔ": 3035,
      "cycle": 3036,
      "thority": 3037,
      "homa": 3038,
      "gency": 3039,
      "Championship": 3040,
      "Ger": 3041,
      "GA": 3042,
      "Ná": 3043,
      "kɔhwɛ": 3044,
      "ference": 3045,
      "Pal": 3046,
      "mining": 3047,
      "2020": 3048,
      "abɛdi": 3049,
      "ntɔkwa": 3050,
      "Ɔkasa": 3051,
      "ɛnneɛma": 3052,
      "ɛnkyɛ": 3053,
      "pagya": 3054,
      "Heli": 3055,
      "Ernest": 3056,
      "ɔm": 3057,
      "kwae": 3058,
      "fes": 3059,
      "nnyigyei": 3060,
      "Aboa": 3061,
      "nsusu": 3062,
      "kɔdii": 3063,
      "law": 3064,
      "Ase": 3065,
      "beberee": 3066,
      "nnwo": 3067,
      "santene": 3068,
      "ud": 3069,
      "kɔsii": 3070,
      "ɛbɛn": 3071,
      "contra": 3072,
      "dwoodwoo": 3073,
      "mwrestling": 3074,
      "menta": 3075,
      "apam": 3076,
      "ɛnka": 3077,
      "urnalist": 3078,
      "phe": 3079,
      "News": 3080,
      "urnament": 3081,
      "Hou": 3082,
      "wɔkaa": 3083,
      "meate": 3084,
      "bɔtɔ": 3085,
      "adua": 3086,
      "China": 3087,
      "Asare": 3088,
      "Az": 3089,
      "yɛkeka": 3090,
      "abasobɔdeɛ": 3091,
      "Fri": 3092,
      "show": 3093,
      "Ɛma": 3094,
      "ntena": 3095,
      "star": 3096,
      "Committee": 3097,
      "dra": 3098,
      "yɛdwene": 3099,
      "ɛbɛfiri": 3100,
      "fer": 3101,
      "llar": 3102,
      "ger": 3103,
      "beae": 3104,
      "Mmaayewa": 3105,
      "School": 3106,
      "set": 3107,
      "nkoto": 3108,
      "ahonya": 3109,
      "Ki": 3110,
      "Oak": 3111,
      "sha": 3112,
      "reco": 3113,
      "Ofori": 3114,
      "reboa": 3115,
      "ranimfoɔ": 3116,
      "ress": 3117,
      "Mehu": 3118,
      "fessor": 3119,
      "stage": 3120,
      "Premi": 3121,
      "stiga": 3122,
      "atɛkyɛ": 3123,
      "Tennis": 3124,
      "nkitahodi": 3125,
      "tohɔ": 3126,
      "fɛfoɔ": 3127,
      "political": 3128,
      "ders": 3129,
      "Electoral": 3130,
      "ɛtumi": 3131,
      "mframa": 3132,
      "metie": 3133,
      "infrastructure": 3134,
      "resa": 3135,
      "mmono": 3136,
      "ason": 3137,
      "ammu": 3138,
      "New": 3139,
      "odi": 3140,
      "ɛsan": 3141,
      "training": 3142,
      "moto": 3143,
      "ambo": 3144,
      "ntaadeɛ": 3145,
      "rewu": 3146,
      "doh": 3147,
      "ath": 3148,
      "Jose": 3149,
      "wɔbɛtena": 3150,
      "adwumayɛfo": 3151,
      "ous": 3152,
      "Galamsey": 3153,
      "Ja": 3154,
      "rate": 3155,
      "Premier": 3156,
      "ɛmba": 3157,
      "ɔredi": 3158,
      "amanyɔfo": 3159,
      "abotɔ": 3160,
      "Asase": 3161,
      "Gover": 3162,
      "tainment": 3163,
      "mewɔ": 3164,
      "Wɔwɔ": 3165,
      "La": 3166,
      "sul": 3167,
      "akora": 3168,
      "mmɔn": 3169,
      "apata": 3170,
      "lling": 3171,
      "Nsu": 3172,
      "ɔdze": 3173,
      "yɛaka": 3174,
      "adwen": 3175,
      "final": 3176,
      "virus": 3177,
      "Ɛkwan": 3178,
      "dence": 3179,
      "akontaa": 3180,
      "atesɛm": 3181,
      "nhom": 3182,
      "support": 3183,
      "asere": 3184,
      "state": 3185,
      "Vice": 3186,
      "qualifi": 3187,
      "Air": 3188,
      "Ru": 3189,
      "suu": 3190,
      "cus": 3191,
      "nnoɔma": 3192,
      "countability": 3193,
      "SP": 3194,
      "St": 3195,
      "air": 3196,
      "wn": 3197,
      "wɔhia": 3198,
      "deration": 3199,
      "wɔrebu": 3200,
      "Chair": 3201,
      "asoɔ": 3202,
      "ogyina": 3203,
      "ɛhyia": 3204,
      "akonwa": 3205,
      "Akufo": 3206,
      "25": 3207,
      "hɛn": 3208,
      "ɔbɛyɛɛ": 3209,
      "ɔmfa": 3210,
      "ɔhuu": 3211,
      "form": 3212,
      "Nwura": 3213,
      "afu": 3214,
      "nkanea": 3215,
      "umah": 3216,
      "data": 3217,
      "asra": 3218,
      "force": 3219,
      "Hospital": 3220,
      "economy": 3221,
      "wɔkae": 3222,
      "bɛtɔ": 3223,
      "doo": 3224,
      "2026": 3225,
      "ahen": 3226,
      "Mp": 3227,
      "bile": 3228,
      "ankoran": 3229,
      "Sec": 3230,
      "nical": 3231,
      "atom": 3232,
      "ski": 3233,
      "enter": 3234,
      "baakoyɛ": 3235,
      "ful": 3236,
      "mfidie": 3237,
      "nnwen": 3238,
      "Abofra": 3239,
      "aye": 3240,
      "megye": 3241,
      "asuafoɔ": 3242,
      "Ɛberɛ": 3243,
      "mefa": 3244,
      "aniso": 3245,
      "obetumi": 3246,
      "Ɔs": 3247,
      "ɔmaa": 3248,
      "wɔregye": 3249,
      "Hyɛn": 3250,
      "ut": 3251,
      "nority": 3252,
      "dwoa": 3253,
      "Nnipadɔm": 3254,
      "Nn": 3255,
      "wɔhunuu": 3256,
      "mahu": 3257,
      "nimfini": 3258,
      "Yɛnkɔ": 3259,
      "wii": 3260,
      "atoto": 3261,
      "House": 3262,
      "woayɛ": 3263,
      "ndz": 3264,
      "va": 3265,
      "wɔakɔ": 3266,
      "wɔsan": 3267,
      "seree": 3268,
      "atri": 3269,
      "Bon": 3270,
      "akyir": 3271,
      "BA": 3272,
      "kuru": 3273,
      "ɛnteɛ": 3274,
      "adwa": 3275,
      "ɔyɛeɛ": 3276,
      "pɔw": 3277,
      "anwummere": 3278,
      "bri": 3279,
      "cti": 3280,
      "Meteɛ": 3281,
      "May": 3282,
      "abɛɛfo": 3283,
      "Gu": 3284,
      "wɔabɔ": 3285,
      "kɔtoo": 3286,
      "mfom": 3287,
      "Boate": 3288,
      "Security": 3289,
      "Bas": 3290,
      "ɛgu": 3291,
      "yɛfo": 3292,
      "metaphor": 3293,
      "nyo": 3294,
      "owia": 3295,
      "Appi": 3296,
      "Alhaji": 3297,
      "George": 3298,
      "Nkɔ": 3299,
      "wɔbu": 3300,
      "cracy": 3301,
      "sum": 3302,
      "ntene": 3303,
      "change": 3304,
      "atutu": 3305,
      "energy": 3306,
      "lay": 3307,
      "Ayi": 3308,
      "Mmarahyɛbadwa": 3309,
      "ed": 3310,
      "wɛn": 3311,
      "wɔtete": 3312,
      "atew": 3313,
      "ɛtrɛw": 3314,
      "ecu": 3315,
      "Ɔkaeɛ": 3316,
      "sida": 3317,
      "GP": 3318,
      "wobe": 3319,
      "dodow": 3320,
      "ahotosoɔ": 3321,
      "Ɛbɛyɛɛ": 3322,
      "ɔkye": 3323,
      "nior": 3324,
      "Professor": 3325,
      "Gyata": 3326,
      "Gi": 3327,
      "nhyira": 3328,
      "kyerɛeɛ": 3329,
      "wɔbɛkyerɛ": 3330,
      "anisoade": 3331,
      "Ɛduruu": 3332,
      "yɛnkae": 3333,
      "Minority": 3334,
      "mfinimfini": 3335,
      "asaase": 3336,
      "sdom": 3337,
      "market": 3338,
      "ope": 3339,
      "mene": 3340,
      "Abusua": 3341,
      "Du": 3342,
      "ɛdii": 3343,
      "yɛatumi": 3344,
      "Mmom": 3345,
      "bɛdii": 3346,
      "sensɛn": 3347,
      "sah": 3348,
      "Mmea": 3349,
      "private": 3350,
      "Ber": 3351,
      "Mur": 3352,
      "grity": 3353,
      "won": 3354,
      "tala": 3355,
      "toma": 3356,
      "akɔkyerɛ": 3357,
      "Helicopter": 3358,
      "Murtala": 3359,
      "26": 3360,
      "Awu": 3361,
      "Adwoa": 3362,
      "GT": 3363,
      "wɔreko": 3364,
      "Spe": 3365,
      "teaseɛ": 3366,
      "test": 3367,
      "mmeae": 3368,
      "mode": 3369,
      "lism": 3370,
      "akyerɛw": 3371,
      "Authority": 3372,
      "wɔrehwehwɛ": 3373,
      "abodin": 3374,
      "28": 3375,
      "RA": 3376,
      "fans": 3377,
      "yɛnnya": 3378,
      "horow": 3379,
      "ɔbɛkora": 3380,
      "Monhwɛ": 3381,
      "International": 3382,
      "dwan": 3383,
      "ridzi": 3384,
      "mihu": 3385,
      "Medi": 3386,
      "Mepene": 3387,
      "anammɔn": 3388,
      "aduanan": 3389,
      "Seme": 3390,
      "nnansa": 3391,
      "Boateng": 3392,
      "Ste": 3393,
      "Vol": 3394,
      "ananseɛ": 3395,
      "transpa": 3396,
      "nii": 3397,
      "Wɔhyɛ": 3398,
      "gyaw": 3399,
      "tern": 3400,
      "Kweku": 3401,
      "ankorankoro": 3402,
      "Wɔkɔɔ": 3403,
      "Regional": 3404,
      "kwaw": 3405,
      "legen": 3406,
      "hyehyɛɛ": 3407,
      "Asie": 3408,
      "One": 3409,
      "nie": 3410,
      "mereka": 3411,
      "wuhwɛ": 3412,
      "kyerɛwtohɔ": 3413,
      "kyiniiɛ": 3414,
      "Semenyo": 3415,
      "Otum": 3416,
      "nsakrae": 3417,
      "medwene": 3418,
      "gic": 3419,
      "animguase": 3420,
      "nology": 3421,
      "ele": 3422,
      "ɔnkɔ": 3423,
      "hoɔ": 3424,
      "agen": 3425,
      "ababaawa": 3426,
      "AI": 3427,
      "que": 3428,
      "fai": 3429,
      "Tamale": 3430,
      "ɔyare": 3431,
      "tournament": 3432,
      "Wode": 3433,
      "mpaninfoɔ": 3434,
      "forma": 3435,
      "whi": 3436,
      "yɛsɛe": 3437,
      "nomic": 3438,
      "ɛrehwɛ": 3439,
      "laptop": 3440,
      "Nhwiren": 3441,
      "mmɛ": 3442,
      "2022": 3443,
      "ahwɛyiye": 3444,
      "Morning": 3445,
      "ɔto": 3446,
      "kɔyɛ": 3447,
      "menya": 3448,
      "onto": 3449,
      "communi": 3450,
      "ams": 3451,
      "Coast": 3452,
      "nyansafoɔ": 3453,
      "integrity": 3454,
      "buee": 3455,
      "Adansi": 3456,
      "abibifoɔ": 3457,
      "HIV": 3458,
      "urs": 3459,
      "uta": 3460,
      "ɔmpɛ": 3461,
      "bɛsesa": 3462,
      "wɔnka": 3463,
      "akyinnye": 3464,
      "abɔne": 3465,
      "ɔsɛ": 3466,
      "ɔtwe": 3467,
      "urse": 3468,
      "ɛha": 3469,
      "bɛhwe": 3470,
      "dedaw": 3471,
      "Kwesi": 3472,
      "wɔmpɛ": 3473,
      "nkɔmmɔbɔ": 3474,
      "awieɛ": 3475,
      "med": 3476,
      "lega": 3477,
      "kɔhyɛɛ": 3478,
      "hing": 3479,
      "kenkan": 3480,
      "wobɛtumi": 3481,
      "21": 3482,
      "Pu": 3483,
      "trɛw": 3484,
      "ɔsoro": 3485,
      "wɔreboa": 3486,
      "200": 3487,
      "ecutive": 3488,
      "Lon": 3489,
      "mua": 3490,
      "bedi": 3491,
      "duu": 3492,
      "amaneɛbɔ": 3493,
      "Abdu": 3494,
      "Gre": 3495,
      "ebaasa": 3496,
      "mbo": 3497,
      "use": 3498,
      "yɛntumi": 3499,
      "wohu": 3500,
      "ɔrepɛ": 3501,
      "ater": 3502,
      "Maamefoɔ": 3503,
      "Daabi": 3504,
      "nnwonto": 3505,
      "abaa": 3506,
      "regu": 3507,
      "bɛhyia": 3508,
      "stment": 3509,
      "Beaeɛ": 3510,
      "wiee": 3511,
      "edwuma": 3512,
      "yɛbɛsɛe": 3513,
      "ɔbɛhwɛ": 3514,
      "Asraafoɔ": 3515,
      "CEO": 3516,
      "buroni": 3517,
      "soso": 3518,
      "wayɛ": 3519,
      "Wɔbɔɔ": 3520,
      "Chairman": 3521,
      "Chan": 3522,
      "Kenya": 3523,
      "Patri": 3524,
      "amfa": 3525,
      "cli": 3526,
      "reto": 3527,
      "com": 3528,
      "kitakita": 3529,
      "Football": 3530,
      "East": 3531,
      "ake": 3532,
      "Asom": 3533,
      "Face": 3534,
      "ɛrekyerɛ": 3535,
      "ɔpɛɛ": 3536,
      "proje": 3537,
      "Chel": 3538,
      "IM": 3539,
      "yɛyi": 3540,
      "professional": 3541,
      "Mpanimfoɔ": 3542,
      "Eng": 3543,
      "Glo": 3544,
      "pt": 3545,
      "head": 3546,
      "ntan": 3547,
      "culture": 3548,
      "Chelsea": 3549,
      "Je": 3550,
      "Law": 3551,
      "all": 3552,
      "lor": 3553,
      "llen": 3554,
      "dwinnwen": 3555,
      "yɛnhwehwɛ": 3556,
      "nifo": 3557,
      "nimaa": 3558,
      "honhom": 3559,
      "mufoɔ": 3560,
      "adwumakuw": 3561,
      "wers": 3562,
      "asaw": 3563,
      "wɔato": 3564,
      "uel": 3565,
      "Edw": 3566,
      "sure": 3567,
      "hini": 3568,
      "asosɔ": 3569,
      "abusuafoɔ": 3570,
      "amena": 3571,
      "Ɔma": 3572,
      "amumu": 3573,
      "London": 3574,
      "mfɛfoɔ": 3575,
      "Nkrɔfoɔ": 3576,
      "vaccine": 3577,
      "Pi": 3578,
      "nnyaa": 3579,
      "produ": 3580,
      "dida": 3581,
      "Ananseɛ": 3582,
      "wisdom": 3583,
      "akɔyɛ": 3584,
      "Agyemang": 3585,
      "benyin": 3586,
      "free": 3587,
      "Ɛnkyɛ": 3588,
      "rehyia": 3589,
      "kɔmaa": 3590,
      "wama": 3591,
      "CE": 3592,
      "bereɛ": 3593,
      "phy": 3594,
      "ndzɛmba": 3595,
      "ffo": 3596,
      "ɛtoo": 3597,
      "yɛsua": 3598,
      "rap": 3599,
      "yafunu": 3600,
      "ɛkyerɛɛ": 3601,
      "ahyɛnsodeɛ": 3602,
      "ks": 3603,
      "resere": 3604,
      "ɛredi": 3605,
      "mmua": 3606,
      "dget": 3607,
      "Ra": 3608,
      "ice": 3609,
      "adesoa": 3610,
      "State": 3611,
      "Joy": 3612,
      "Tok": 3613,
      "nansa": 3614,
      "safe": 3615,
      "station": 3616,
      "Charles": 3617,
      "lɔre": 3618,
      "twere": 3619,
      "Joseph": 3620,
      "Dwa": 3621,
      "Twi": 3622,
      "Tru": 3623,
      "kyie": 3624,
      "pha": 3625,
      "ption": 3626,
      "rona": 3627,
      "wɔbɛsi": 3628,
      "Torkor": 3629,
      "ɔhu": 3630,
      "Mantam": 3631,
      "Adom": 3632,
      "Games": 3633,
      "Nnu": 3634,
      "ɛdɔ": 3635,
      "ɛsisi": 3636,
      "dwoeɛ": 3637,
      "apan": 3638,
      "leadership": 3639,
      "23": 3640,
      "annyina": 3641,
      "yɛnkasa": 3642,
      "nsow": 3643,
      "abranteɛ": 3644,
      "ahyehyɛdeɛ": 3645,
      "player": 3646,
      "Torkornoo": 3647,
      "FC": 3648,
      "ɔnhwɛ": 3649,
      "menyɛ": 3650,
      "bammono": 3651,
      "Yeboah": 3652,
      "strategy": 3653,
      "Mbe": 3654,
      "mina": 3655,
      "abatow": 3656,
      "Nnɛ": 3657,
      "wuma": 3658,
      "basketball": 3659,
      "Har": 3660,
      "atuo": 3661,
      "ee": 3662,
      "ɔtumi": 3663,
      "mance": 3664,
      "famu": 3665,
      "qui": 3666,
      "CA": 3667,
      "Day": 3668,
      "ɔhwɛɛ": 3669,
      "IGP": 3670,
      "Tot": 3671,
      "ɛhyehyɛ": 3672,
      "wuwu": 3673,
      "Nii": 3674,
      "Tech": 3675,
      "tenham": 3676,
      "Tottenham": 3677,
      "gon": 3678,
      "vation": 3679,
      "Ɔhyɛɛ": 3680,
      "ɔbra": 3681,
      "season": 3682,
      "hohoro": 3683,
      "yɛbɛhwere": 3684,
      "crash": 3685,
      "Nkor": 3686,
      "mɛka": 3687,
      "wɔyɛeɛ": 3688,
      "cies": 3689,
      "Mmabaawa": 3690,
      "bran": 3691,
      "vy": 3692,
      "ges": 3693,
      "perfor": 3694,
      "ES": 3695,
      "nhu": 3696,
      "tax": 3697,
      "kunkum": 3698,
      "Willi": 3699,
      "mebɔ": 3700,
      "Meate": 3701,
      "kɔkɔbɔ": 3702,
      "wiemhyɛn": 3703,
      "An": 3704,
      "Hon": 3705,
      "Sɛn": 3706,
      "rehwehwɛ": 3707,
      "remfi": 3708,
      "mmy": 3709,
      "kin": 3710,
      "nnyinasosɛm": 3711,
      "kɔkaa": 3712,
      "medi": 3713,
      "ɛbɛbɔ": 3714,
      "cedi": 3715,
      "Mali": 3716,
      "view": 3717,
      "match": 3718,
      "yers": 3719,
      "nkwan": 3720,
      "Afriyie": 3721,
      "plat": 3722,
      "Dani": 3723,
      "ft": 3724,
      "mmɔne": 3725,
      "Ivo": 3726,
      "bɛsan": 3727,
      "woyɛɛ": 3728,
      "dɔfo": 3729,
      "dum": 3730,
      "Micha": 3731,
      "keteke": 3732,
      "Star": 3733,
      "Michael": 3734,
      "50": 3735,
      "atua": 3736,
      "ury": 3737,
      "Wɔkae": 3738,
      "ngo": 3739,
      "199": 3740,
      "entertainment": 3741,
      "Asi": 3742,
      "ɔpono": 3743,
      "ɔtare": 3744,
      "pitch": 3745,
      "ahabammono": 3746,
      "koko": 3747,
      "bow": 3748,
      "atenten": 3749,
      "puty": 3750,
      "ɔkannifoɔ": 3751,
      "legend": 3752,
      "Otumfuo": 3753,
      "Nkorɔfoɔ": 3754,
      "light": 3755,
      "aduo": 3756,
      "rency": 3757,
      "mpeti": 3758,
      "ricket": 3759,
      "adwiri": 3760,
      "Afi": 3761,
      "wɔyi": 3762,
      "perso": 3763,
      "Ot": 3764,
      "Sal": 3765,
      "id": 3766,
      "rent": 3767,
      "kɔtɔ": 3768,
      "gyafoɔ": 3769,
      "peri": 3770,
      "Bɔɔlo": 3771,
      "Ogya": 3772,
      "tual": 3773,
      "cks": 3774,
      "dawuro": 3775,
      "Pau": 3776,
      "Ɔhunuu": 3777,
      "kɔka": 3778,
      "woaka": 3779,
      "nnwontofoɔ": 3780,
      "development": 3781,
      "wɔbɛhyɛ": 3782,
      "investiga": 3783,
      "100": 3784,
      "ja": 3785,
      "wɔatwerɛ": 3786,
      "Wɔahyehyɛ": 3787,
      "nnuaba": 3788,
      "hweneɛ": 3789,
      "aburokyire": 3790,
      "kota": 3791,
      "Wɔte": 3792,
      "sts": 3793,
      "demokra": 3794,
      "ɔkyena": 3795,
      "nante": 3796,
      "Nkurɔfokuo": 3797,
      "Daniel": 3798,
      "moah": 3799,
      "nkyerɛkyerɛmu": 3800,
      "standa": 3801,
      "Appiah": 3802,
      "flo": 3803,
      "okita": 3804,
      "vol": 3805,
      "hockey": 3806,
      "abansoro": 3807,
      "wobɛte": 3808,
      "Facebook": 3809,
      "ronavirus": 3810,
      "presi": 3811,
      "wobɔ": 3812,
      "gyinabea": 3813,
      "ananmusifoɔ": 3814,
      "Wontumi": 3815,
      "Asiedu": 3816,
      ").": 3817,
      "31": 3818,
      "idoo": 3819,
      "yiedie": 3820,
      "politics": 3821,
      "van": 3822,
      "medwen": 3823,
      "fashi": 3824,
      "hui": 3825,
      "field": 3826,
      "Lar": 3827,
      "abaayewa": 3828,
      "enyo": 3829,
      "Kɔ": 3830,
      "Ɔtee": 3831,
      "sed": 3832,
      "bua": 3833,
      "nyane": 3834,
      "2019": 3835,
      "mehwɛɛ": 3836,
      "korɔn": 3837,
      "ɛsono": 3838,
      "Wunim": 3839,
      "official": 3840,
      "Ɔmampanyin": 3841,
      "onni": 3842,
      "Ɛnam": 3843,
      "resɛe": 3844,
      "pool": 3845,
      "league": 3846,
      "sty": 3847,
      "quah": 3848,
      "ɔgyinaa": 3849,
      "bokiti": 3850,
      "pegya": 3851,
      "asɛdeɛ": 3852,
      "fom": 3853,
      "time": 3854,
      "wɔrehu": 3855,
      "anomaa": 3856,
      "Armwrestling": 3857,
      "Bra": 3858,
      "NI": 3859,
      "tte": 3860,
      "Muni": 3861,
      "fla": 3862,
      "hie": 3863,
      "ɔrehwehwɛ": 3864,
      "kers": 3865,
      "Akonnwa": 3866,
      "dɛɛdɛɛ": 3867,
      "wɔtumi": 3868,
      "yɛrentumi": 3869,
      "Box": 3870,
      "wobɛhunu": 3871,
      "Richa": 3872,
      "Sarko": 3873,
      "),": 3874,
      "Spi": 3875,
      "adanse": 3876,
      "Akandoh": 3877,
      "Abibi": 3878,
      "asie": 3879,
      "ehyia": 3880,
      "kã": 3881,
      "bɛbu": 3882,
      "forms": 3883,
      "illegal": 3884,
      "Paul": 3885,
      "Hu": 3886,
      "TA": 3887,
      "kyerɛfoɔ": 3888,
      "motor": 3889,
      "ɔbɛtena": 3890,
      "Kwaeɛ": 3891,
      "Sarkodie": 3892,
      "contract": 3893,
      "Awa": 3894,
      "Ato": 3895,
      "Yaa": 3896,
      "sour": 3897,
      "wobɛkɔ": 3898,
      "tation": 3899,
      "yɛbɛkura": 3900,
      "hemaa": 3901,
      "Akwadaa": 3902,
      "amanehunu": 3903,
      "gyidie": 3904,
      "short": 3905,
      "Aya": 3906,
      "ple": 3907,
      "ɔnyaa": 3908,
      "mah": 3909,
      "rebisa": 3910,
      "sig": 3911,
      "mmaranimfoɔ": 3912,
      "leum": 3913,
      "Tik": 3914,
      "Nke": 3915,
      "Obu": 3916,
      "Media": 3917,
      "ɔgyaee": 3918,
      "yɛadi": 3919,
      "banbɔ": 3920,
      "Dece": 3921,
      "29": 3922,
      "Aso": 3923,
      "Lambo": 3924,
      "ɛkasa": 3925,
      "ɛtra": 3926,
      "aneɛ": 3927,
      "kɔhwɛɛ": 3928,
      "tele": 3929,
      "ɛnɛ": 3930,
      "ntem": 3931,
      "Deputy": 3932,
      "Table": 3933,
      "urnalists": 3934,
      "Ayare": 3935,
      "beare": 3936,
      "Wosusuw": 3937,
      "Akwantu": 3938,
      "enyiwa": 3939,
      "Abdul": 3940,
      "December": 3941,
      "noho": 3942,
      "wɔkyerɛɛ": 3943,
      "ɛrebu": 3944,
      "\"?": 3945,
      "Thoma": 3946,
      "Ɔpanin": 3947,
      "wɔtee": 3948,
      "met": 3949,
      "wɔreyi": 3950,
      "polisifo": 3951,
      "rghini": 3952,
      "Lamborghini": 3953,
      "Thomas": 3954,
      "Emman": 3955,
      "ayie": 3956,
      "ɛto": 3957,
      "ɛsoro": 3958,
      "ying": 3959,
      "report": 3960,
      "mfimfin": 3961,
      "mpanyinfoɔ": 3962,
      "Nnansa": 3963,
      "Nkran": 3964,
      "Amoah": 3965,
      "ahenni": 3966,
      "mfomsoɔ": 3967,
      "gri": 3968,
      "Ɛdeɛn": 3969,
      "wotua": 3970,
      "Ahe": 3971,
      "ɔpe": 3972,
      "anwo": 3973,
      "wɔba": 3974,
      "wɔama": 3975,
      "Frank": 3976,
      "fashion": 3977,
      "Nka": 3978,
      "atie": 3979,
      "mɔden": 3980,
      "ntu": 3981,
      "ɔhyiaa": 3982,
      "yɛdɔ": 3983,
      "miiɛ": 3984,
      "Communi": 3985,
      "committee": 3986,
      "Ana": 3987,
      "coac": 3988,
      "meneda": 3989,
      "brown": 3990,
      "gate": 3991,
      "Ɛnna": 3992,
      "ɔs": 3993,
      "yɛnkura": 3994,
      "yiyedi": 3995,
      "Dar": 3996,
      "ahye": 3997,
      "Ɛhia": 3998,
      "ahobrɛ": 3999
    },
    "merges": [
      [
        "y",
        "ɛ"
      ],
      [
        "a",
        "n"
      ],
      [
        "s",
        "ɛ"
      ],
      [
        "n",
        "o"
      ],
      [
        "w",
        "ɔ"
      ],
      [
        "n",
        "e"
      ],
      [
        "n",
        "a"
      ],
      [
        "s",
        "o"
      ],
      [
        "m",
        "a"
      ],
      [
        "y",
        "i"
      ],
      [
        "r",
        "e"
      ],
      [
        "yɛ",
        "n"
      ],
      [
        "a",
        "a"
      ],
      [
        "d",
        "e"
      ],
      [
        "b",
        "i"
      ],
      [
        "b",
        "ɛ"
      ],
      [
        "y",
        "e"
      ],
      [
        "s",
        "e"
      ],
      [
        "n",
        "i"
      ],
      [
        "k",
        "ɔ"
      ],
      [
        "t",
        "e"
      ],
      [
        "k",
        "a"
      ],
      [
        "m",
        "e"
      ],
      [
        "r",
        "a"
      ],
      [
        "h",
        "o"
      ],
      [
        "f",
        "o"
      ],
      [
        "d",
        "w"
      ],
      [
        "sɛ",
        "m"
      ],
      [
        "m",
        "u"
      ],
      [
        "r",
        "ɛ"
      ],
      [
        "n",
        "k"
      ],
      [
        "m",
        "an"
      ],
      [
        "w",
        "o"
      ],
      [
        "yi",
        "na"
      ],
      [
        "d",
        "i"
      ],
      [
        "k",
        "w"
      ],
      [
        "s",
        "i"
      ],
      [
        "wɔ",
        "n"
      ],
      [
        "k",
        "ye"
      ],
      [
        "n",
        "an"
      ],
      [
        "s",
        "a"
      ],
      [
        "ɛ",
        "n"
      ],
      [
        "p",
        "a"
      ],
      [
        "h",
        "w"
      ],
      [
        "a",
        "dw"
      ],
      [
        "b",
        "ɔ"
      ],
      [
        "kye",
        "rɛ"
      ],
      [
        "h",
        "ɔ"
      ],
      [
        "fo",
        "ɔ"
      ],
      [
        "b",
        "a"
      ],
      [
        "n",
        "yina"
      ],
      [
        "k",
        "o"
      ],
      [
        "ne",
        "a"
      ],
      [
        "ɛ",
        "yɛ"
      ],
      [
        "an",
        "i"
      ],
      [
        "t",
        "i"
      ],
      [
        "u",
        "ma"
      ],
      [
        "n",
        "so"
      ],
      [
        "n",
        "ni"
      ],
      [
        "a",
        "sɛm"
      ],
      [
        "u",
        "r"
      ],
      [
        "ɛ",
        "ma"
      ],
      [
        "nyina",
        "a"
      ],
      [
        "r",
        "i"
      ],
      [
        "y",
        "a"
      ],
      [
        "kw",
        "an"
      ],
      [
        "f",
        "a"
      ],
      [
        "S",
        "ɛ"
      ],
      [
        "n",
        "ne"
      ],
      [
        "t",
        "u"
      ],
      [
        "t",
        "a"
      ],
      [
        "hw",
        "ɛ"
      ],
      [
        "b",
        "e"
      ],
      [
        "f",
        "i"
      ],
      [
        "p",
        "ɛ"
      ],
      [
        "w",
        "a"
      ],
      [
        "de",
        "ɛ"
      ],
      [
        "nan",
        "so"
      ],
      [
        "a",
        "ra"
      ],
      [
        "h",
        "yɛ"
      ],
      [
        "m",
        "i"
      ],
      [
        "nne",
        "ɛma"
      ],
      [
        "e",
        "ne"
      ],
      [
        "b",
        "o"
      ],
      [
        "e",
        "ɛ"
      ],
      [
        "a",
        "se"
      ],
      [
        "s",
        "u"
      ],
      [
        "adw",
        "uma"
      ],
      [
        "ɛ",
        "sɛ"
      ],
      [
        "ɛ",
        "bɛ"
      ],
      [
        "ɔ",
        "man"
      ],
      [
        "M",
        "e"
      ],
      [
        "m",
        "o"
      ],
      [
        "t",
        "o"
      ],
      [
        "b",
        "aa"
      ],
      [
        "m",
        "ma"
      ],
      [
        "h",
        "u"
      ],
      [
        "d",
        "a"
      ],
      [
        "n",
        "n"
      ],
      [
        "nk",
        "o"
      ],
      [
        "s",
        "aa"
      ],
      [
        "o",
        "bi"
      ],
      [
        "nk",
        "ur"
      ],
      [
        "kw",
        "a"
      ],
      [
        "r",
        "o"
      ],
      [
        "a",
        "man"
      ],
      [
        "Ɛ",
        "yɛ"
      ],
      [
        "adw",
        "ene"
      ],
      [
        "ni",
        "m"
      ],
      [
        "ɛ",
        "wɔ"
      ],
      [
        "ani",
        "m"
      ],
      [
        "ɔ",
        "foɔ"
      ],
      [
        "g",
        "ye"
      ],
      [
        "k",
        "u"
      ],
      [
        "h",
        "i"
      ],
      [
        "W",
        "ɔ"
      ],
      [
        "o",
        "n"
      ],
      [
        "e",
        "n"
      ],
      [
        "n",
        "yɛ"
      ],
      [
        "tu",
        "mi"
      ],
      [
        "de",
        "n"
      ],
      [
        "A",
        "nan"
      ],
      [
        "Anan",
        "se"
      ],
      [
        "N",
        "an"
      ],
      [
        "g",
        "yina"
      ],
      [
        "a",
        "k"
      ],
      [
        "Nan",
        "so"
      ],
      [
        "n",
        "sa"
      ],
      [
        "yɛ",
        "bɛ"
      ],
      [
        "p",
        "i"
      ],
      [
        "kɔ",
        "ɔ"
      ],
      [
        "h",
        "a"
      ],
      [
        "p",
        "o"
      ],
      [
        "ɛn",
        "yɛ"
      ],
      [
        "a",
        "g"
      ],
      [
        "kwa",
        "re"
      ],
      [
        "yi",
        "e"
      ],
      [
        "b",
        "u"
      ],
      [
        "d",
        "o"
      ],
      [
        "an",
        "a"
      ],
      [
        "nkur",
        "ɔfoɔ"
      ],
      [
        "ɛ",
        "fa"
      ],
      [
        "a",
        "yɛ"
      ],
      [
        "n",
        "te"
      ],
      [
        "nni",
        "pa"
      ],
      [
        "a",
        "d"
      ],
      [
        "w",
        "e"
      ],
      [
        "a",
        "ma"
      ],
      [
        "hi",
        "a"
      ],
      [
        "k",
        "ɛ"
      ],
      [
        "n",
        "sɛm"
      ],
      [
        "G",
        "h"
      ],
      [
        "Ɛ",
        "no"
      ],
      [
        "a",
        "kwan"
      ],
      [
        "Gh",
        "ana"
      ],
      [
        "b",
        "an"
      ],
      [
        "l",
        "i"
      ],
      [
        "w",
        "u"
      ],
      [
        "m",
        "m"
      ],
      [
        "ni",
        "pa"
      ],
      [
        "dw",
        "uma"
      ],
      [
        "bɔ",
        "ɔ"
      ],
      [
        "n",
        "kɔ"
      ],
      [
        "a",
        "ho"
      ],
      [
        "ɛ",
        "re"
      ],
      [
        "Ɛ",
        "nyɛ"
      ],
      [
        "bɛ",
        "yɛ"
      ],
      [
        "n",
        "u"
      ],
      [
        "bo",
        "a"
      ],
      [
        "si",
        "ka"
      ],
      [
        "ase",
        "ɛ"
      ],
      [
        "no",
        "kware"
      ],
      [
        "n",
        "ti"
      ],
      [
        "a",
        "ko"
      ],
      [
        "r",
        "ɔ"
      ],
      [
        "so",
        "ɔ"
      ],
      [
        "m",
        "me"
      ],
      [
        "Y",
        "ɛn"
      ],
      [
        "m",
        "mo"
      ],
      [
        "ka",
        "sa"
      ],
      [
        "wɔ",
        "re"
      ],
      [
        "hw",
        "e"
      ],
      [
        "di",
        "e"
      ],
      [
        "fi",
        "ri"
      ],
      [
        "pi",
        "i"
      ],
      [
        "N",
        "a"
      ],
      [
        "a",
        "ba"
      ],
      [
        "w",
        "i"
      ],
      [
        "a",
        "t"
      ],
      [
        "kɛ",
        "se"
      ],
      [
        "l",
        "e"
      ],
      [
        "mm",
        "ɔ"
      ],
      [
        "an",
        "e"
      ],
      [
        "a",
        "deɛ"
      ],
      [
        "ɛbɛ",
        "ma"
      ],
      [
        "p",
        "aa"
      ],
      [
        "ɔ",
        "re"
      ],
      [
        "bi",
        "ara"
      ],
      [
        "te",
        "ɛ"
      ],
      [
        "ak",
        "yi"
      ],
      [
        "y",
        "ɔ"
      ],
      [
        "be",
        "re"
      ],
      [
        "h",
        "yi"
      ],
      [
        "ɔ",
        "yɛ"
      ],
      [
        "obi",
        "ara"
      ],
      [
        "sɛ",
        "nea"
      ],
      [
        "ɛ",
        "kyerɛ"
      ],
      [
        "ɔ",
        "bɛ"
      ],
      [
        "a",
        "kɔ"
      ],
      [
        "h",
        "ye"
      ],
      [
        "an",
        "aa"
      ],
      [
        "n",
        "ya"
      ],
      [
        "wɔ",
        "bɛ"
      ],
      [
        "K",
        "o"
      ],
      [
        "k",
        "ra"
      ],
      [
        "ag",
        "o"
      ],
      [
        "wɔ",
        "wɔ"
      ],
      [
        "baa",
        "ko"
      ],
      [
        "c",
        "e"
      ],
      [
        "yɛ",
        "hwɛ"
      ],
      [
        "h",
        "e"
      ],
      [
        "ka",
        "e"
      ],
      [
        "g",
        "u"
      ],
      [
        "aman",
        "yɔ"
      ],
      [
        "kyerɛ",
        "ɛ"
      ],
      [
        "Ɛ",
        "sɛ"
      ],
      [
        "r",
        "an"
      ],
      [
        "nko",
        "nim"
      ],
      [
        "d",
        "ɔ"
      ],
      [
        "n",
        "t"
      ],
      [
        "ɛfa",
        "ta"
      ],
      [
        "we",
        "rɛ"
      ],
      [
        "m",
        "p"
      ],
      [
        "ɔ",
        "wɔ"
      ],
      [
        "a",
        "l"
      ],
      [
        "dw",
        "o"
      ],
      [
        "n",
        "ka"
      ],
      [
        "re",
        "e"
      ],
      [
        "be",
        "a"
      ],
      [
        "k",
        "aa"
      ],
      [
        "an",
        "an"
      ],
      [
        "N",
        "nipa"
      ],
      [
        "bɔɔ",
        "l"
      ],
      [
        "yɛ",
        "ɛ"
      ],
      [
        "m",
        "mi"
      ],
      [
        "hyi",
        "a"
      ],
      [
        "f",
        "u"
      ],
      [
        "d",
        "u"
      ],
      [
        "ur",
        "u"
      ],
      [
        "mmo",
        "m"
      ],
      [
        "amanyɔ",
        "sɛm"
      ],
      [
        "nk",
        "wa"
      ],
      [
        "s",
        "t"
      ],
      [
        "si",
        "e"
      ],
      [
        "an",
        "o"
      ],
      [
        "fo",
        "fo"
      ],
      [
        "ri",
        "ma"
      ],
      [
        "n",
        "g"
      ],
      [
        "wɔ",
        "de"
      ],
      [
        "a",
        "r"
      ],
      [
        "kɛse",
        "ɛ"
      ],
      [
        "Ko",
        "fi"
      ],
      [
        "a",
        "di"
      ],
      [
        "a",
        "ka"
      ],
      [
        "ɛ",
        "no"
      ],
      [
        "n",
        "na"
      ],
      [
        "d",
        "aa"
      ],
      [
        "ɛre",
        "kɔ"
      ],
      [
        "ani",
        "gye"
      ],
      [
        "te",
        "na"
      ],
      [
        "a",
        "so"
      ],
      [
        "d",
        "ɛn"
      ],
      [
        "baa",
        "bi"
      ],
      [
        "ɛ",
        "kɔ"
      ],
      [
        "k",
        "e"
      ],
      [
        "Wɔ",
        "n"
      ],
      [
        "hye",
        "hyɛ"
      ],
      [
        "w",
        "an"
      ],
      [
        "su",
        "o"
      ],
      [
        "ti",
        "on"
      ],
      [
        "hu",
        "nu"
      ],
      [
        "n",
        "ta"
      ],
      [
        "t",
        "ɔ"
      ],
      [
        "f",
        "e"
      ],
      [
        "r",
        "aa"
      ],
      [
        "ma",
        "a"
      ],
      [
        "hwe",
        "hwɛ"
      ],
      [
        "S",
        "aa"
      ],
      [
        "b",
        "ree"
      ],
      [
        "g",
        "ya"
      ],
      [
        "d",
        "uru"
      ],
      [
        "n",
        "y"
      ],
      [
        "su",
        "a"
      ],
      [
        "yi",
        "ye"
      ],
      [
        "anan",
        "se"
      ],
      [
        "be",
        "bree"
      ],
      [
        "m",
        "fa"
      ],
      [
        "d",
        "an"
      ],
      [
        "no",
        "m"
      ],
      [
        "s",
        "an"
      ],
      [
        "yɛ",
        "yɛ"
      ],
      [
        "c",
        "o"
      ],
      [
        "f",
        "ra"
      ],
      [
        "t",
        "aa"
      ],
      [
        "e",
        "r"
      ],
      [
        "yɛ",
        "re"
      ],
      [
        "W",
        "o"
      ],
      [
        "2",
        "0"
      ],
      [
        "l",
        "a"
      ],
      [
        "a",
        "de"
      ],
      [
        "wo",
        "de"
      ],
      [
        "ɔ",
        "de"
      ],
      [
        "ku",
        "ra"
      ],
      [
        "yi",
        "n"
      ],
      [
        "an",
        "ya"
      ],
      [
        "a",
        "ban"
      ],
      [
        "en",
        "u"
      ],
      [
        "nn",
        "ɛ"
      ],
      [
        "ɔ",
        "pɛ"
      ],
      [
        "wo",
        "yɛ"
      ],
      [
        "a",
        "bɔ"
      ],
      [
        "yɛ",
        "de"
      ],
      [
        "ɛ",
        "te"
      ],
      [
        "ran",
        "teɛ"
      ],
      [
        "m",
        "pa"
      ],
      [
        "a",
        "te"
      ],
      [
        "ur",
        "o"
      ],
      [
        "a",
        "sa"
      ],
      [
        "wan",
        "wa"
      ],
      [
        "nte",
        "aseɛ"
      ],
      [
        "sɛ",
        "e"
      ],
      [
        "ago",
        "rɔ"
      ],
      [
        "t",
        "y"
      ],
      [
        "kɔ",
        "sɛm"
      ],
      [
        "ad",
        "u"
      ],
      [
        "ɛ",
        "hia"
      ],
      [
        "akwan",
        "tu"
      ],
      [
        "n",
        "wanwa"
      ],
      [
        "mma",
        "ra"
      ],
      [
        "f",
        "ɛ"
      ],
      [
        "a",
        "s"
      ],
      [
        "nk",
        "yɛn"
      ],
      [
        "wɔ",
        "yɛ"
      ],
      [
        "e",
        "bi"
      ],
      [
        "h",
        "ene"
      ],
      [
        "ɔ",
        "den"
      ],
      [
        "aso",
        "m"
      ],
      [
        "c",
        "i"
      ],
      [
        "ɛbɛ",
        "yɛ"
      ],
      [
        "mmi",
        "enu"
      ],
      [
        "a",
        "bu"
      ],
      [
        "wo",
        "m"
      ],
      [
        "yɛ",
        "wɔ"
      ],
      [
        "bo",
        "m"
      ],
      [
        "m",
        "po"
      ],
      [
        "aho",
        "ɔden"
      ],
      [
        "asom",
        "dwo"
      ],
      [
        "ku",
        "o"
      ],
      [
        "ɔ",
        "fo"
      ],
      [
        "wo",
        "pɛ"
      ],
      [
        "p",
        "e"
      ],
      [
        "an",
        "sa"
      ],
      [
        "N",
        "o"
      ],
      [
        "r",
        "t"
      ],
      [
        "hyɛ",
        "ɛ"
      ],
      [
        "n",
        "nyina"
      ],
      [
        "anigye",
        "ɛ"
      ],
      [
        "ananse",
        "sɛm"
      ],
      [
        "ɛn",
        "sɛ"
      ],
      [
        "20",
        "2"
      ],
      [
        "wi",
        "ase"
      ],
      [
        "p",
        "ɔ"
      ],
      [
        "bɔ",
        "ne"
      ],
      [
        "nk",
        "u"
      ],
      [
        "v",
        "i"
      ],
      [
        "mme",
        "rɛ"
      ],
      [
        "l",
        "o"
      ],
      [
        "di",
        "i"
      ],
      [
        "si",
        "si"
      ],
      [
        "yɛ",
        "kɔ"
      ],
      [
        "an",
        "kasa"
      ],
      [
        "ko",
        "raa"
      ],
      [
        "te",
        "e"
      ],
      [
        "k",
        "i"
      ],
      [
        "yɛn",
        "ni"
      ],
      [
        "n",
        "suo"
      ],
      [
        "ɔman",
        "foɔ"
      ],
      [
        "nta",
        "m"
      ],
      [
        "ne",
        "ɛ"
      ],
      [
        "na",
        "m"
      ],
      [
        "do",
        "do"
      ],
      [
        "dwuma",
        "die"
      ],
      [
        "ak",
        "an"
      ],
      [
        "kra",
        "man"
      ],
      [
        "be",
        "rɛ"
      ],
      [
        "nk",
        "ye"
      ],
      [
        "ya",
        "re"
      ],
      [
        "ti",
        "ri"
      ],
      [
        "k",
        "yɛ"
      ],
      [
        "asomdwo",
        "eɛ"
      ],
      [
        "d",
        "z"
      ],
      [
        "me",
        "pɛ"
      ],
      [
        "di",
        "n"
      ],
      [
        "a",
        "bo"
      ],
      [
        "an",
        "yin"
      ],
      [
        "a",
        "m"
      ],
      [
        "aba",
        "kɔsɛm"
      ],
      [
        "fofo",
        "ro"
      ],
      [
        "bɛ",
        "kɔ"
      ],
      [
        "asa",
        "se"
      ],
      [
        "ti",
        "e"
      ],
      [
        "wɔ",
        "a"
      ],
      [
        "i",
        "n"
      ],
      [
        "b",
        "ra"
      ],
      [
        "nkur",
        "ɔfo"
      ],
      [
        "fi",
        "e"
      ],
      [
        "d",
        "ɛ"
      ],
      [
        "ko",
        "ma"
      ],
      [
        "to",
        "o"
      ],
      [
        "kɔ",
        "kɔɔ"
      ],
      [
        "fa",
        "m"
      ],
      [
        "nkɔ",
        "mmɔ"
      ],
      [
        "te",
        "r"
      ],
      [
        "so",
        "ro"
      ],
      [
        "bi",
        "ri"
      ],
      [
        "t",
        "wa"
      ],
      [
        "ɛ",
        "firi"
      ],
      [
        "k",
        "an"
      ],
      [
        "Ɛ",
        "nnɛ"
      ],
      [
        "ha",
        "w"
      ],
      [
        "n",
        "to"
      ],
      [
        "l",
        "l"
      ],
      [
        "nkɔ",
        "soɔ"
      ],
      [
        "N",
        "k"
      ],
      [
        "M",
        "o"
      ],
      [
        "mmɔ",
        "den"
      ],
      [
        "fofo",
        "rɔ"
      ],
      [
        "tu",
        "m"
      ],
      [
        "bɔɔl",
        "o"
      ],
      [
        "nkye",
        "rɛ"
      ],
      [
        "t",
        "ra"
      ],
      [
        "Ɔ",
        "se"
      ],
      [
        "ako",
        "ma"
      ],
      [
        "No",
        "kware"
      ],
      [
        "ba",
        "rima"
      ],
      [
        "re",
        "ka"
      ],
      [
        "e",
        "i"
      ],
      [
        "bɛ",
        "ka"
      ],
      [
        "at",
        "wa"
      ],
      [
        "K",
        "wa"
      ],
      [
        "Me",
        "pɛ"
      ],
      [
        "v",
        "e"
      ],
      [
        "re",
        "kɔ"
      ],
      [
        "ɛ",
        "ho"
      ],
      [
        "g",
        "e"
      ],
      [
        "M",
        "ma"
      ],
      [
        "r",
        "u"
      ],
      [
        "yɛ",
        "pɛ"
      ],
      [
        "te",
        "te"
      ],
      [
        "r",
        "s"
      ],
      [
        "a",
        "si"
      ],
      [
        "a",
        "w"
      ],
      [
        "dw",
        "ene"
      ],
      [
        "hwe",
        "e"
      ],
      [
        "p",
        "anyin"
      ],
      [
        "wɔ",
        "pɛ"
      ],
      [
        "ɛ",
        "da"
      ],
      [
        "ba",
        "sa"
      ],
      [
        "wo",
        "te"
      ],
      [
        "tu",
        "n"
      ],
      [
        "ɛ",
        "kɔɔ"
      ],
      [
        "nim",
        "deɛ"
      ],
      [
        "si",
        "i"
      ],
      [
        "B",
        "e"
      ],
      [
        "ɔ",
        "ne"
      ],
      [
        "se",
        "sa"
      ],
      [
        "C",
        "o"
      ],
      [
        "tun",
        "tum"
      ],
      [
        "adwuma",
        "yɛ"
      ],
      [
        "ya",
        "m"
      ],
      [
        "Ɛ",
        "wɔ"
      ],
      [
        "n",
        "hyehyɛ"
      ],
      [
        "ako",
        "ko"
      ],
      [
        "na",
        "l"
      ],
      [
        "nsa",
        "m"
      ],
      [
        "u",
        "m"
      ],
      [
        "me",
        "nt"
      ],
      [
        "o",
        "f"
      ],
      [
        "k",
        "yi"
      ],
      [
        "fi",
        "taa"
      ],
      [
        "m",
        "mu"
      ],
      [
        "a",
        "ta"
      ],
      [
        "\"",
        "."
      ],
      [
        "yɛ",
        "ka"
      ],
      [
        "ny",
        "ansa"
      ],
      [
        "m",
        "fo"
      ],
      [
        "u",
        "e"
      ],
      [
        "mme",
        "ranteɛ"
      ],
      [
        "su",
        "su"
      ],
      [
        "ɔ",
        "haw"
      ],
      [
        "a",
        "werɛ"
      ],
      [
        "e",
        "te"
      ],
      [
        "M",
        "a"
      ],
      [
        "c",
        "a"
      ],
      [
        "bɛ",
        "ba"
      ],
      [
        "fu",
        "o"
      ],
      [
        "A",
        "ma"
      ],
      [
        "a",
        "to"
      ],
      [
        "yɛn",
        "hwɛ"
      ],
      [
        "f",
        "eɛ"
      ],
      [
        "nkur",
        "an"
      ],
      [
        "po",
        "rt"
      ],
      [
        "t",
        "h"
      ],
      [
        "biri",
        "bi"
      ],
      [
        "n",
        "ɛ"
      ],
      [
        "me",
        "ka"
      ],
      [
        "c",
        "k"
      ],
      [
        "202",
        "5"
      ],
      [
        "ano",
        "m"
      ],
      [
        "ho",
        "w"
      ],
      [
        "g",
        "o"
      ],
      [
        "yɛn",
        "yɛ"
      ],
      [
        "E",
        "bi"
      ],
      [
        "gya",
        "e"
      ],
      [
        "yɛ",
        "bɔ"
      ],
      [
        "akan",
        "sie"
      ],
      [
        "r",
        "y"
      ],
      [
        "ɔ",
        "kwan"
      ],
      [
        "u",
        "a"
      ],
      [
        "D",
        "r"
      ],
      [
        "ku",
        "u"
      ],
      [
        "du",
        "a"
      ],
      [
        "nn",
        "wom"
      ],
      [
        "tiri",
        "m"
      ],
      [
        "t",
        "we"
      ],
      [
        "Nk",
        "ur"
      ],
      [
        "mmo",
        "a"
      ],
      [
        "nka",
        "bom"
      ],
      [
        "nk",
        "ra"
      ],
      [
        "ani",
        "n"
      ],
      [
        "Y",
        "aw"
      ],
      [
        "ki",
        "ta"
      ],
      [
        "akoko",
        "duru"
      ],
      [
        "E",
        "yi"
      ],
      [
        "at",
        "aa"
      ],
      [
        "ɔ",
        "te"
      ],
      [
        "a",
        "hyia"
      ],
      [
        "mma",
        "a"
      ],
      [
        "bi",
        "sa"
      ],
      [
        "ɛ",
        "ne"
      ],
      [
        "re",
        "n"
      ],
      [
        "ɔ",
        "hene"
      ],
      [
        "ɛn",
        "ni"
      ],
      [
        "B",
        "o"
      ],
      [
        "me",
        "hwɛ"
      ],
      [
        "a",
        "kyerɛ"
      ],
      [
        "M",
        "i"
      ],
      [
        "m",
        "fi"
      ],
      [
        "bɔɔlo",
        "bɔ"
      ],
      [
        "yɛ",
        "di"
      ],
      [
        "f",
        "rɛ"
      ],
      [
        "ani",
        "da"
      ],
      [
        "h",
        "yɛn"
      ],
      [
        "adu",
        "ane"
      ],
      [
        "s",
        "s"
      ],
      [
        "ti",
        "a"
      ],
      [
        "c",
        "h"
      ],
      [
        "bra",
        "bɔ"
      ],
      [
        "Ɔ",
        "man"
      ],
      [
        "n",
        "sɛ"
      ],
      [
        "nn",
        "yɛ"
      ],
      [
        "nne",
        "yɛɛ"
      ],
      [
        "e",
        "fi"
      ],
      [
        "ɔ",
        "so"
      ],
      [
        "me",
        "hu"
      ],
      [
        "ɛ",
        "de"
      ],
      [
        "A",
        "ane"
      ],
      [
        "a",
        "brabɔ"
      ],
      [
        "dz",
        "e"
      ],
      [
        "a",
        "fe"
      ],
      [
        "mma",
        "rima"
      ],
      [
        "nte",
        "n"
      ],
      [
        "a",
        "hyɛ"
      ],
      [
        "A",
        "f"
      ],
      [
        "W",
        "ei"
      ],
      [
        "m",
        "feɛ"
      ],
      [
        "se",
        "ɛ"
      ],
      [
        "D",
        "a"
      ],
      [
        "pɔ",
        "n"
      ],
      [
        "ɛ",
        "na"
      ],
      [
        "J",
        "u"
      ],
      [
        "abu",
        "sua"
      ],
      [
        "ad",
        "aa"
      ],
      [
        "yɛbɛ",
        "ka"
      ],
      [
        "Sɛ",
        "nea"
      ],
      [
        "g",
        "i"
      ],
      [
        "ad",
        "an"
      ],
      [
        "l",
        "y"
      ],
      [
        "wi",
        "e"
      ],
      [
        "bɛyɛ",
        "ɛ"
      ],
      [
        "S",
        "i"
      ],
      [
        "po",
        "no"
      ],
      [
        "s",
        "ti"
      ],
      [
        "nte",
        "ɛ"
      ],
      [
        "ba",
        "eɛ"
      ],
      [
        "ase",
        "tena"
      ],
      [
        "ɔ",
        "barima"
      ],
      [
        "o",
        "nal"
      ],
      [
        "hɔ",
        "n"
      ],
      [
        "a",
        "yare"
      ],
      [
        "pa",
        "pa"
      ],
      [
        "yɛbɛ",
        "tumi"
      ],
      [
        "wo",
        "bɛ"
      ],
      [
        "o",
        "r"
      ],
      [
        "dw",
        "en"
      ],
      [
        "nna",
        "adaa"
      ],
      [
        "t",
        "w"
      ],
      [
        "n",
        "hwɛ"
      ],
      [
        "mfa",
        "soɔ"
      ],
      [
        "k",
        "uro"
      ],
      [
        "yɛbɛ",
        "yɛ"
      ],
      [
        "po",
        "li"
      ],
      [
        "kyerɛ",
        "kyerɛ"
      ],
      [
        "bi",
        "o"
      ],
      [
        "s",
        "ta"
      ],
      [
        "akwan",
        "ya"
      ],
      [
        "akyi",
        "ri"
      ],
      [
        "a",
        "pa"
      ],
      [
        "nn",
        "ya"
      ],
      [
        "ɛbɛ",
        "boa"
      ],
      [
        "ko",
        "ro"
      ],
      [
        "be",
        "tumi"
      ],
      [
        "a",
        "bɛ"
      ],
      [
        "Kwa",
        "me"
      ],
      [
        "ɛbɛ",
        "ba"
      ],
      [
        "anim",
        "foɔ"
      ],
      [
        "to",
        "ɔ"
      ],
      [
        "su",
        "kuu"
      ],
      [
        "ɔ",
        "dɔ"
      ],
      [
        "kye",
        "re"
      ],
      [
        "p",
        "anin"
      ],
      [
        "a",
        "sɛ"
      ],
      [
        "N",
        "e"
      ],
      [
        "ago",
        "die"
      ],
      [
        "ɛn",
        "nɛ"
      ],
      [
        "nn",
        "wa"
      ],
      [
        "ɔ",
        "hyɛ"
      ],
      [
        "kwa",
        "eɛ"
      ],
      [
        "A",
        "c"
      ],
      [
        "Nkur",
        "ɔfoɔ"
      ],
      [
        "A",
        "ba"
      ],
      [
        "ɔ",
        "no"
      ],
      [
        "dwo",
        "m"
      ],
      [
        "t",
        "s"
      ],
      [
        "an",
        "ka"
      ],
      [
        "mo",
        "mma"
      ],
      [
        "wɔre",
        "yɛ"
      ],
      [
        "ayare",
        "sa"
      ],
      [
        "ta",
        "m"
      ],
      [
        "N",
        "i"
      ],
      [
        "ɛn",
        "sa"
      ],
      [
        "wo",
        "se"
      ],
      [
        "ama",
        "mmerɛ"
      ],
      [
        "anida",
        "soɔ"
      ],
      [
        "daa",
        "kye"
      ],
      [
        "c",
        "y"
      ],
      [
        "ɔ",
        "se"
      ],
      [
        "Ɔ",
        "kraman"
      ],
      [
        "tu",
        "o"
      ],
      [
        "g",
        "h"
      ],
      [
        "re",
        "ba"
      ],
      [
        "nu",
        "anom"
      ],
      [
        "ɔ",
        "kraman"
      ],
      [
        "hunu",
        "u"
      ],
      [
        "a",
        "fa"
      ],
      [
        "s",
        "ra"
      ],
      [
        "o",
        "l"
      ],
      [
        "p",
        "ro"
      ],
      [
        "b",
        "le"
      ],
      [
        "Af",
        "ri"
      ],
      [
        "bɛ",
        "tumi"
      ],
      [
        "f",
        "aa"
      ],
      [
        "ɛma",
        "a"
      ],
      [
        "si",
        "a"
      ],
      [
        "nhyehyɛ",
        "eɛ"
      ],
      [
        "ye",
        "ra"
      ],
      [
        "o",
        "u"
      ],
      [
        "an",
        "ko"
      ],
      [
        "ɛ",
        "m"
      ],
      [
        "sɛ",
        "ɛ"
      ],
      [
        "wo",
        "ate"
      ],
      [
        "yɛ",
        "ma"
      ],
      [
        "ɛ",
        "ba"
      ],
      [
        "sie",
        "sie"
      ],
      [
        "w",
        "ɛ"
      ],
      [
        "wɔ",
        "te"
      ],
      [
        "C",
        "O"
      ],
      [
        "ɔ",
        "n"
      ],
      [
        "sɛ",
        "deɛ"
      ],
      [
        "se",
        "re"
      ],
      [
        "aman",
        "eɛ"
      ],
      [
        "c",
        "ra"
      ],
      [
        "Ɛ",
        "nsɛ"
      ],
      [
        "P",
        "o"
      ],
      [
        "ka",
        "eɛ"
      ],
      [
        "ɛ",
        "hyɛ"
      ],
      [
        "c",
        "on"
      ],
      [
        "ɔ",
        "baa"
      ],
      [
        "ke",
        "te"
      ],
      [
        "v",
        "er"
      ],
      [
        "kyerɛ",
        "w"
      ],
      [
        "hyi",
        "aa"
      ],
      [
        "to",
        "r"
      ],
      [
        "a",
        "c"
      ],
      [
        "asi",
        "ane"
      ],
      [
        "akwan",
        "kyerɛ"
      ],
      [
        "re",
        "yɛ"
      ],
      [
        "se",
        "n"
      ],
      [
        "efi",
        "sɛ"
      ],
      [
        "S",
        "ta"
      ],
      [
        "Si",
        "ka"
      ],
      [
        "J",
        "o"
      ],
      [
        "yɛ",
        "hu"
      ],
      [
        "ɛ",
        "tɔ"
      ],
      [
        "N",
        "P"
      ],
      [
        "mp",
        "animfoɔ"
      ],
      [
        "a",
        "boa"
      ],
      [
        "g",
        "y"
      ],
      [
        "re",
        "hwɛ"
      ],
      [
        "nn",
        "ye"
      ],
      [
        "n",
        "su"
      ],
      [
        "wo",
        "a"
      ],
      [
        "R",
        "e"
      ],
      [
        "ro",
        "w"
      ],
      [
        "ne",
        "ɛma"
      ],
      [
        "nkra",
        "taa"
      ],
      [
        "mme",
        "a"
      ],
      [
        "ti",
        "onal"
      ],
      [
        "a",
        "fi"
      ],
      [
        "do",
        "ɔ"
      ],
      [
        "H",
        "wɛ"
      ],
      [
        ",",
        "\""
      ],
      [
        "basa",
        "basa"
      ],
      [
        "S",
        "e"
      ],
      [
        "dɔ",
        "m"
      ],
      [
        "bi",
        "nom"
      ],
      [
        "B",
        "a"
      ],
      [
        "Ɛ",
        "te"
      ],
      [
        "nu",
        "a"
      ],
      [
        "re",
        "di"
      ],
      [
        "Be",
        "re"
      ],
      [
        "NP",
        "P"
      ],
      [
        "s",
        "si"
      ],
      [
        "A",
        "sɛm"
      ],
      [
        "uma",
        "di"
      ],
      [
        "r",
        "d"
      ],
      [
        "wu",
        "ra"
      ],
      [
        "awerɛ",
        "ho"
      ],
      [
        "an",
        "d"
      ],
      [
        "bɛ",
        "di"
      ],
      [
        "B",
        "aa"
      ],
      [
        "bi",
        "saa"
      ],
      [
        "wɔn",
        "ni"
      ],
      [
        "di",
        "a"
      ],
      [
        "aman",
        "aman"
      ],
      [
        "aba",
        "toɔ"
      ],
      [
        "yɛn",
        "nyɛ"
      ],
      [
        "kɔ",
        "n"
      ],
      [
        "kɛ",
        "kɛ"
      ],
      [
        "a",
        "h"
      ],
      [
        "so",
        "m"
      ],
      [
        "re",
        "bɔ"
      ],
      [
        "nk",
        "ete"
      ],
      [
        "adwumayɛ",
        "foɔ"
      ],
      [
        "pɛ",
        "ɛ"
      ],
      [
        "a",
        "kwa"
      ],
      [
        "ɔ",
        "kɔ"
      ],
      [
        "B",
        "i"
      ],
      [
        "ba",
        "ll"
      ],
      [
        "mma",
        "baa"
      ],
      [
        "ɛ",
        "ka"
      ],
      [
        "nne",
        "yɛ"
      ],
      [
        "l",
        "li"
      ],
      [
        "bɔɔl",
        "bɔ"
      ],
      [
        "bea",
        "eɛ"
      ],
      [
        "mmara",
        "hyɛ"
      ],
      [
        "me",
        "kae"
      ],
      [
        "nku",
        "too"
      ],
      [
        "a",
        "firi"
      ],
      [
        "o",
        "nipa"
      ],
      [
        "nku",
        "nim"
      ],
      [
        "e",
        "l"
      ],
      [
        "A",
        "u"
      ],
      [
        "u",
        "n"
      ],
      [
        "aho",
        "suo"
      ],
      [
        "ci",
        "al"
      ],
      [
        "ag",
        "umadi"
      ],
      [
        "rɔ",
        "fo"
      ],
      [
        "c",
        "u"
      ],
      [
        "fo",
        "r"
      ],
      [
        "dɔ",
        "ɔso"
      ],
      [
        "ny",
        "aa"
      ],
      [
        "yɛ",
        "a"
      ],
      [
        "kete",
        "wa"
      ],
      [
        "1",
        "9"
      ],
      [
        "ɛ",
        "di"
      ],
      [
        "gyina",
        "a"
      ],
      [
        "wu",
        "o"
      ],
      [
        "0",
        "0"
      ],
      [
        "anko",
        "pɔn"
      ],
      [
        "aman",
        "foɔ"
      ],
      [
        "nkɔ",
        "anim"
      ],
      [
        "M",
        "me"
      ],
      [
        "e",
        "yi"
      ],
      [
        "d",
        "y"
      ],
      [
        "ta",
        "l"
      ],
      [
        "p",
        "er"
      ],
      [
        "ko",
        "r"
      ],
      [
        "ag",
        "u"
      ],
      [
        "M",
        "aa"
      ],
      [
        "e",
        "s"
      ],
      [
        "a",
        "da"
      ],
      [
        "wo",
        "di"
      ],
      [
        "M",
        "maa"
      ],
      [
        "A",
        "man"
      ],
      [
        "mme",
        "re"
      ],
      [
        "adw",
        "o"
      ],
      [
        "susu",
        "w"
      ],
      [
        "A",
        "s"
      ],
      [
        "dodo",
        "ɔ"
      ],
      [
        "Ɔ",
        "kaa"
      ],
      [
        "l",
        "u"
      ],
      [
        "Maa",
        "me"
      ],
      [
        "nn",
        "w"
      ],
      [
        "ɔ",
        "ka"
      ],
      [
        "ny",
        "ankopɔn"
      ],
      [
        "bɔɔl",
        "ɔ"
      ],
      [
        "ur",
        "i"
      ],
      [
        "O",
        "nyankopɔn"
      ],
      [
        "ba",
        "e"
      ],
      [
        "N",
        "neɛma"
      ],
      [
        "g",
        "al"
      ],
      [
        "nt",
        "ɛm"
      ],
      [
        "as",
        "raa"
      ],
      [
        "la",
        "ck"
      ],
      [
        "y",
        "ɔfoɔ"
      ],
      [
        "yɛn",
        "ya"
      ],
      [
        "ako",
        "kɔ"
      ],
      [
        "c",
        "al"
      ],
      [
        "T",
        "e"
      ],
      [
        "wo",
        "ka"
      ],
      [
        "yare",
        "ɛ"
      ],
      [
        "Ɔse",
        "bɔ"
      ],
      [
        "aman",
        "neɛ"
      ],
      [
        "tu",
        "a"
      ],
      [
        "bo",
        "ta"
      ],
      [
        "Baa",
        "ko"
      ],
      [
        "ayaresa",
        "bea"
      ],
      [
        "wɔ",
        "kɔ"
      ],
      [
        "c",
        "ha"
      ],
      [
        "port",
        "s"
      ],
      [
        "ɛn",
        "neɛ"
      ],
      [
        "m",
        "foɔ"
      ],
      [
        "yɛbɛ",
        "kɔ"
      ],
      [
        "en",
        "t"
      ],
      [
        "D",
        "e"
      ],
      [
        "wɔ",
        "ka"
      ],
      [
        "N",
        "ti"
      ],
      [
        "Aba",
        "kɔsɛm"
      ],
      [
        "i",
        "r"
      ],
      [
        "nnyina",
        "soɔ"
      ],
      [
        "yɛ",
        "fa"
      ],
      [
        "te",
        "eɛ"
      ],
      [
        "Nan",
        "a"
      ],
      [
        "S",
        "u"
      ],
      [
        "asɛ",
        "nni"
      ],
      [
        "su",
        "ban"
      ],
      [
        "mmi",
        "ɛnsa"
      ],
      [
        "atwa",
        "m"
      ],
      [
        "a",
        "gye"
      ],
      [
        "ra",
        "l"
      ],
      [
        "nkyerɛ",
        "kyerɛ"
      ],
      [
        "n",
        "sesa"
      ],
      [
        "nko",
        "nto"
      ],
      [
        "ase",
        "tra"
      ],
      [
        "nkonim",
        "die"
      ],
      [
        "nto",
        "ma"
      ],
      [
        "on",
        "g"
      ],
      [
        "nteɛ",
        "soɔ"
      ],
      [
        "e",
        "si"
      ],
      [
        "ke",
        "ka"
      ],
      [
        "aman",
        "yɔfoɔ"
      ],
      [
        "Ma",
        "ha"
      ],
      [
        "ataa",
        "de"
      ],
      [
        "a",
        "me"
      ],
      [
        "o",
        "t"
      ],
      [
        "wɔ",
        "hwɛ"
      ],
      [
        "ɛ",
        "teɛ"
      ],
      [
        "wɔ",
        "di"
      ],
      [
        "hu",
        "u"
      ],
      [
        "gyina",
        "gyina"
      ],
      [
        "a",
        "ha"
      ],
      [
        "Mo",
        "mma"
      ],
      [
        "bɛ",
        "n"
      ],
      [
        "nkonto",
        "mpo"
      ],
      [
        "ɔ",
        "hwɛ"
      ],
      [
        "yɛ",
        "te"
      ],
      [
        "s",
        "ter"
      ],
      [
        "Ac",
        "cra"
      ],
      [
        "aman",
        "san"
      ],
      [
        "T",
        "ete"
      ],
      [
        "t",
        "se"
      ],
      [
        "bɛ",
        "ma"
      ],
      [
        "l",
        "d"
      ],
      [
        "H",
        "e"
      ],
      [
        "t",
        "he"
      ],
      [
        "wɔ",
        "fa"
      ],
      [
        "Mi",
        "ni"
      ],
      [
        "B",
        "lack"
      ],
      [
        "mpa",
        "eɛ"
      ],
      [
        "re",
        "si"
      ],
      [
        "n",
        "tumi"
      ],
      [
        "W",
        "i"
      ],
      [
        "an",
        "u"
      ],
      [
        "tion",
        "s"
      ],
      [
        "nn",
        "ua"
      ],
      [
        "se",
        "i"
      ],
      [
        "ko",
        "ra"
      ],
      [
        "me",
        "dia"
      ],
      [
        "n",
        "nan"
      ],
      [
        "anaa",
        "sɛ"
      ],
      [
        "ag",
        "ya"
      ],
      [
        "gye",
        "e"
      ],
      [
        "aho",
        "doɔ"
      ],
      [
        "D",
        "C"
      ],
      [
        "ka",
        "kra"
      ],
      [
        "ɛre",
        "ba"
      ],
      [
        "ɛn",
        "de"
      ],
      [
        "Wo",
        "se"
      ],
      [
        "dw",
        "i"
      ],
      [
        "t",
        "ta"
      ],
      [
        "Y",
        "ɛ"
      ],
      [
        "mma",
        "bu"
      ],
      [
        "ba",
        "saa"
      ],
      [
        "A",
        "kwa"
      ],
      [
        "yɛ",
        "anya"
      ],
      [
        "kyɛ",
        "w"
      ],
      [
        "ɔ",
        "nni"
      ],
      [
        "ye",
        "wa"
      ],
      [
        "a",
        "hwɛ"
      ],
      [
        "re",
        "ɛ"
      ],
      [
        "dw",
        "a"
      ],
      [
        "M",
        "m"
      ],
      [
        "Ɔ",
        "hene"
      ],
      [
        "so",
        "n"
      ],
      [
        "j",
        "o"
      ],
      [
        "si",
        "foɔ"
      ],
      [
        "K",
        "u"
      ],
      [
        "ɔ",
        "kaa"
      ],
      [
        "Maha",
        "ma"
      ],
      [
        "wɔ",
        "frɛ"
      ],
      [
        "um",
        "ba"
      ],
      [
        "asɛnni",
        "bea"
      ],
      [
        "nnw",
        "uma"
      ],
      [
        "Ɛ",
        "firi"
      ],
      [
        "ɔ",
        "bɛyɛ"
      ],
      [
        "ɔ",
        "bɔ"
      ],
      [
        "'",
        "."
      ],
      [
        "wɔ",
        "bɛyɛ"
      ],
      [
        "maa",
        "me"
      ],
      [
        "me",
        "te"
      ],
      [
        "sika",
        "sɛm"
      ],
      [
        "Ju",
        "ly"
      ],
      [
        "L",
        "umba"
      ],
      [
        "a",
        "bi"
      ],
      [
        "Ghana",
        "foɔ"
      ],
      [
        "mmɔ",
        "fra"
      ],
      [
        "bɛ",
        "boa"
      ],
      [
        "a",
        "p"
      ],
      [
        "Y",
        "i"
      ],
      [
        "a",
        "sɛe"
      ],
      [
        "i",
        "l"
      ],
      [
        "b",
        "adw"
      ],
      [
        "C",
        "ha"
      ],
      [
        "a",
        "b"
      ],
      [
        "wo",
        "tee"
      ],
      [
        "tɔ",
        "n"
      ],
      [
        "ɔ",
        "di"
      ],
      [
        "bɛ",
        "nya"
      ],
      [
        "si",
        "ni"
      ],
      [
        "nti",
        "nn"
      ],
      [
        "s",
        "te"
      ],
      [
        "pi",
        "ntinn"
      ],
      [
        "i",
        "ɛ"
      ],
      [
        "s",
        "ɔ"
      ],
      [
        "as",
        "ɔre"
      ],
      [
        "ɔ",
        "fa"
      ],
      [
        "on",
        "yam"
      ],
      [
        "be",
        "r"
      ],
      [
        "a",
        "foɔ"
      ],
      [
        "ɛn",
        "t"
      ],
      [
        "dz",
        "i"
      ],
      [
        "Ɛ",
        "wom"
      ],
      [
        "yɛbɛ",
        "fa"
      ],
      [
        "Ananse",
        "sɛm"
      ],
      [
        "a",
        "wi"
      ],
      [
        "Ɛ",
        "da"
      ],
      [
        "ɔre",
        "yɛ"
      ],
      [
        "P",
        "ro"
      ],
      [
        "ak",
        "ɛ"
      ],
      [
        "se",
        "y"
      ],
      [
        "S",
        "a"
      ],
      [
        "ɔbɛ",
        "kɔ"
      ],
      [
        "bi",
        "ako"
      ],
      [
        "te",
        "nten"
      ],
      [
        "c",
        "t"
      ],
      [
        "ade",
        "sua"
      ],
      [
        "W",
        "a"
      ],
      [
        "ako",
        "nnwa"
      ],
      [
        "S",
        "ha"
      ],
      [
        "nte",
        "teeɛ"
      ],
      [
        "u",
        "p"
      ],
      [
        "Ɔ",
        "de"
      ],
      [
        "aman",
        "ɔne"
      ],
      [
        "tw",
        "ɛn"
      ],
      [
        "n",
        "yi"
      ],
      [
        "en",
        "ti"
      ],
      [
        "abu",
        "fuo"
      ],
      [
        "gu",
        "a"
      ],
      [
        "D",
        "an"
      ],
      [
        "Mma",
        "rima"
      ],
      [
        "nsa",
        "kra"
      ],
      [
        "mfo",
        "ni"
      ],
      [
        "yɛ",
        "kasa"
      ],
      [
        "ke",
        "t"
      ],
      [
        "L",
        "e"
      ],
      [
        "Au",
        "gu"
      ],
      [
        "Ɔ",
        "baa"
      ],
      [
        "A",
        "b"
      ],
      [
        "wu",
        "nya"
      ],
      [
        "nkonim",
        "di"
      ],
      [
        "ɔ",
        "kɔɔ"
      ],
      [
        "li",
        "ty"
      ],
      [
        "ɛ",
        "hɔ"
      ],
      [
        "aho",
        "row"
      ],
      [
        "ku",
        "ta"
      ],
      [
        "se",
        "c"
      ],
      [
        "ɔ",
        "nim"
      ],
      [
        "re",
        "nya"
      ],
      [
        "ɔbɛ",
        "tumi"
      ],
      [
        "E",
        "nti"
      ],
      [
        "ɛbɛ",
        "tumi"
      ],
      [
        "aman",
        "e"
      ],
      [
        "bota",
        "eɛ"
      ],
      [
        "mp",
        "e"
      ],
      [
        "e",
        "kyi"
      ],
      [
        "mmo",
        "fra"
      ],
      [
        "g",
        "a"
      ],
      [
        "man",
        "foɔ"
      ],
      [
        "ti",
        "ve"
      ],
      [
        "Po",
        "li"
      ],
      [
        "A",
        "dwuma"
      ],
      [
        "ɛ",
        "kwan"
      ],
      [
        "Ɛ",
        "hɔ"
      ],
      [
        "asraa",
        "foɔ"
      ],
      [
        "I",
        "D"
      ],
      [
        "wɔbɛ",
        "di"
      ],
      [
        "re",
        "kyerɛ"
      ],
      [
        "he",
        "na"
      ],
      [
        "n",
        "wa"
      ],
      [
        "A",
        "be"
      ],
      [
        "ya",
        "w"
      ],
      [
        "wɔre",
        "ka"
      ],
      [
        "Augu",
        "st"
      ],
      [
        "Wɔ",
        "de"
      ],
      [
        "am",
        "sey"
      ],
      [
        "f",
        "ɔ"
      ],
      [
        "z",
        "e"
      ],
      [
        "pɔ",
        "nkɔ"
      ],
      [
        "nne",
        "ɛ"
      ],
      [
        "M",
        "mo"
      ],
      [
        "N",
        "DC"
      ],
      [
        "Yɛn",
        "hwɛ"
      ],
      [
        "ɔ",
        "da"
      ],
      [
        "i",
        "nte"
      ],
      [
        "ebi",
        "nom"
      ],
      [
        "D",
        "i"
      ],
      [
        "hi",
        "p"
      ],
      [
        "g",
        "yi"
      ],
      [
        "i",
        "ta"
      ],
      [
        "wɔ",
        "bɔ"
      ],
      [
        "g",
        "ra"
      ],
      [
        "ni",
        "ng"
      ],
      [
        "i",
        "ng"
      ],
      [
        "i",
        "nt"
      ],
      [
        "nkur",
        "o"
      ],
      [
        "pa",
        "e"
      ],
      [
        "ɛbɛ",
        "kyerɛ"
      ],
      [
        "ɔ",
        "kae"
      ],
      [
        "t",
        "wi"
      ],
      [
        "ɔ",
        "panyin"
      ],
      [
        "hwe",
        "re"
      ],
      [
        "C",
        "hi"
      ],
      [
        "a",
        "hu"
      ],
      [
        "Mma",
        "ra"
      ],
      [
        "m",
        "pi"
      ],
      [
        "nn",
        "u"
      ],
      [
        "ba",
        "mmɔ"
      ],
      [
        "sa",
        "kra"
      ],
      [
        "A",
        "d"
      ],
      [
        "y",
        "an"
      ],
      [
        "nokware",
        "ɛ"
      ],
      [
        "n",
        "si"
      ],
      [
        "en",
        "ce"
      ],
      [
        "nt",
        "aa"
      ],
      [
        "wɔbɛ",
        "tumi"
      ],
      [
        "ɛ",
        "t"
      ],
      [
        "Yi",
        "w"
      ],
      [
        "adan",
        "seɛ"
      ],
      [
        "a",
        "kye"
      ],
      [
        "e",
        "firi"
      ],
      [
        "nneyɛ",
        "e"
      ],
      [
        "tu",
        "re"
      ],
      [
        "amanyɔ",
        "kuo"
      ],
      [
        "yɛ",
        "kura"
      ],
      [
        "adu",
        "on"
      ],
      [
        "ɔre",
        "ka"
      ],
      [
        "a",
        "gyina"
      ],
      [
        "mmabu",
        "n"
      ],
      [
        "P",
        "apa"
      ],
      [
        "nsesa",
        "eɛ"
      ],
      [
        "biri",
        "biara"
      ],
      [
        "s",
        "rɛ"
      ],
      [
        "A",
        "ban"
      ],
      [
        "yɛ",
        "hia"
      ],
      [
        "H",
        "o"
      ],
      [
        "ri",
        "ty"
      ],
      [
        "re",
        "kasa"
      ],
      [
        "fu",
        "w"
      ],
      [
        "ɔ",
        "pa"
      ],
      [
        "ɛ",
        "bi"
      ],
      [
        "F",
        "A"
      ],
      [
        "ata",
        "deɛ"
      ],
      [
        "ɔse",
        "bɔ"
      ],
      [
        "yɛn",
        "ka"
      ],
      [
        "ane",
        "a"
      ],
      [
        "fu",
        "fuo"
      ],
      [
        "yɛ",
        "boa"
      ],
      [
        "wu",
        "nni"
      ],
      [
        "t",
        "an"
      ],
      [
        "ho",
        "san"
      ],
      [
        "A",
        "mpa"
      ],
      [
        "A",
        "r"
      ],
      [
        "G",
        "H"
      ],
      [
        "ɛbɛ",
        "sɛe"
      ],
      [
        "ni",
        "foɔ"
      ],
      [
        "san",
        "te"
      ],
      [
        "wo",
        "tumi"
      ],
      [
        "do",
        "m"
      ],
      [
        "W",
        "e"
      ],
      [
        "Sha",
        "tta"
      ],
      [
        "ɛ",
        "boa"
      ],
      [
        "ot",
        "ball"
      ],
      [
        "di",
        "bea"
      ],
      [
        "m",
        "pɛ"
      ],
      [
        "te",
        "y"
      ],
      [
        "P",
        "ar"
      ],
      [
        "nkɔ",
        "m"
      ],
      [
        "adwuma",
        "kuo"
      ],
      [
        "so",
        "me"
      ],
      [
        "bu",
        "e"
      ],
      [
        "mp",
        "ɔ"
      ],
      [
        "a",
        "bɛyɛ"
      ],
      [
        "ne",
        "e"
      ],
      [
        "ɔ",
        "ko"
      ],
      [
        "ri",
        "a"
      ],
      [
        "akwa",
        "hosan"
      ],
      [
        "bɛ",
        "bɔ"
      ],
      [
        "wɔre",
        "hwɛ"
      ],
      [
        "e",
        "x"
      ],
      [
        "st",
        "ry"
      ],
      [
        "p",
        "u"
      ],
      [
        "M",
        "an"
      ],
      [
        "T",
        "V"
      ],
      [
        "ɛ",
        "dan"
      ],
      [
        "Ɔ",
        "kae"
      ],
      [
        "wɔ",
        "dze"
      ],
      [
        "ti",
        "c"
      ],
      [
        "awerɛ",
        "how"
      ],
      [
        "ɔbɛ",
        "di"
      ],
      [
        "D",
        "o"
      ],
      [
        "mi",
        "a"
      ],
      [
        "a",
        "tena"
      ],
      [
        "p",
        "re"
      ],
      [
        "den",
        "t"
      ],
      [
        "sra",
        "deɛ"
      ],
      [
        "uri",
        "ty"
      ],
      [
        "c",
        "ar"
      ],
      [
        "Afri",
        "ca"
      ],
      [
        "aho",
        "bammɔ"
      ],
      [
        "nk",
        "ita"
      ],
      [
        "n",
        "wo"
      ],
      [
        "akwan",
        "hyia"
      ],
      [
        "ur",
        "t"
      ],
      [
        "ran",
        "te"
      ],
      [
        "k",
        "uma"
      ],
      [
        "hw",
        "an"
      ],
      [
        "M",
        "u"
      ],
      [
        "a",
        "foforo"
      ],
      [
        "hwehwɛ",
        "ɛ"
      ],
      [
        "A",
        "bo"
      ],
      [
        "le",
        "c"
      ],
      [
        "ɛbɛ",
        "kɔ"
      ],
      [
        "akyi",
        "re"
      ],
      [
        "I",
        "n"
      ],
      [
        "a",
        "hyehyɛ"
      ],
      [
        "Wa",
        "le"
      ],
      [
        "dwi",
        "ri"
      ],
      [
        "hw",
        "i"
      ],
      [
        "abɔ",
        "nten"
      ],
      [
        "nsakra",
        "eɛ"
      ],
      [
        "yɛn",
        "nyina"
      ],
      [
        "anan",
        "mu"
      ],
      [
        "yɛbɛ",
        "nya"
      ],
      [
        "Ɛ",
        "bɛyɛ"
      ],
      [
        "so",
        "cial"
      ],
      [
        "nkita",
        "ho"
      ],
      [
        "aduon",
        "u"
      ],
      [
        "t",
        "ro"
      ],
      [
        "wɔbɛ",
        "bɔ"
      ],
      [
        "ekyi",
        "r"
      ],
      [
        "wie",
        "eɛ"
      ],
      [
        "e",
        "f"
      ],
      [
        "U",
        "ni"
      ],
      [
        "ur",
        "aa"
      ],
      [
        "ro",
        "n"
      ],
      [
        "al",
        "th"
      ],
      [
        "wɔ",
        "hyɛ"
      ],
      [
        "li",
        "ne"
      ],
      [
        "ɔ",
        "mo"
      ],
      [
        "Ɔ",
        "ka"
      ],
      [
        "ɛ",
        "kyɛ"
      ],
      [
        "ɛn",
        "na"
      ],
      [
        "Ɛ",
        "kyerɛ"
      ],
      [
        "bu",
        "aa"
      ],
      [
        "A",
        "sa"
      ],
      [
        "ta",
        "re"
      ],
      [
        "lli",
        "on"
      ],
      [
        "n",
        "hyia"
      ],
      [
        "mm",
        "ra"
      ],
      [
        "akɛ",
        "seɛ"
      ],
      [
        "bo",
        "ɔ"
      ],
      [
        "di",
        "foɔ"
      ],
      [
        "Akwa",
        "tia"
      ],
      [
        "ni",
        "di"
      ],
      [
        "n",
        "no"
      ],
      [
        "ada",
        "ka"
      ],
      [
        "i",
        "m"
      ],
      [
        "h",
        "an"
      ],
      [
        "Ɛ",
        "nneɛ"
      ],
      [
        "gh",
        "t"
      ],
      [
        "Mme",
        "ranteɛ"
      ],
      [
        "gal",
        "amsey"
      ],
      [
        "L",
        "i"
      ],
      [
        "bo",
        "some"
      ],
      [
        "ad",
        "uru"
      ],
      [
        "ɔyɛ",
        "ɛ"
      ],
      [
        "ago",
        "ru"
      ],
      [
        "le",
        "s"
      ],
      [
        "fɛ",
        "ɛ"
      ],
      [
        "wɔbɛ",
        "fa"
      ],
      [
        "p",
        "ra"
      ],
      [
        "ɔ",
        "kyerɛ"
      ],
      [
        "A",
        "gya"
      ],
      [
        "CO",
        "V"
      ],
      [
        "COV",
        "ID"
      ],
      [
        "a",
        "kasa"
      ],
      [
        "si",
        "on"
      ],
      [
        "p",
        "ho"
      ],
      [
        "aha",
        "ban"
      ],
      [
        "mo",
        "no"
      ],
      [
        "yɛbɛ",
        "ma"
      ],
      [
        "ti",
        "tiri"
      ],
      [
        "re",
        "bu"
      ],
      [
        "p",
        "ri"
      ],
      [
        "ase",
        "sa"
      ],
      [
        "Y",
        "ɛwɔ"
      ],
      [
        "Ni",
        "pa"
      ],
      [
        "anim",
        "gu"
      ],
      [
        "kra",
        "taa"
      ],
      [
        "titiri",
        "w"
      ],
      [
        "Ne",
        "a"
      ],
      [
        "a",
        "eɛ"
      ],
      [
        "yɛ",
        "mfa"
      ],
      [
        "abo",
        "fra"
      ],
      [
        "G",
        "ol"
      ],
      [
        "a",
        "hwehwɛ"
      ],
      [
        "ko",
        "to"
      ],
      [
        "yɛre",
        "ka"
      ],
      [
        "mpa",
        "e"
      ],
      [
        "asomdwo",
        "e"
      ],
      [
        "de",
        "r"
      ],
      [
        "nko",
        "aa"
      ],
      [
        "he",
        "li"
      ],
      [
        "Ni",
        "ge"
      ],
      [
        "yɛ",
        "gye"
      ],
      [
        "p",
        "ter"
      ],
      [
        "nk",
        "yɛ"
      ],
      [
        "ti",
        "ng"
      ],
      [
        "D",
        "ɛn"
      ],
      [
        "s",
        "ɔre"
      ],
      [
        "S",
        "o"
      ],
      [
        "n",
        "se"
      ],
      [
        "de",
        "a"
      ],
      [
        "Ebi",
        "nom"
      ],
      [
        "D",
        "ad"
      ],
      [
        "wɔ",
        "anya"
      ],
      [
        "ri",
        "ka"
      ],
      [
        "Na",
        "tional"
      ],
      [
        "duru",
        "u"
      ],
      [
        "abusua",
        "bɔ"
      ],
      [
        "yi",
        "i"
      ],
      [
        "c",
        "an"
      ],
      [
        "te",
        "d"
      ],
      [
        "wɔ",
        "gyina"
      ],
      [
        "wu",
        "nim"
      ],
      [
        "q",
        "ua"
      ],
      [
        "tu",
        "tu"
      ],
      [
        "a",
        "tion"
      ],
      [
        "ataa",
        "deɛ"
      ],
      [
        "T",
        "o"
      ],
      [
        "A",
        "l"
      ],
      [
        "e",
        "gyina"
      ],
      [
        "c",
        "he"
      ],
      [
        "bɛ",
        "sɛe"
      ],
      [
        "ebi",
        "a"
      ],
      [
        "Sta",
        "rs"
      ],
      [
        "akwantu",
        "o"
      ],
      [
        "Jo",
        "h"
      ],
      [
        "nna",
        "mfo"
      ],
      [
        "fo",
        "otball"
      ],
      [
        "as",
        "ɔ"
      ],
      [
        "ka",
        "r"
      ],
      [
        "ɔ",
        "kasa"
      ],
      [
        "O",
        "biara"
      ],
      [
        "wo",
        "re"
      ],
      [
        "ou",
        "th"
      ],
      [
        "ssi",
        "on"
      ],
      [
        "p",
        "ene"
      ],
      [
        "Mini",
        "ster"
      ],
      [
        "H",
        "i"
      ],
      [
        "s",
        "h"
      ],
      [
        "Ba",
        "wu"
      ],
      [
        "t",
        "werɛ"
      ],
      [
        "te",
        "am"
      ],
      [
        "wɔ",
        "twe"
      ],
      [
        "Dad",
        "dy"
      ],
      [
        "ɛ",
        "he"
      ],
      [
        "a",
        "wa"
      ],
      [
        "n",
        "sia"
      ],
      [
        "baa",
        "wa"
      ],
      [
        "co",
        "pter"
      ],
      [
        "Bawu",
        "mia"
      ],
      [
        "gy",
        "aa"
      ],
      [
        "k",
        "yɛn"
      ],
      [
        "a",
        "bom"
      ],
      [
        "sɛ",
        "n"
      ],
      [
        "ɔ",
        "nyɛ"
      ],
      [
        "nni",
        "s"
      ],
      [
        "s",
        "ports"
      ],
      [
        "m",
        "ber"
      ],
      [
        "ata",
        "de"
      ],
      [
        "awerɛho",
        "ɔ"
      ],
      [
        "ce",
        "s"
      ],
      [
        "mpɔ",
        "tam"
      ],
      [
        "nka",
        "eɛ"
      ],
      [
        "re",
        "ko"
      ],
      [
        "M",
        "ar"
      ],
      [
        "poli",
        "sifoɔ"
      ],
      [
        "wɔ",
        "ayɛ"
      ],
      [
        "hwɛ",
        "ɛ"
      ],
      [
        "ta",
        "ble"
      ],
      [
        "wɔre",
        "bɔ"
      ],
      [
        "lu",
        "b"
      ],
      [
        "l",
        "ue"
      ],
      [
        "ɛ",
        "mfa"
      ],
      [
        "O",
        "bi"
      ],
      [
        "ad",
        "ze"
      ],
      [
        "gyi",
        "di"
      ],
      [
        "yɛ",
        "kae"
      ],
      [
        "yi",
        "m"
      ],
      [
        "mmerɛ",
        "w"
      ],
      [
        "ku",
        "w"
      ],
      [
        "wɔre",
        "di"
      ],
      [
        "pɛɛ",
        "pɛ"
      ],
      [
        "ɔ",
        "dii"
      ],
      [
        "202",
        "4"
      ],
      [
        "yɛbɛ",
        "di"
      ],
      [
        "a",
        "u"
      ],
      [
        "s",
        "uro"
      ],
      [
        "ata",
        "r"
      ],
      [
        "R",
        "o"
      ],
      [
        "akan",
        "nifoɔ"
      ],
      [
        "awerɛho",
        "sɛm"
      ],
      [
        "sti",
        "ce"
      ],
      [
        "E",
        "C"
      ],
      [
        "a",
        "foforɔ"
      ],
      [
        "a",
        "wieeɛ"
      ],
      [
        "st",
        "ra"
      ],
      [
        "nhyehyɛ",
        "ɛ"
      ],
      [
        "n",
        "hwehwɛ"
      ],
      [
        "yɛ",
        "gyina"
      ],
      [
        "K",
        "w"
      ],
      [
        "s",
        "k"
      ],
      [
        "ɛn",
        "nyɛ"
      ],
      [
        "Nige",
        "ria"
      ],
      [
        "m",
        "man"
      ],
      [
        "A",
        "F"
      ],
      [
        "Ɔ",
        "pɛ"
      ],
      [
        "Co",
        "mmi"
      ],
      [
        "ɔ",
        "ma"
      ],
      [
        "nni",
        "m"
      ],
      [
        "tena",
        "a"
      ],
      [
        "de",
        "o"
      ],
      [
        "bo",
        "bɔ"
      ],
      [
        "hɔ",
        "nom"
      ],
      [
        "ɔ",
        "fra"
      ],
      [
        "r",
        "ld"
      ],
      [
        "Wi",
        "ase"
      ],
      [
        "sec",
        "urity"
      ],
      [
        "wo",
        "an"
      ],
      [
        "basabasa",
        "yɛ"
      ],
      [
        "n",
        "hyɛ"
      ],
      [
        "p",
        "la"
      ],
      [
        "nkete",
        "nkete"
      ],
      [
        "A",
        "ko"
      ],
      [
        "rt",
        "h"
      ],
      [
        "Poli",
        "ce"
      ],
      [
        "a",
        "bere"
      ],
      [
        "Kw",
        "adwo"
      ],
      [
        "s",
        "port"
      ],
      [
        "ɛsɛ",
        "e"
      ],
      [
        "G",
        "o"
      ],
      [
        "Ɔ",
        "kɔɔ"
      ],
      [
        "pɛ",
        "pɛɛpɛ"
      ],
      [
        "nhwɛ",
        "soɔ"
      ],
      [
        "ɛ",
        "bɔ"
      ],
      [
        "ye",
        "re"
      ],
      [
        "se",
        "e"
      ],
      [
        "an",
        "s"
      ],
      [
        "nkɔ",
        "so"
      ],
      [
        "V",
        "i"
      ],
      [
        "b",
        "rɛ"
      ],
      [
        "pa",
        "r"
      ],
      [
        "Ɛyɛ",
        "ɛ"
      ],
      [
        "p",
        "ue"
      ],
      [
        "ko",
        "rɛ"
      ],
      [
        "bɔ",
        "foɔ"
      ],
      [
        "dɔ",
        "ɔ"
      ],
      [
        "Aman",
        "yɔ"
      ],
      [
        "Da",
        "bi"
      ],
      [
        "wɔ",
        "ne"
      ],
      [
        "yɛre",
        "yɛ"
      ],
      [
        "ur",
        "na"
      ],
      [
        "ato",
        "ro"
      ],
      [
        "Mm",
        "ɔfra"
      ],
      [
        "yɔ",
        "nko"
      ],
      [
        "nso",
        "n"
      ],
      [
        "mo",
        "nhwɛ"
      ],
      [
        "s",
        "to"
      ],
      [
        "A",
        "fe"
      ],
      [
        "ɔ",
        "bɔɔ"
      ],
      [
        "so",
        "r"
      ],
      [
        "F",
        "i"
      ],
      [
        "p",
        "ong"
      ],
      [
        "na",
        "tional"
      ],
      [
        "re",
        "nee"
      ],
      [
        "s",
        "y"
      ],
      [
        "yɛbɛ",
        "hu"
      ],
      [
        "e",
        "di"
      ],
      [
        "m",
        "ba"
      ],
      [
        "B",
        "u"
      ],
      [
        "ɔbɛ",
        "ka"
      ],
      [
        "wɔbɛ",
        "ma"
      ],
      [
        "nhyehyɛ",
        "e"
      ],
      [
        "N",
        "ko"
      ],
      [
        "d",
        "ane"
      ],
      [
        "Joh",
        "n"
      ],
      [
        "E",
        "si"
      ],
      [
        "s",
        "pe"
      ],
      [
        "yɛn",
        "kɔ"
      ],
      [
        "li",
        "c"
      ],
      [
        "b",
        "lue"
      ],
      [
        "ɛ",
        "wom"
      ],
      [
        "ko",
        "rɔ"
      ],
      [
        "a",
        "mpa"
      ],
      [
        "n",
        "d"
      ],
      [
        "nneyɛ",
        "eɛ"
      ],
      [
        "fɛɛ",
        "fɛ"
      ],
      [
        "mmea",
        "eɛ"
      ],
      [
        "l",
        "f"
      ],
      [
        "p",
        "on"
      ],
      [
        "wɔ",
        "bɔɔ"
      ],
      [
        "\"",
        ","
      ],
      [
        "N",
        "sɛm"
      ],
      [
        "ad",
        "ɛn"
      ],
      [
        "ani",
        "mu"
      ],
      [
        "awi",
        "ei"
      ],
      [
        "yɛ",
        "hyɛ"
      ],
      [
        "ne",
        "ss"
      ],
      [
        "de",
        "da"
      ],
      [
        "Nkur",
        "ɔfo"
      ],
      [
        "wo",
        "yi"
      ],
      [
        "di",
        "o"
      ],
      [
        "A",
        "sante"
      ],
      [
        "ɔ",
        "ɔ"
      ],
      [
        "m",
        "s"
      ],
      [
        "mme",
        "rante"
      ],
      [
        "Ad",
        "do"
      ],
      [
        "on",
        "s"
      ],
      [
        "y",
        "aa"
      ],
      [
        "P",
        "resi"
      ],
      [
        "y",
        "o"
      ],
      [
        "e",
        "mu"
      ],
      [
        "Ɛ",
        "dan"
      ],
      [
        "sere",
        "w"
      ],
      [
        "C",
        "up"
      ],
      [
        "man",
        "tam"
      ],
      [
        "me",
        "nim"
      ],
      [
        "n",
        "ye"
      ],
      [
        "ɛ",
        "si"
      ],
      [
        "ti",
        "re"
      ],
      [
        "a",
        "e"
      ],
      [
        "b",
        "y"
      ],
      [
        "B",
        "an"
      ],
      [
        "a",
        "yi"
      ],
      [
        "ɔbɛ",
        "ma"
      ],
      [
        "animu",
        "onyam"
      ],
      [
        "vi",
        "deo"
      ],
      [
        "du",
        "ku"
      ],
      [
        "kɔ",
        "si"
      ],
      [
        "c",
        "re"
      ],
      [
        "Ɛ",
        "bi"
      ],
      [
        "Ɔ",
        "kɔ"
      ],
      [
        "ɛ",
        "baa"
      ],
      [
        "ɔre",
        "hwɛ"
      ],
      [
        "ag",
        "ue"
      ],
      [
        "e",
        "nne"
      ],
      [
        "kye",
        "ree"
      ],
      [
        "ɛ",
        "som"
      ],
      [
        "ɔman",
        "panin"
      ],
      [
        "S",
        "ports"
      ],
      [
        "Ɔ",
        "barima"
      ],
      [
        "gu",
        "gu"
      ],
      [
        "ko",
        "si"
      ],
      [
        "ɛyɛ",
        "ɛ"
      ],
      [
        "p",
        "h"
      ],
      [
        "animgu",
        "aseɛ"
      ],
      [
        "fi",
        "i"
      ],
      [
        "bo",
        "ro"
      ],
      [
        "Wɔ",
        "ka"
      ],
      [
        "wu",
        "be"
      ],
      [
        "mmɔden",
        "bɔ"
      ],
      [
        "M",
        "P"
      ],
      [
        "gye",
        "ɛ"
      ],
      [
        "N",
        "nua"
      ],
      [
        "badw",
        "a"
      ],
      [
        "ɛ",
        "so"
      ],
      [
        "c",
        "ho"
      ],
      [
        "di",
        "s"
      ],
      [
        "kyerɛ",
        "e"
      ],
      [
        "l",
        "an"
      ],
      [
        "ɔre",
        "kyerɛ"
      ],
      [
        "ra",
        "man"
      ],
      [
        "mi",
        "c"
      ],
      [
        "aka",
        "ta"
      ],
      [
        "A",
        "dan"
      ],
      [
        "ɛ",
        "mu"
      ],
      [
        "E",
        "i"
      ],
      [
        "yɛ",
        "hwehwɛ"
      ],
      [
        "R",
        "i"
      ],
      [
        "A",
        "dɛn"
      ],
      [
        "tse",
        "na"
      ],
      [
        "wɔ",
        "yɛɛ"
      ],
      [
        "Re",
        "gi"
      ],
      [
        "Amanyɔ",
        "sɛm"
      ],
      [
        "li",
        "fe"
      ],
      [
        "to",
        "w"
      ],
      [
        "yɛ",
        "foɔ"
      ],
      [
        "rɛ",
        "w"
      ],
      [
        "yɛ",
        "bu"
      ],
      [
        "Chi",
        "ef"
      ],
      [
        "S",
        "outh"
      ],
      [
        "re",
        "ma"
      ],
      [
        "ɛ",
        "neɛ"
      ],
      [
        "M",
        "r"
      ],
      [
        "S",
        "er"
      ],
      [
        "ago",
        "difoɔ"
      ],
      [
        "mmi",
        "rika"
      ],
      [
        "g",
        "en"
      ],
      [
        "mi",
        "llion"
      ],
      [
        "nko",
        "nnwa"
      ],
      [
        "Ko",
        "jo"
      ],
      [
        "dwo",
        "o"
      ],
      [
        "ɛ",
        "kura"
      ],
      [
        "bi",
        "lity"
      ],
      [
        "ca",
        "tion"
      ],
      [
        "nsa",
        "h"
      ],
      [
        "Ɔman",
        "panyin"
      ],
      [
        "T",
        "i"
      ],
      [
        "F",
        "o"
      ],
      [
        "c",
        "tor"
      ],
      [
        "v",
        "o"
      ],
      [
        "abu",
        "e"
      ],
      [
        "nna",
        "m"
      ],
      [
        "ran",
        "kaa"
      ],
      [
        "o",
        "bu"
      ],
      [
        "Abe",
        "ranteɛ"
      ],
      [
        "an",
        "ɛt"
      ],
      [
        "a",
        "ti"
      ],
      [
        "Ɛ",
        "neɛ"
      ],
      [
        "mp",
        "an"
      ],
      [
        "ha",
        "mme"
      ],
      [
        "si",
        "c"
      ],
      [
        "ad",
        "ane"
      ],
      [
        "vi",
        "ce"
      ],
      [
        "ama",
        "h"
      ],
      [
        "Wo",
        "rld"
      ],
      [
        "nku",
        "ra"
      ],
      [
        "ɛre",
        "yɛ"
      ],
      [
        "kan",
        "yan"
      ],
      [
        "Ɔ",
        "yɛ"
      ],
      [
        "mfi",
        "mfi"
      ],
      [
        "nku",
        "m"
      ],
      [
        "k",
        "ro"
      ],
      [
        "Ju",
        "stice"
      ],
      [
        "ɔre",
        "kɔ"
      ],
      [
        "F",
        "e"
      ],
      [
        "Hi",
        "gh"
      ],
      [
        "li",
        "ng"
      ],
      [
        "to",
        "m"
      ],
      [
        "s",
        "m"
      ],
      [
        "at",
        "ɛnt"
      ],
      [
        "ac",
        "ci"
      ],
      [
        "be",
        "na"
      ],
      [
        "Bi",
        "nom"
      ],
      [
        "n",
        "kae"
      ],
      [
        "U",
        "S"
      ],
      [
        "kɔ",
        "eɛ"
      ],
      [
        "abɔ",
        "fra"
      ],
      [
        "a",
        "yera"
      ],
      [
        "M",
        "feɛ"
      ],
      [
        "a",
        "be"
      ],
      [
        "te",
        "s"
      ],
      [
        "t",
        "ho"
      ],
      [
        "hamme",
        "d"
      ],
      [
        "bɛ",
        "hyɛ"
      ],
      [
        "ɔbɛ",
        "fa"
      ],
      [
        "ɛ",
        "ɛ"
      ],
      [
        "wɔ",
        "hwehwɛ"
      ],
      [
        "at",
        "ɔ"
      ],
      [
        "yɛre",
        "hwɛ"
      ],
      [
        "bi",
        "bi"
      ],
      [
        "ll",
        "s"
      ],
      [
        "anu",
        "onyam"
      ],
      [
        "tw",
        "aa"
      ],
      [
        "re",
        "twa"
      ],
      [
        "nhwehwɛ",
        "mu"
      ],
      [
        "Ko",
        "to"
      ],
      [
        "ɛ",
        "nam"
      ],
      [
        "ɛ",
        "dɔɔso"
      ],
      [
        "ɔbɛ",
        "nya"
      ],
      [
        "int",
        "anɛt"
      ],
      [
        "ɔman",
        "panyin"
      ],
      [
        "No",
        "rth"
      ],
      [
        "E",
        "O"
      ],
      [
        "s",
        "pi"
      ],
      [
        "wɔre",
        "kɔ"
      ],
      [
        "n",
        "ho"
      ],
      [
        "di",
        "um"
      ],
      [
        "Presi",
        "dent"
      ],
      [
        "du",
        "s"
      ],
      [
        "nna",
        "mfoɔ"
      ],
      [
        "mpa",
        "boa"
      ],
      [
        "j",
        "e"
      ],
      [
        "r",
        "ɔfoɔ"
      ],
      [
        "Ku",
        "dus"
      ],
      [
        "o",
        "wuo"
      ],
      [
        "ene",
        "ral"
      ],
      [
        "Afri",
        "ka"
      ],
      [
        "dwiri",
        "w"
      ],
      [
        "yɛn",
        "im"
      ],
      [
        "mpo",
        "ano"
      ],
      [
        "wɔn",
        "yɛ"
      ],
      [
        "ɔ",
        "hyɛɛ"
      ],
      [
        "afi",
        "ase"
      ],
      [
        "P",
        "e"
      ],
      [
        "ɔbɛ",
        "kyerɛ"
      ],
      [
        "afe",
        "i"
      ],
      [
        "ka",
        "me"
      ],
      [
        "ɔ",
        "gyina"
      ],
      [
        "Yɛn",
        "ni"
      ],
      [
        "nkwa",
        "daa"
      ],
      [
        "abo",
        "te"
      ],
      [
        "fu",
        "fuw"
      ],
      [
        "e",
        "sisi"
      ],
      [
        "nn",
        "um"
      ],
      [
        "ad",
        "uro"
      ],
      [
        "heli",
        "copter"
      ],
      [
        "i",
        "s"
      ],
      [
        "Ɔ",
        "no"
      ],
      [
        "nipa",
        "dua"
      ],
      [
        "sere",
        "ɛ"
      ],
      [
        "akokɔ",
        "sradeɛ"
      ],
      [
        "a",
        "fo"
      ],
      [
        "d",
        "ge"
      ],
      [
        "t",
        "ch"
      ],
      [
        "Ɔ",
        "bɛ"
      ],
      [
        "mp",
        "anin"
      ],
      [
        "nhyia",
        "mu"
      ],
      [
        "baa",
        "biara"
      ],
      [
        "N",
        "kwa"
      ],
      [
        "nn",
        "yi"
      ],
      [
        "te",
        "w"
      ],
      [
        "da",
        "y"
      ],
      [
        "ni",
        "wa"
      ],
      [
        "boa",
        "boa"
      ],
      [
        "nnyina",
        "so"
      ],
      [
        "Y",
        "ɛhia"
      ],
      [
        "hwi",
        "ren"
      ],
      [
        "atɛnt",
        "renee"
      ],
      [
        "Ɛ",
        "ne"
      ],
      [
        "n",
        "wura"
      ],
      [
        "vi",
        "sion"
      ],
      [
        "an",
        "adwo"
      ],
      [
        "ye",
        "r"
      ],
      [
        "no",
        "korɛ"
      ],
      [
        "hye",
        "ɛ"
      ],
      [
        "mu",
        "o"
      ],
      [
        "ɔman",
        "fo"
      ],
      [
        "ku",
        "m"
      ],
      [
        "Me",
        "pa"
      ],
      [
        "wɔbɛ",
        "kɔ"
      ],
      [
        "go",
        "lf"
      ],
      [
        "kyi",
        "ri"
      ],
      [
        "kyerɛ",
        "kyerɛɛ"
      ],
      [
        "mp",
        "anyin"
      ],
      [
        "ag",
        "e"
      ],
      [
        "inte",
        "r"
      ],
      [
        "mpae",
        "bɔ"
      ],
      [
        "Mo",
        "hammed"
      ],
      [
        "G",
        "eneral"
      ],
      [
        "s",
        "ho"
      ],
      [
        "ra",
        "tion"
      ],
      [
        "mme",
        "ɛnsa"
      ],
      [
        "me",
        "hyɛ"
      ],
      [
        "be",
        "n"
      ],
      [
        "a",
        "tia"
      ],
      [
        "w",
        "ene"
      ],
      [
        "Me",
        "nsah"
      ],
      [
        "te",
        "ne"
      ],
      [
        "wɔ",
        "nam"
      ],
      [
        "mp",
        "re"
      ],
      [
        "anida",
        "so"
      ],
      [
        "A",
        "ku"
      ],
      [
        "M",
        "on"
      ],
      [
        "N",
        "ya"
      ],
      [
        "daa",
        "daa"
      ],
      [
        "ni",
        "n"
      ],
      [
        "re",
        "hyɛ"
      ],
      [
        "nwo",
        "nwa"
      ],
      [
        "yɛn",
        "kyerɛ"
      ],
      [
        "mpe",
        "m"
      ],
      [
        "bɛ",
        "fa"
      ],
      [
        "fɛ",
        "fɛɛfɛ"
      ],
      [
        "p",
        "an"
      ],
      [
        "j",
        "u"
      ],
      [
        "ɛ",
        "gyina"
      ],
      [
        "wɔ",
        "mfa"
      ],
      [
        "yɛn",
        "yina"
      ],
      [
        "A",
        "gye"
      ],
      [
        "tu",
        "u"
      ],
      [
        "fe",
        "e"
      ],
      [
        "wu",
        "hu"
      ],
      [
        "nkɔm",
        "hyɛ"
      ],
      [
        "Mmara",
        "hyɛ"
      ],
      [
        "nu",
        "m"
      ],
      [
        "amanneɛ",
        "bɔ"
      ],
      [
        "tie",
        "e"
      ],
      [
        "li",
        "a"
      ],
      [
        "dɛ",
        "ɛ"
      ],
      [
        "t",
        "si"
      ],
      [
        "yɛ",
        "hunu"
      ],
      [
        "bɛ",
        "to"
      ],
      [
        "rɛ",
        "n"
      ],
      [
        "C",
        "on"
      ],
      [
        "yɛ",
        "bisa"
      ],
      [
        "t",
        "ran"
      ],
      [
        "bo",
        "x"
      ],
      [
        "bɛ",
        "kyerɛ"
      ],
      [
        "di",
        "ng"
      ],
      [
        "ta",
        "in"
      ],
      [
        "f",
        "rankaa"
      ],
      [
        "q",
        "u"
      ],
      [
        "Ɔ",
        "pa"
      ],
      [
        "aman",
        "muo"
      ],
      [
        "co",
        "u"
      ],
      [
        "st",
        "ru"
      ],
      [
        "bɔɔlobɔ",
        "foɔ"
      ],
      [
        "C",
        "ar"
      ],
      [
        "Me",
        "se"
      ],
      [
        "abo",
        "tare"
      ],
      [
        "d",
        "s"
      ],
      [
        "a",
        "st"
      ],
      [
        "yɛ",
        "frɛ"
      ],
      [
        "da",
        "deɛ"
      ],
      [
        "ebi",
        "en"
      ],
      [
        "faa",
        "ko"
      ],
      [
        "mi",
        "enu"
      ],
      [
        "Ɔse",
        "bo"
      ],
      [
        "wɔa",
        "hyehyɛ"
      ],
      [
        "yɛ",
        "an"
      ],
      [
        "wi",
        "a"
      ],
      [
        "re",
        "yi"
      ],
      [
        "m",
        "firi"
      ],
      [
        "a",
        "sua"
      ],
      [
        "bɛ",
        "gyina"
      ],
      [
        "pa",
        "w"
      ],
      [
        "W",
        "u"
      ],
      [
        "g",
        "re"
      ],
      [
        "00",
        "0"
      ],
      [
        "baa",
        "yewa"
      ],
      [
        "ɔbɛ",
        "boa"
      ],
      [
        "bɛ",
        "kaa"
      ],
      [
        "w",
        "s"
      ],
      [
        "Ɛ",
        "kame"
      ],
      [
        "re",
        "hu"
      ],
      [
        "d",
        "uro"
      ],
      [
        "a",
        "wo"
      ],
      [
        "Ɔ",
        "so"
      ],
      [
        "se",
        "r"
      ],
      [
        "a",
        "tumi"
      ],
      [
        "A",
        "du"
      ],
      [
        "c",
        "hi"
      ],
      [
        "ɔ",
        "hunuu"
      ],
      [
        "nk",
        "yin"
      ],
      [
        "yɛ",
        "kyerɛ"
      ],
      [
        "hye",
        "hye"
      ],
      [
        "j",
        "i"
      ],
      [
        "o",
        "nim"
      ],
      [
        "ɛnt",
        "ɛn"
      ],
      [
        "Kwa",
        "bena"
      ],
      [
        "Ɛ",
        "na"
      ],
      [
        "wɔ",
        "hu"
      ],
      [
        "wo",
        "gye"
      ],
      [
        "hw",
        "ene"
      ],
      [
        "afi",
        "die"
      ],
      [
        "wɔ",
        "dii"
      ],
      [
        "wo",
        "twa"
      ],
      [
        "wa",
        "di"
      ],
      [
        "hye",
        "rɛn"
      ],
      [
        "fu",
        "nu"
      ],
      [
        "mpi",
        "ons"
      ],
      [
        "G",
        "FA"
      ],
      [
        "ahwehwɛ",
        "niwa"
      ],
      [
        "bɛ",
        "tena"
      ],
      [
        "tic",
        "s"
      ],
      [
        "s",
        "hi"
      ],
      [
        "mfoni",
        "ni"
      ],
      [
        "nti",
        "e"
      ],
      [
        "wan",
        "ya"
      ],
      [
        "K",
        "uma"
      ],
      [
        "ani",
        "wu"
      ],
      [
        "a",
        "wu"
      ],
      [
        "mmu",
        "aeɛ"
      ],
      [
        "ataa",
        "re"
      ],
      [
        "we",
        "r"
      ],
      [
        "ɛ",
        "hyɛn"
      ],
      [
        "o",
        "k"
      ],
      [
        "ɛ",
        "pono"
      ],
      [
        "kɔ",
        "kɔ"
      ],
      [
        "mo",
        "nyɛ"
      ],
      [
        "Koto",
        "ko"
      ],
      [
        "mp",
        "ong"
      ],
      [
        "tal",
        "ent"
      ],
      [
        "A",
        "dwene"
      ],
      [
        "N",
        "suo"
      ],
      [
        "c",
        "le"
      ],
      [
        "gi",
        "tal"
      ],
      [
        "re",
        "s"
      ],
      [
        "sti",
        "tu"
      ],
      [
        "en",
        "te"
      ],
      [
        "Mini",
        "stry"
      ],
      [
        "wɔ",
        "aka"
      ],
      [
        "ma",
        "r"
      ],
      [
        "hye",
        "w"
      ],
      [
        "te",
        "nnis"
      ],
      [
        "mp",
        "ɔn"
      ],
      [
        "tie",
        "s"
      ],
      [
        "wɔ",
        "sɛe"
      ],
      [
        "wie",
        "m"
      ],
      [
        "re",
        "st"
      ],
      [
        "Wɔ",
        "pɛ"
      ],
      [
        "mmu",
        "o"
      ],
      [
        "dwa",
        "die"
      ],
      [
        "a",
        "mi"
      ],
      [
        "Bo",
        "amah"
      ],
      [
        "l",
        "lo"
      ],
      [
        "ani",
        "wuo"
      ],
      [
        "O",
        "man"
      ],
      [
        "Nnipa",
        "kuo"
      ],
      [
        "sy",
        "ste"
      ],
      [
        "yɛre",
        "kɔ"
      ],
      [
        "at",
        "ra"
      ],
      [
        "o",
        "gya"
      ],
      [
        "wo",
        "wɔ"
      ],
      [
        "G",
        "ya"
      ],
      [
        "fu",
        "ra"
      ],
      [
        "bɛ",
        "pɛ"
      ],
      [
        "e",
        "gu"
      ],
      [
        "w",
        "aa"
      ],
      [
        "nan",
        "anom"
      ],
      [
        "nkunim",
        "die"
      ],
      [
        "Wɔ",
        "se"
      ],
      [
        "so",
        "ci"
      ],
      [
        "me",
        "n"
      ],
      [
        "po",
        "r"
      ],
      [
        "nte",
        "r"
      ],
      [
        "ri",
        "c"
      ],
      [
        "hyi",
        "ra"
      ],
      [
        "Abo",
        "rɔfo"
      ],
      [
        "an",
        "ɔpa"
      ],
      [
        "ɔ",
        "firi"
      ],
      [
        "ho",
        "kwan"
      ],
      [
        "yɛbɛ",
        "gyina"
      ],
      [
        "Su",
        "kuu"
      ],
      [
        "a",
        "su"
      ],
      [
        "mfa",
        "so"
      ],
      [
        "a",
        "f"
      ],
      [
        "da",
        "da"
      ],
      [
        "Ebi",
        "a"
      ],
      [
        "a",
        "hyɛn"
      ],
      [
        "a",
        "siesie"
      ],
      [
        "e",
        "lec"
      ],
      [
        "p",
        "en"
      ],
      [
        "ɛ",
        "kanyan"
      ],
      [
        "co",
        "urt"
      ],
      [
        "k",
        "anea"
      ],
      [
        "Ɔ",
        "bɔɔ"
      ],
      [
        "l",
        "s"
      ],
      [
        "dɛ",
        "m"
      ],
      [
        "Nkwa",
        "daa"
      ],
      [
        "wo",
        "r"
      ],
      [
        "Ɔ",
        "hyɛ"
      ],
      [
        "ra",
        "dio"
      ],
      [
        "li",
        "st"
      ],
      [
        "nnya",
        "e"
      ],
      [
        "yɛbɛ",
        "hwɛ"
      ],
      [
        "woa",
        "hunu"
      ],
      [
        "abi",
        "en"
      ],
      [
        "a",
        "ce"
      ],
      [
        "a",
        "bɛka"
      ],
      [
        "aho",
        "ma"
      ],
      [
        "ce",
        "r"
      ],
      [
        "in",
        "ve"
      ],
      [
        "tw",
        "ene"
      ],
      [
        "b",
        "lic"
      ],
      [
        "Mmo",
        "fra"
      ],
      [
        "K",
        "we"
      ],
      [
        "o",
        "m"
      ],
      [
        "wɔbɛ",
        "boa"
      ],
      [
        "Le",
        "ague"
      ],
      [
        "n",
        "s"
      ],
      [
        "en",
        "s"
      ],
      [
        "ɔ",
        "nya"
      ],
      [
        "wɔ",
        "hyehyɛ"
      ],
      [
        "mfoni",
        "n"
      ],
      [
        "par",
        "ty"
      ],
      [
        "Wo",
        "ka"
      ],
      [
        "We",
        "b"
      ],
      [
        "ke",
        "y"
      ],
      [
        "F",
        "or"
      ],
      [
        "ɔ",
        "kaeɛ"
      ],
      [
        "kyerɛkyerɛ",
        "foɔ"
      ],
      [
        "pho",
        "ne"
      ],
      [
        "Ban",
        "k"
      ],
      [
        "wɔbɛ",
        "ka"
      ],
      [
        "Ghana",
        "Web"
      ],
      [
        "N",
        "A"
      ],
      [
        "ɛ",
        "twa"
      ],
      [
        "bɛ",
        "hwɛ"
      ],
      [
        "A",
        "mo"
      ],
      [
        "ne",
        "y"
      ],
      [
        "bɛ",
        "hu"
      ],
      [
        "wo",
        "anya"
      ],
      [
        "c",
        "lub"
      ],
      [
        "dw",
        "e"
      ],
      [
        "A",
        "go"
      ],
      [
        "ɛ",
        "hwehwɛ"
      ],
      [
        "wɔre",
        "kyerɛ"
      ],
      [
        "abɔ",
        "deɛ"
      ],
      [
        "c",
        "tion"
      ],
      [
        "di",
        "di"
      ],
      [
        "l",
        "ɔ"
      ],
      [
        "c",
        "ture"
      ],
      [
        "pe",
        "re"
      ],
      [
        "nkitaho",
        "die"
      ],
      [
        "a",
        "he"
      ],
      [
        "wɔ",
        "firi"
      ],
      [
        "we",
        "i"
      ],
      [
        "gyae",
        "e"
      ],
      [
        "ɛka",
        "me"
      ],
      [
        "l",
        "le"
      ],
      [
        "ma",
        "sk"
      ],
      [
        "a",
        "pɔ"
      ],
      [
        "A",
        "ble"
      ],
      [
        "te",
        "n"
      ],
      [
        "pra",
        "ma"
      ],
      [
        "Commi",
        "ssion"
      ],
      [
        "I",
        "I"
      ],
      [
        "k",
        "uraa"
      ],
      [
        "ti",
        "cal"
      ],
      [
        "ɛbɛ",
        "tena"
      ],
      [
        "f",
        "fi"
      ],
      [
        "mu",
        "sic"
      ],
      [
        "ci",
        "p"
      ],
      [
        "to",
        "p"
      ],
      [
        "Ser",
        "vice"
      ],
      [
        "Able",
        "kuma"
      ],
      [
        "wu",
        "i"
      ],
      [
        "ɔ",
        "bea"
      ],
      [
        "nnamfo",
        "nom"
      ],
      [
        "t",
        "ɛ"
      ],
      [
        "en",
        "yim"
      ],
      [
        "T",
        "he"
      ],
      [
        "a",
        "ku"
      ],
      [
        "Ɔ",
        "baako"
      ],
      [
        "dwuma",
        "di"
      ],
      [
        "mp",
        "ren"
      ],
      [
        "re",
        "d"
      ],
      [
        "hi",
        "m"
      ],
      [
        "at",
        "ɛn"
      ],
      [
        "e",
        "co"
      ],
      [
        "bɛ",
        "si"
      ],
      [
        "mmu",
        "ni"
      ],
      [
        "firi",
        "i"
      ],
      [
        "a",
        "ch"
      ],
      [
        "we",
        "e"
      ],
      [
        "ɛ",
        "nkyerɛ"
      ],
      [
        "agya",
        "pa"
      ],
      [
        "s",
        "sa"
      ],
      [
        "He",
        "alth"
      ],
      [
        "ɔpa",
        "tuo"
      ],
      [
        "tran",
        "s"
      ],
      [
        "afa",
        "hyɛ"
      ],
      [
        "baa",
        "sa"
      ],
      [
        "Wɔ",
        "re"
      ],
      [
        "wu",
        "betumi"
      ],
      [
        "raman",
        "i"
      ],
      [
        "ɛ",
        "dɛn"
      ],
      [
        "wɔ",
        "kɔɔ"
      ],
      [
        "di",
        "gital"
      ],
      [
        "agya",
        "e"
      ],
      [
        "rs",
        "hip"
      ],
      [
        "t",
        "tee"
      ],
      [
        "P",
        "re"
      ],
      [
        "ar",
        "d"
      ],
      [
        "ver",
        "si"
      ],
      [
        "de",
        "mo"
      ],
      [
        "aho",
        "fa"
      ],
      [
        "Ɛ",
        "nɛ"
      ],
      [
        "adwumayɛ",
        "bea"
      ],
      [
        "bɔɔlbɔ",
        "foɔ"
      ],
      [
        "yɛ",
        "eɛ"
      ],
      [
        "nko",
        "gu"
      ],
      [
        "ma",
        "te"
      ],
      [
        "i",
        "na"
      ],
      [
        "woa",
        "hwɛ"
      ],
      [
        "A",
        "g"
      ],
      [
        "wɔ",
        "ma"
      ],
      [
        "akoko",
        "ɔ"
      ],
      [
        "wɔ",
        "boa"
      ],
      [
        "2",
        "4"
      ],
      [
        "me",
        "tumi"
      ],
      [
        "ak",
        "uraa"
      ],
      [
        "akan",
        "si"
      ],
      [
        "Oman",
        "e"
      ],
      [
        "a",
        "sisi"
      ],
      [
        "ɛ",
        "sii"
      ],
      [
        "ɔ",
        "boa"
      ],
      [
        "wu",
        "iɛ"
      ],
      [
        "of",
        "fi"
      ],
      [
        "ɛ",
        "haw"
      ],
      [
        "in",
        "du"
      ],
      [
        "Y",
        "e"
      ],
      [
        "n",
        "wɔtwe"
      ],
      [
        "Me",
        "te"
      ],
      [
        "le",
        "ade"
      ],
      [
        "p",
        "ɛn"
      ],
      [
        "wo",
        "gyina"
      ],
      [
        "Y",
        "ɛre"
      ],
      [
        "1",
        "5"
      ],
      [
        "re",
        "fa"
      ],
      [
        "v",
        "al"
      ],
      [
        "Nti",
        "kuma"
      ],
      [
        "nsu",
        "nsu"
      ],
      [
        "wube",
        "hu"
      ],
      [
        "1",
        "0"
      ],
      [
        "ke",
        "r"
      ],
      [
        "abu",
        "bu"
      ],
      [
        "D",
        "ramani"
      ],
      [
        "se",
        "s"
      ],
      [
        "a",
        "tu"
      ],
      [
        "sukuu",
        "foɔ"
      ],
      [
        "st",
        "an"
      ],
      [
        "ka",
        "ma"
      ],
      [
        "F",
        "ran"
      ],
      [
        "S",
        "to"
      ],
      [
        "s",
        "ane"
      ],
      [
        "re",
        "pɛ"
      ],
      [
        "gye",
        "i"
      ],
      [
        "he",
        "alth"
      ],
      [
        "nkra",
        "bea"
      ],
      [
        "wo",
        "fa"
      ],
      [
        "a",
        "fuo"
      ],
      [
        "B",
        "ɔɔ"
      ],
      [
        "bɔ",
        "fra"
      ],
      [
        "wɔbɛ",
        "nya"
      ],
      [
        "he",
        "l"
      ],
      [
        "nsunsu",
        "an"
      ],
      [
        "Sta",
        "dium"
      ],
      [
        "P",
        "ri"
      ],
      [
        "nya",
        "me"
      ],
      [
        "Uni",
        "ted"
      ],
      [
        "S",
        "ar"
      ],
      [
        "t",
        "ri"
      ],
      [
        "ɔre",
        "bɔ"
      ],
      [
        "abo",
        "bɔ"
      ],
      [
        "wɔn",
        "ya"
      ],
      [
        "202",
        "3"
      ],
      [
        "Kuma",
        "si"
      ],
      [
        "ɔ",
        "san"
      ],
      [
        "wɔ",
        "an"
      ],
      [
        "m",
        "fe"
      ],
      [
        "soci",
        "ation"
      ],
      [
        "mfimfi",
        "ni"
      ],
      [
        "ar",
        "ti"
      ],
      [
        "stra",
        "te"
      ],
      [
        "Ɛ",
        "dɛn"
      ],
      [
        "O",
        "fo"
      ],
      [
        "yɛbɛ",
        "bɔ"
      ],
      [
        "nkuran",
        "hyɛ"
      ],
      [
        "Ɔpa",
        "tuo"
      ],
      [
        "an",
        "wu"
      ],
      [
        "pe",
        "m"
      ],
      [
        "K",
        "ing"
      ],
      [
        "te",
        "bea"
      ],
      [
        "mo",
        "n"
      ],
      [
        "st",
        "ri"
      ],
      [
        "T",
        "a"
      ],
      [
        "o",
        "d"
      ],
      [
        "ɛbɛ",
        "yɛɛ"
      ],
      [
        "v",
        "acci"
      ],
      [
        "wɔre",
        "hyɛ"
      ],
      [
        "CO",
        "N"
      ],
      [
        "A",
        "bu"
      ],
      [
        "Co",
        "urt"
      ],
      [
        "no",
        "se"
      ],
      [
        "ar",
        "ts"
      ],
      [
        "pe",
        "fee"
      ],
      [
        "A",
        "me"
      ],
      [
        "bi",
        "a"
      ],
      [
        "ne",
        "s"
      ],
      [
        "be",
        "ebi"
      ],
      [
        "nteɛ",
        "teɛ"
      ],
      [
        "A",
        "h"
      ],
      [
        "i",
        "g"
      ],
      [
        "nta",
        "deɛ"
      ],
      [
        "akasa",
        "kasa"
      ],
      [
        "Q",
        "ue"
      ],
      [
        "na",
        "tion"
      ],
      [
        "ago",
        "prama"
      ],
      [
        "at",
        "werɛ"
      ],
      [
        "at",
        "we"
      ],
      [
        "ɔbɛ",
        "ba"
      ],
      [
        "nt",
        "ɔ"
      ],
      [
        "Y",
        "o"
      ],
      [
        "sec",
        "tor"
      ],
      [
        "syste",
        "m"
      ],
      [
        "wɔ",
        "nim"
      ],
      [
        "ni",
        "fa"
      ],
      [
        "akwantu",
        "foɔ"
      ],
      [
        "Par",
        "tey"
      ],
      [
        "ɛ",
        "hwɛ"
      ],
      [
        "AF",
        "CON"
      ],
      [
        "dis",
        "cip"
      ],
      [
        "me",
        "de"
      ],
      [
        "me",
        "teɛ"
      ],
      [
        "awa",
        "reɛ"
      ],
      [
        "Nya",
        "me"
      ],
      [
        "si",
        "n"
      ],
      [
        "yɛ",
        "gyae"
      ],
      [
        "E",
        "x"
      ],
      [
        "ɔso",
        "m"
      ],
      [
        "F",
        "M"
      ],
      [
        "me",
        "r"
      ],
      [
        "bu",
        "o"
      ],
      [
        "Ba",
        "rima"
      ],
      [
        "un",
        "d"
      ],
      [
        "A",
        "C"
      ],
      [
        "p",
        "l"
      ],
      [
        "yɛ",
        "sesa"
      ],
      [
        "tsi",
        "r"
      ],
      [
        "A",
        "gra"
      ],
      [
        "t",
        "ru"
      ],
      [
        "nnu",
        "ane"
      ],
      [
        "Gol",
        "f"
      ],
      [
        "u",
        "ni"
      ],
      [
        "ɛmfa",
        "ta"
      ],
      [
        "mpan",
        "yi"
      ],
      [
        "nk",
        "ron"
      ],
      [
        "Ko",
        "r"
      ],
      [
        "ame",
        "s"
      ],
      [
        "ananmu",
        "sini"
      ],
      [
        "O",
        "wu"
      ],
      [
        "me",
        "yɛ"
      ],
      [
        "me",
        "tee"
      ],
      [
        "Y",
        "ɛnyɛ"
      ],
      [
        "nkɔmmɔ",
        "die"
      ],
      [
        "A",
        "kan"
      ],
      [
        "yɛ",
        "werɛ"
      ],
      [
        "fo",
        "ro"
      ],
      [
        "su",
        "p"
      ],
      [
        "b",
        "ro"
      ],
      [
        "si",
        "ness"
      ],
      [
        "mp",
        "on"
      ],
      [
        "wɔn",
        "nyɛ"
      ],
      [
        "Afe",
        "i"
      ],
      [
        "c",
        "ri"
      ],
      [
        "asraa",
        "fo"
      ],
      [
        "A",
        "p"
      ],
      [
        "yɛ",
        "nam"
      ],
      [
        "mi",
        "ni"
      ],
      [
        "me",
        "hunu"
      ],
      [
        "an",
        "nye"
      ],
      [
        "gu",
        "u"
      ],
      [
        "Agra",
        "daa"
      ],
      [
        "kɔ",
        "e"
      ],
      [
        "indu",
        "stry"
      ],
      [
        "u",
        "s"
      ],
      [
        "ly",
        "mpi"
      ],
      [
        "l",
        "ar"
      ],
      [
        "ru",
        "s"
      ],
      [
        "nse",
        "m"
      ],
      [
        "As",
        "sociation"
      ],
      [
        "yɛ",
        "tie"
      ],
      [
        "nk",
        "an"
      ],
      [
        "Mm",
        "ranteɛ"
      ],
      [
        "ɛ",
        "po"
      ],
      [
        "age",
        "ment"
      ],
      [
        "ɔre",
        "kasa"
      ],
      [
        "anigye",
        "sɛm"
      ],
      [
        "yɛ",
        "sakra"
      ],
      [
        "1",
        "8"
      ],
      [
        "dw",
        "ane"
      ],
      [
        "Ɔ",
        "panyin"
      ],
      [
        "C",
        "en"
      ],
      [
        "ri",
        "ng"
      ],
      [
        "akye",
        "kyere"
      ],
      [
        "K",
        "aa"
      ],
      [
        "wɔ",
        "gye"
      ],
      [
        "abi",
        "bi"
      ],
      [
        "we",
        "a"
      ],
      [
        "versi",
        "ty"
      ],
      [
        "re",
        "nyɛ"
      ],
      [
        "Me",
        "ma"
      ],
      [
        "ne",
        "t"
      ],
      [
        "Ɔman",
        "panin"
      ],
      [
        "EO",
        "CO"
      ],
      [
        "Cha",
        "mpions"
      ],
      [
        "ren",
        "tumi"
      ],
      [
        "sia",
        "fo"
      ],
      [
        "Gol",
        "d"
      ],
      [
        "cho",
        "ol"
      ],
      [
        "adw",
        "e"
      ],
      [
        "apa",
        "gya"
      ],
      [
        "G",
        "e"
      ],
      [
        "z",
        "i"
      ],
      [
        "nwo",
        "ma"
      ],
      [
        "pene",
        "e"
      ],
      [
        "discip",
        "line"
      ],
      [
        "se",
        "sei"
      ],
      [
        "ti",
        "tire"
      ],
      [
        "agumadi",
        "foɔ"
      ],
      [
        "D",
        "aa"
      ],
      [
        "he",
        "a"
      ],
      [
        "d",
        "ri"
      ],
      [
        "de",
        "nne"
      ],
      [
        "ɛbɛ",
        "ka"
      ],
      [
        "nno",
        "maa"
      ],
      [
        "Owu",
        "su"
      ],
      [
        "ɔ",
        "panin"
      ],
      [
        "er",
        "s"
      ],
      [
        "wo",
        "nni"
      ],
      [
        "sa",
        "w"
      ],
      [
        "fɔ",
        "m"
      ],
      [
        "Regi",
        "on"
      ],
      [
        "ti",
        "aa"
      ],
      [
        "elec",
        "tion"
      ],
      [
        "bo",
        "rɔ"
      ],
      [
        "akyerɛ",
        "kyerɛ"
      ],
      [
        "abe",
        "ranteɛ"
      ],
      [
        "C",
        "h"
      ],
      [
        "H",
        "a"
      ],
      [
        "ba",
        "anu"
      ],
      [
        "a",
        "kura"
      ],
      [
        "ɛ",
        "sen"
      ],
      [
        "ad",
        "ɔ"
      ],
      [
        "ci",
        "l"
      ],
      [
        "Pro",
        "f"
      ],
      [
        "nkuro",
        "w"
      ],
      [
        "ka",
        "ta"
      ],
      [
        "mu",
        "el"
      ],
      [
        "le",
        "y"
      ],
      [
        "Sa",
        "muel"
      ],
      [
        "box",
        "ing"
      ],
      [
        "stru",
        "cture"
      ],
      [
        "b",
        "re"
      ],
      [
        "re",
        "twɛn"
      ],
      [
        "Afri",
        "can"
      ],
      [
        "wo",
        "gyae"
      ],
      [
        "ba",
        "s"
      ],
      [
        "mi",
        "hunu"
      ],
      [
        "mehu",
        "u"
      ],
      [
        "wobɛ",
        "hu"
      ],
      [
        "k",
        "ente"
      ],
      [
        "Ɛ",
        "tɔ"
      ],
      [
        "Wo",
        "te"
      ],
      [
        "d",
        "on"
      ],
      [
        "Ɛ",
        "hyɛn"
      ],
      [
        "ɔ",
        "pɔnkɔ"
      ],
      [
        "da",
        "m"
      ],
      [
        "wo",
        "hwɛ"
      ],
      [
        "i",
        "t"
      ],
      [
        "ba",
        "l"
      ],
      [
        "aman",
        "n"
      ],
      [
        "kyi",
        "re"
      ],
      [
        "da",
        "w"
      ],
      [
        "dɔ",
        "n"
      ],
      [
        "n",
        "ment"
      ],
      [
        "yi",
        "ni"
      ],
      [
        "le",
        "gal"
      ],
      [
        "G",
        "al"
      ],
      [
        "ne",
        "st"
      ],
      [
        "aba",
        "so"
      ],
      [
        "ki",
        "ng"
      ],
      [
        "woa",
        "hu"
      ],
      [
        "1",
        "1"
      ],
      [
        "O",
        "sei"
      ],
      [
        "ɔ",
        "kyerɛɛ"
      ],
      [
        "nan",
        "ce"
      ],
      [
        "ak",
        "yɛ"
      ],
      [
        "lia",
        "ment"
      ],
      [
        "akwan",
        "nya"
      ],
      [
        "f",
        "l"
      ],
      [
        "mpre",
        "mpren"
      ],
      [
        "H",
        "I"
      ],
      [
        "se",
        "m"
      ],
      [
        "fra",
        "ma"
      ],
      [
        "ɔ",
        "yareɛ"
      ],
      [
        "nkwa",
        "se"
      ],
      [
        "Te",
        "ma"
      ],
      [
        "n",
        "da"
      ],
      [
        "bɛ",
        "te"
      ],
      [
        "wor",
        "k"
      ],
      [
        "ɛ",
        "keka"
      ],
      [
        "re",
        "tu"
      ],
      [
        "kye",
        "kyere"
      ],
      [
        "bota",
        "e"
      ],
      [
        "ɔfa",
        "ta"
      ],
      [
        "lympi",
        "c"
      ],
      [
        "nsa",
        "mu"
      ],
      [
        "aho",
        "to"
      ],
      [
        "a",
        "mu"
      ],
      [
        "tɔ",
        "ɔ"
      ],
      [
        "Abe",
        "na"
      ],
      [
        "Mmo",
        "a"
      ],
      [
        "wɔbɛ",
        "hwɛ"
      ],
      [
        "p",
        "ment"
      ],
      [
        "ar",
        "y"
      ],
      [
        "fɛ",
        "w"
      ],
      [
        "go",
        "al"
      ],
      [
        "awerɛ",
        "hɔ"
      ],
      [
        "a",
        "dom"
      ],
      [
        "yɛ",
        "ayɛ"
      ],
      [
        "an",
        "tumi"
      ],
      [
        "twi",
        "twa"
      ],
      [
        "C",
        "a"
      ],
      [
        "mu",
        "den"
      ],
      [
        "M",
        "mienu"
      ],
      [
        "nkur",
        "aa"
      ],
      [
        "rd",
        "s"
      ],
      [
        "n",
        "hwiren"
      ],
      [
        "se",
        "nea"
      ],
      [
        "fi",
        "die"
      ],
      [
        "Que",
        "ens"
      ],
      [
        "Ɔ",
        "wɔ"
      ],
      [
        "mfiri",
        "dwuma"
      ],
      [
        "nsunsuan",
        "soɔ"
      ],
      [
        "t",
        "t"
      ],
      [
        "yɛbɛ",
        "tena"
      ],
      [
        "pu",
        "blic"
      ],
      [
        "ta",
        "pho"
      ],
      [
        "Wo",
        "yɛ"
      ],
      [
        "wo",
        "bɛyɛ"
      ],
      [
        "Ab",
        "ranteɛ"
      ],
      [
        "poli",
        "ce"
      ],
      [
        "A",
        "kwan"
      ],
      [
        "t",
        "hi"
      ],
      [
        "te",
        "ch"
      ],
      [
        "abo",
        "rɔfo"
      ],
      [
        "ɛte",
        "te"
      ],
      [
        "He",
        "arts"
      ],
      [
        "High",
        "life"
      ],
      [
        "be",
        "nkum"
      ],
      [
        "Wɔ",
        "yɛ"
      ],
      [
        "bu",
        "u"
      ],
      [
        "adi",
        "di"
      ],
      [
        "ve",
        "lo"
      ],
      [
        "G",
        "a"
      ],
      [
        "ve",
        "s"
      ],
      [
        "kyerɛw",
        "foɔ"
      ],
      [
        "f",
        "an"
      ],
      [
        "l",
        "and"
      ],
      [
        "ɔ",
        "gye"
      ],
      [
        "f",
        "ã"
      ],
      [
        "yɛ",
        "mmɔ"
      ],
      [
        "so",
        "no"
      ],
      [
        "nso",
        "ro"
      ],
      [
        "gyina",
        "eɛ"
      ],
      [
        "ako",
        "di"
      ],
      [
        "enne",
        "n"
      ],
      [
        "llo",
        "w"
      ],
      [
        "denne",
        "ennen"
      ],
      [
        "ɔ",
        "baako"
      ],
      [
        "akwa",
        "daa"
      ],
      [
        "akokoɔ",
        "duro"
      ],
      [
        "e",
        "twa"
      ],
      [
        "yɛbɛ",
        "boa"
      ],
      [
        "sra",
        "hwɛ"
      ],
      [
        "Ɛ",
        "he"
      ],
      [
        "nkura",
        "se"
      ],
      [
        "g",
        "lo"
      ],
      [
        "wɔn",
        "hwɛ"
      ],
      [
        "c",
        "ent"
      ],
      [
        "bɛ",
        "gye"
      ],
      [
        "wɔ",
        "kyeree"
      ],
      [
        "M",
        "po"
      ],
      [
        "kyi",
        "nkyin"
      ],
      [
        "B",
        "ro"
      ],
      [
        "Uni",
        "versity"
      ],
      [
        "po",
        "int"
      ],
      [
        "Yɛ",
        "pɛ"
      ],
      [
        "agyapa",
        "deɛ"
      ],
      [
        "n",
        "wi"
      ],
      [
        "ab",
        "uro"
      ],
      [
        "a",
        "hunu"
      ],
      [
        "kye",
        "kye"
      ],
      [
        "nka",
        "teɛ"
      ],
      [
        "Al",
        "ha"
      ],
      [
        "Sto",
        "ne"
      ],
      [
        "I",
        "nter"
      ],
      [
        "K",
        "en"
      ],
      [
        "ku",
        "nu"
      ],
      [
        "kyerɛkyerɛ",
        "ni"
      ],
      [
        "c",
        "to"
      ],
      [
        "m",
        "be"
      ],
      [
        "so",
        "a"
      ],
      [
        "ce",
        "ss"
      ],
      [
        "S",
        "how"
      ],
      [
        "T",
        "ra"
      ],
      [
        "k",
        "ɛntɛn"
      ],
      [
        "ri",
        "es"
      ],
      [
        "Di",
        "re"
      ],
      [
        "ahaban",
        "mono"
      ],
      [
        "Ɛ",
        "nnyɛ"
      ],
      [
        "nn",
        "ɔ"
      ],
      [
        "wa",
        "ka"
      ],
      [
        "he",
        "r"
      ],
      [
        "Ɔso",
        "afoɔ"
      ],
      [
        "K",
        "e"
      ],
      [
        "l",
        "la"
      ],
      [
        "nsoro",
        "mma"
      ],
      [
        "ɔ",
        "ba"
      ],
      [
        "r",
        "gy"
      ],
      [
        "s",
        "ur"
      ],
      [
        "Ɔman",
        "foɔ"
      ],
      [
        "B",
        "aw"
      ],
      [
        "bɛ",
        "hunu"
      ],
      [
        "vi",
        "e"
      ],
      [
        "ɛde",
        "ɛn"
      ],
      [
        "ch",
        "an"
      ],
      [
        "3",
        "0"
      ],
      [
        "dwuma",
        "dibea"
      ],
      [
        "Baw",
        "ku"
      ],
      [
        "y",
        "ansa"
      ],
      [
        "un",
        "cil"
      ],
      [
        "Be",
        "rɛ"
      ],
      [
        "ket",
        "ball"
      ],
      [
        "1",
        "6"
      ],
      [
        "B",
        "ar"
      ],
      [
        "K",
        "enne"
      ],
      [
        "wɔ",
        "adi"
      ],
      [
        "dɔ",
        "teɛ"
      ],
      [
        "Ɛ",
        "kɔɔ"
      ],
      [
        "fi",
        "ni"
      ],
      [
        "go",
        "ver"
      ],
      [
        "1",
        "4"
      ],
      [
        "F",
        "I"
      ],
      [
        "W",
        "on"
      ],
      [
        "nta",
        "ban"
      ],
      [
        "fa",
        "ta"
      ],
      [
        "adu",
        "an"
      ],
      [
        "co",
        "mp"
      ],
      [
        "i",
        "ne"
      ],
      [
        "yɛ",
        "dwen"
      ],
      [
        "ba",
        "g"
      ],
      [
        "o",
        "p"
      ],
      [
        "Aman",
        "foɔ"
      ],
      [
        "Adwuma",
        "yɛfoɔ"
      ],
      [
        "lɔ",
        "ɔre"
      ],
      [
        "Ɔ",
        "twe"
      ],
      [
        "adw",
        "i"
      ],
      [
        "wo",
        "y"
      ],
      [
        "nte",
        "tee"
      ],
      [
        "uro",
        "ni"
      ],
      [
        "dɛ",
        "w"
      ],
      [
        "b",
        "woy"
      ],
      [
        "o",
        "be"
      ],
      [
        "nk",
        "yi"
      ],
      [
        "Me",
        "hwɛ"
      ],
      [
        "ɛte",
        "ne"
      ],
      [
        "Stone",
        "bwoy"
      ],
      [
        "'",
        ","
      ],
      [
        "wɔ",
        "tɔn"
      ],
      [
        "Nko",
        "nnwa"
      ],
      [
        "t",
        "ter"
      ],
      [
        "ɔ",
        "kura"
      ],
      [
        "wo",
        "tie"
      ],
      [
        "Y",
        "ɛbɛ"
      ],
      [
        "w",
        "he"
      ],
      [
        "N",
        "yi"
      ],
      [
        "nte",
        "ase"
      ],
      [
        "ako",
        "deɛ"
      ],
      [
        "u",
        "l"
      ],
      [
        "ne",
        "nam"
      ],
      [
        "me",
        "kyerɛ"
      ],
      [
        "1",
        "2"
      ],
      [
        "me",
        "re"
      ],
      [
        "tra",
        "l"
      ],
      [
        "nteɛ",
        "so"
      ],
      [
        "ati",
        "fi"
      ],
      [
        "I",
        "bra"
      ],
      [
        "ɛ",
        "hyɛɛ"
      ],
      [
        "ɛ",
        "boro"
      ],
      [
        "de",
        "ɛn"
      ],
      [
        "B",
        "ri"
      ],
      [
        "C",
        "lub"
      ],
      [
        "frɛ",
        "ɛ"
      ],
      [
        "a",
        "san"
      ],
      [
        "m",
        "ɛ"
      ],
      [
        "A",
        "baayewa"
      ],
      [
        "wɔa",
        "tumi"
      ],
      [
        "nsɛ",
        "n"
      ],
      [
        "bu",
        "ae"
      ],
      [
        "bu",
        "siness"
      ],
      [
        "fe",
        "ssi"
      ],
      [
        "wɔa",
        "yi"
      ],
      [
        "gh",
        "ts"
      ],
      [
        "nkete",
        "wa"
      ],
      [
        "cu",
        "l"
      ],
      [
        "an",
        "wea"
      ],
      [
        "nho",
        "ma"
      ],
      [
        "f",
        "f"
      ],
      [
        "Ɔ",
        "yɛɛ"
      ],
      [
        "wɔ",
        "hyɛɛ"
      ],
      [
        "Mo",
        "ro"
      ],
      [
        "esi",
        "ane"
      ],
      [
        "si",
        "fo"
      ],
      [
        "P",
        "ra"
      ],
      [
        "ren",
        "yin"
      ],
      [
        "wɔ",
        "se"
      ],
      [
        "me",
        "da"
      ],
      [
        "ate",
        "te"
      ],
      [
        "wobɛ",
        "hwɛ"
      ],
      [
        "mmabaa",
        "wa"
      ],
      [
        "r",
        "g"
      ],
      [
        "Ɔ",
        "ne"
      ],
      [
        "v",
        "en"
      ],
      [
        "row",
        "n"
      ],
      [
        "A",
        "de"
      ],
      [
        "yɛbɛ",
        "hunu"
      ],
      [
        "bere",
        "e"
      ],
      [
        "A",
        "deɛ"
      ],
      [
        "n",
        "srahwɛ"
      ],
      [
        "ɛ",
        "fo"
      ],
      [
        "to",
        "ral"
      ],
      [
        "Par",
        "liament"
      ],
      [
        "wa",
        "re"
      ],
      [
        "ha",
        "m"
      ],
      [
        "akyiri",
        "kyiri"
      ],
      [
        "Agya",
        "pong"
      ],
      [
        "kɔ",
        "m"
      ],
      [
        "wo",
        "tena"
      ],
      [
        "H",
        "ɔn"
      ],
      [
        "an",
        "nya"
      ],
      [
        "no",
        "lo"
      ],
      [
        "wɔ",
        "ro"
      ],
      [
        "C",
        "i"
      ],
      [
        "no",
        "o"
      ],
      [
        "so",
        "deɛ"
      ],
      [
        "ren",
        "ce"
      ],
      [
        "K",
        "ye"
      ],
      [
        "gre",
        "en"
      ],
      [
        "c",
        "key"
      ],
      [
        "to",
        "to"
      ],
      [
        "ata",
        "re"
      ],
      [
        "aka",
        "tua"
      ],
      [
        "co",
        "r"
      ],
      [
        "T",
        "u"
      ],
      [
        "W",
        "A"
      ],
      [
        "Aba",
        "baawa"
      ],
      [
        "ɔ",
        "kan"
      ],
      [
        "bibi",
        "re"
      ],
      [
        "Yo",
        "o"
      ],
      [
        "o",
        "ne"
      ],
      [
        "pi",
        "ra"
      ],
      [
        "spi",
        "tal"
      ],
      [
        "velo",
        "pment"
      ],
      [
        "O",
        "po"
      ],
      [
        "p",
        "ta"
      ],
      [
        "bɔ",
        "deɛ"
      ],
      [
        "du",
        "cation"
      ],
      [
        "E",
        "fi"
      ],
      [
        "na",
        "a"
      ],
      [
        "ye",
        "llow"
      ],
      [
        "nom",
        "y"
      ],
      [
        "Co",
        "uncil"
      ],
      [
        "v",
        "ate"
      ],
      [
        "gye",
        "die"
      ],
      [
        "co",
        "mmi"
      ],
      [
        "poli",
        "cy"
      ],
      [
        "ntaa",
[...]
