{
  "version": "1.0",
  "truncation": null,
  "padding": null,
  "added_tokens": [
    {
      "id": 0,
      "content": "[PAD]",
      "single_word": false,
      "lstrip": false,
      "rstrip": false,
      "normalized": false,
      "special": true
    },
    {
      "id": 1,
      "content": "[UNK]",
      "single_word": false,
      "lstrip": false,
      "rstrip": false,
      "normalized": false,
      "special": true
    },
    {
      "id": 2,
      "content": "[CLS]",
      "single_word": false,
      "lstrip": false,
      "rstrip": false,
      "normalized": false,
      "special": true
    },
    {
      "id": 3,
      "content": "[SEP]",
      "single_word": false,
      "lstrip": false,
      "rstrip": false,
      "normalized": false,
      "special": true
    },
    {
      "id": 4,
      "content": "[MASK]",
      "single_word": false,
      "lstrip": false,
      "rstrip": false,
      "normalized": false,
      "special": true
    },
    {
      "id": 5,
      "content": "<s>",
      "single_word": false,
      "lstrip": false,
      "rstrip": false,
      "normalized": false,
      "special": true
    },
    {
      "id": 6,
      "content": "</s>",
      "single_word": false,
      "lstrip": false,
      "rstrip": false,
      "normalized": false,
      "special": true
    },
    {
      "id": 7,
      "content": "<pad>",
      "single_word": false,
      "lstrip": false,
      "rstrip": false,
      "normalized": false,
      "special": true
    }
  ],
  "normalizer": null,
  "pre_tokenizer": {
    "type": "Whitespace"
  },
  "post_processor": null,
  "decoder": null,
  "model": {
    "type": "BPE",
    "dropout": null,
    "unk_token": "[UNK]",
    "continuing_subword_prefix": null,
    "end_of_word_suffix": null,
    "fuse_unk": false,
    "byte_fallback": false,
    "ignore_merges": false,
    "vocab": {
      "[PAD]": 0,
      "[UNK]": 1,
      "[CLS]": 2,
      "[SEP]": 3,
      "[MASK]": 4,
      "<s>": 5,
      "</s>": 6,
      "<pad>": 7,
      "!": 8,
      "\"": 9,
      "'": 10,
      ")": 11,
      ",": 12,
      "-": 13,
      ".": 14,
      "0": 15,
      "1": 16,
      "3": 17,
      "6": 18,
      "8": 19,
      "9": 20,
      ":": 21,
      ";": 22,
      "=": 23,
      "A": 24,
      "B": 25,
      "C": 26,
      "D": 27,
      "E": 28,
      "F": 29,
      "G": 30,
      "H": 31,
      "I": 32,
      "J": 33,
      "K": 34,
      "L": 35,
      "M": 36,
      "N": 37,
      "O": 38,
      "P": 39,
      "Q": 40,
      "R": 41,
      "S": 42,
      "T": 43,
      "U": 44,
      "V": 45,
      "W": 46,
      "X": 47,
      "Y": 48,
      "Z": 49,
      "\\": 50,
      "a": 51,
      "b": 52,
      "c": 53,
      "d": 54,
      "e": 55,
      "f": 56,
      "g": 57,
      "h": 58,
      "i": 59,
      "j": 60,
      "k": 61,
      "l": 62,
      "m": 63,
      "n": 64,
      "o": 65,
      "p": 66,
      "q": 67,
      "r": 68,
      "s": 69,
      "t": 70,
      "u": 71,
      "v": 72,
      "w": 73,
      "x": 74,
      "y": 75,
      "z": 76,
      "Ɔ": 77,
      "Ɛ": 78,
      "ƒ": 79,
      "ɔ": 80,
      "ɛ": 81,
      "ʋ": 82,
      "’": 83,
      "…": 84,
      "ℇ": 85,
      "Ↄ": 86,
      "wɔ": 87,
      "yɛ": 88,
      "na": 89,
      "no": 90,
      "bi": 91,
      "yi": 92,
      "so": 93,
      "aa": 94,
      "an": 95,
      "re": 96,
      "ne": 97,
      "si": 98,
      "de": 99,
      "te": 100,
      "ma": 101,
      "ko": 102,
      "mu": 103,
      "hɔ": 104,
      "hyɛ": 105,
      "nso": 106,
      "yina": 107,
      "wɔn": 108,
      "wa": 109,
      "ak": 110,
      "fo": 111,
      "baa": 112,
      "at": 113,
      "ho": 114,
      "gyina": 115,
      "kɔ": 116,
      "ra": 117,
      "pa": 118,
      "ni": 119,
      "be": 120,
      "ye": 121,
      "sa": 122,
      "se": 123,
      "tu": 124,
      "mm": 125,
      "ab": 126,
      "ku": 127,
      "fi": 128,
      "deɛ": 129,
      "baako": 130,
      "en": 131,
      "ro": 132,
      "kyɛ": 133,
      "ah": 134,
      "ri": 135,
      "foɔ": 136,
      "su": 137,
      "ta": 138,
      "dan": 139,
      "Wɔ": 140,
      "ani": 141,
      "bɔ": 142,
      "gu": 143,
      "nsa": 144,
      "do": 145,
      "akyi": 146,
      "to": 147,
      "hw": 148,
      "rɔ": 149,
      "di": 150,
      "dz": 151,
      "ba": 152,
      "Na": 153,
      "fu": 154,
      "po": 155,
      "nom": 156,
      "am": 157,
      "nipa": 158,
      "Mm": 159,
      "sisi": 160,
      "wɔre": 161,
      "taa": 162,
      "bo": 163,
      "we": 164,
      "ree": 165,
      "ata": 166,
      "ebi": 167,
      "nn": 168,
      "aho": 169,
      "anim": 170,
      "rɛ": 171,
      "ran": 172,
      "mmi": 173,
      "ua": 174,
      "kyɛn": 175,
      "tum": 176,
      "bree": 177,
      "suo": 178,
      "nyina": 179,
      "da": 180,
      "bebree": 181,
      "rima": 182,
      "hwɛ": 183,
      "ti": 184,
      "enu": 185,
      "tun": 186,
      "ataa": 187,
      "nyinaa": 188,
      "ɛn": 189,
      "yia": 190,
      "ɔre": 191,
      "tuntum": 192,
      "kɔɔ": 193,
      "dze": 194,
      "ki": 195,
      "fitaa": 196,
      "nkyɛn": 197,
      "fra": 198,
      "teɛ": 199,
      "ka": 200,
      "mo": 201,
      "wo": 202,
      "kɔkɔɔ": 203,
      "wu": 204,
      "ranteɛ": 205,
      "yehyɛ": 206,
      "mmienu": 207,
      "Nnipa": 208,
      "me": 209,
      "ɛna": 210,
      "kye": 211,
      "ako": 212,
      "ya": 213,
      "ad": 214,
      "eɛ": 215,
      "wan": 216,
      "Wɔn": 217,
      "kita": 218,
      "ɔn": 219,
      "ɛwɔ": 220,
      "mma": 221,
      "fam": 222,
      "ha": 223,
      "bea": 224,
      "ahyia": 225,
      "hɔn": 226,
      "pono": 227,
      "Ebi": 228,
      "nam": 229,
      "aame": 230,
      "ten": 231,
      "soro": 232,
      "adeɛ": 233,
      "neɛ": 234,
      "kwan": 235,
      "ase": 236,
      "wɔde": 237,
      "hyɛn": 238,
      "ɛyɛ": 239,
      "ɛse": 240,
      "doɔ": 241,
      "as": 242,
      "ɔhyɛ": 243,
      "ke": 244,
      "nnwa": 245,
      "esi": 246,
      "kyi": 247,
      "abɔ": 248,
      "nan": 249,
      "rɔfo": 250,
      "ɛre": 251,
      "ɛɛ": 252,
      "wuma": 253,
      "wi": 254,
      "ane": 255,
      "fa": 256,
      "hyehyɛ": 257,
      "abo": 258,
      "tete": 259,
      "atwa": 260,
      "neɛma": 261,
      "le": 262,
      "rɔfoɔ": 263,
      "fufu": 264,
      "kyerɛ": 265,
      "dua": 266,
      "aako": 267,
      "ahosuo": 268,
      "twe": 269,
      "gya": 270,
      "ano": 271,
      "mfi": 272,
      "mpa": 273,
      "nto": 274,
      "apa": 275,
      "nk": 276,
      "aka": 277,
      "nsuo": 278,
      "pi": 279,
      "ɔm": 280,
      "aku": 281,
      "bu": 282,
      "Maame": 283,
      "daa": 284,
      "Mma": 285,
      "Baako": 286,
      "twa": 287,
      "kaa": 288,
      "Mmaa": 289,
      "ara": 290,
      "mmaa": 291,
      "binom": 292,
      "sɛ": 293,
      "ayɛ": 294,
      "nneɛma": 295,
      "tse": 296,
      "ataade": 297,
      "aba": 298,
      "du": 299,
      "gyinagyina": 300,
      "ban": 301,
      "mmarima": 302,
      "kɛse": 303,
      "ar": 304,
      "wadaa": 305,
      "yin": 306,
      "kura": 307,
      "ntoma": 308,
      "lo": 309,
      "ɔfra": 310,
      "yewa": 311,
      "ag": 312,
      "ɔde": 313,
      "Nku": 314,
      "ato": 315,
      "die": 316,
      "kor": 317,
      "sra": 318,
      "nnipa": 319,
      "akokɔ": 320,
      "nko": 321,
      "ahyehyɛ": 322,
      "san": 323,
      "aban": 324,
      "asi": 325,
      "Nk": 326,
      "beaeɛ": 327,
      "ap": 328,
      "ahyɛ": 329,
      "ekyi": 330,
      "dzi": 331,
      "mp": 332,
      "nku": 333,
      "ɔyɛ": 334,
      "ahodoɔ": 335,
      "fɛ": 336,
      "mfo": 337,
      "tɔ": 338,
      "eranteɛ": 339,
      "adwuma": 340,
      "kɛseɛ": 341,
      "agu": 342,
      "wura": 343,
      "kɔn": 344,
      "fufuo": 345,
      "nu": 346,
      "ru": 347,
      "wɔdze": 348,
      "akye": 349,
      "ɛbi": 350,
      "akonnwa": 351,
      "sradeɛ": 352,
      "li": 353,
      "nin": 354,
      "Bi": 355,
      "ɛne": 356,
      "baawa": 357,
      "Mmarima": 358,
      "ade": 359,
      "ɛdan": 360,
      "ekyir": 361,
      "nta": 362,
      "beranteɛ": 363,
      "hyia": 364,
      "Papa": 365,
      "ea": 366,
      "afi": 367,
      "tɔn": 368,
      "tenten": 369,
      "kete": 370,
      "Ɔbaa": 371,
      "barima": 372,
      "dwa": 373,
      "bl": 374,
      "tena": 375,
      "ama": 376,
      "paku": 377,
      "ue": 378,
      "kuta": 379,
      "mi": 380,
      "asa": 381,
      "ɔmo": 382,
      "nua": 383,
      "maame": 384,
      "dɔm": 385,
      "atadeɛ": 386,
      "ɛhyɛ": 387,
      "ahwe": 388,
      "nsam": 389,
      "bibi": 390,
      "ɛnsa": 391,
      "ahaban": 392,
      "nnua": 393,
      "dɛ": 394,
      "sɛn": 395,
      "ataadeɛ": 396,
      "ɛkyɛ": 397,
      "kasa": 398,
      "pii": 399,
      "Abo": 400,
      "akɔ": 401,
      "baabi": 402,
      "egyina": 403,
      "sia": 404,
      "Nkurɔfoɔ": 405,
      "mono": 406,
      "pakuo": 407,
      "dwuma": 408,
      "nyi": 409,
      "ɛte": 410,
      "ɛnna": 411,
      "pe": 412,
      "ren": 413,
      "aso": 414,
      "sere": 415,
      "atade": 416,
      "Nko": 417,
      "ntaa": 418,
      "hɔnom": 419,
      "mmiɛnsa": 420,
      "adze": 421,
      "boa": 422,
      "atar": 423,
      "ɔbaa": 424,
      "wɔhyɛ": 425,
      "hwi": 426,
      "papa": 427,
      "mba": 428,
      "akyire": 429,
      "rehwɛ": 430,
      "bobɔ": 431,
      "anea": 432,
      "able": 433,
      "enyi": 434,
      "obi": 435,
      "ago": 436,
      "he": 437,
      "ahwehwɛ": 438,
      "adu": 439,
      "asɔ": 440,
      "Mmɔfra": 441,
      "Mmeranteɛ": 442,
      "wom": 443,
      "ɔte": 444,
      "row": 445,
      "sua": 446,
      "duku": 447,
      "Ebinom": 448,
      "man": 449,
      "wɔrehwɛ": 450,
      "Ab": 451,
      "hwe": 452,
      "em": 453,
      "kuo": 454,
      "tene": 455,
      "Ɛdan": 456,
      "raa": 457,
      "koto": 458,
      "egu": 459,
      "Ɛbi": 460,
      "gye": 461,
      "pan": 462,
      "wɔwɔ": 463,
      "redi": 464,
      "mmo": 465,
      "wɔreyɛ": 466,
      "kuu": 467,
      "blue": 468,
      "nnu": 469,
      "tsena": 470,
      "nipakuo": 471,
      "Dan": 472,
      "Nnua": 473,
      "ataare": 474,
      "ge": 475,
      "ebinom": 476,
      "mmɔfra": 477,
      "twerɛ": 478,
      "Aberanteɛ": 479,
      "fɛɛ": 480,
      "hu": 481,
      "rankaa": 482,
      "sɔ": 483,
      "table": 484,
      "kyɛw": 485,
      "nsu": 486,
      "akata": 487,
      "Binom": 488,
      "mfimfi": 489,
      "afa": 490,
      "kak": 491,
      "eɛnsa": 492,
      "ɔnkɔ": 493,
      "car": 494,
      "rebɔ": 495,
      "Ni": 496,
      "rataa": 497,
      "nkonnwa": 498,
      "akokɔsradeɛ": 499,
      "Obi": 500,
      "fufuw": 501,
      "mpaboa": 502,
      "niwa": 503,
      "Po": 504,
      "ɛde": 505,
      "sen": 506,
      "nnan": 507,
      "esisi": 508,
      "saa": 509,
      "gugu": 510,
      "iɛ": 511,
      "mmeɛnsa": 512,
      "bɛ": 513,
      "esie": 514,
      "hi": 515,
      "atwe": 516,
      "nwura": 517,
      "baayewa": 518,
      "dodoɔ": 519,
      "ebien": 520,
      "frankaa": 521,
      "tsi": 522,
      "hwiren": 523,
      "wɔgyina": 524,
      "co": 525,
      "sk": 526,
      "ketewa": 527,
      "resa": 528,
      "tiri": 529,
      "lisi": 530,
      "ahwehwɛniwa": 531,
      "mmɔ": 532,
      "tam": 533,
      "pɔnkɔ": 534,
      "Aba": 535,
      "Nnipakuo": 536,
      "anin": 537,
      "ɛsi": 538,
      "mfonin": 539,
      "yie": 540,
      "roni": 541,
      "twene": 542,
      "aduane": 543,
      "Ko": 544,
      "ɛhyɛn": 545,
      "afidie": 546,
      "pon": 547,
      "la": 548,
      "twi": 549,
      "ɛpono": 550,
      "Aborɔfo": 551,
      "fɛɛfɛ": 552,
      "nkwadaa": 553,
      "Wɔde": 554,
      "didi": 555,
      "llo": 556,
      "Ɔhyɛ": 557,
      "Nkwadaa": 558,
      "gua": 559,
      "wɔte": 560,
      "adaka": 561,
      "ɔɔre": 562,
      "wiem": 563,
      "enyim": 564,
      "afu": 565,
      "Ɛna": 566,
      "Ɔbaako": 567,
      "reyɛ": 568,
      "Mmo": 569,
      "apagya": 570,
      "kan": 571,
      "deda": 572,
      "pɔ": 573,
      "fie": 574,
      "wɔahyehyɛ": 575,
      "nim": 576,
      "Mmi": 577,
      "kakra": 578,
      "Ba": 579,
      "ɛda": 580,
      "wɔyɛ": 581,
      "yɛde": 582,
      "akɛse": 583,
      "sor": 584,
      "beebi": 585,
      "ente": 586,
      "asɛ": 587,
      "go": 588,
      "ɔwɔ": 589,
      "ahyi": 590,
      "pɛ": 591,
      "ɛnt": 592,
      "abobɔ": 593,
      "mfimfini": 594,
      "af": 595,
      "ɔrehwɛ": 596,
      "mask": 597,
      "atu": 598,
      "fidie": 599,
      "kama": 600,
      "akyekye": 601,
      "Bea": 602,
      "abi": 603,
      "kyɛnse": 604,
      "tsir": 605,
      "yɛn": 606,
      "ɛnam": 607,
      "akyerɛ": 608,
      "rs": 609,
      "nose": 610,
      "rekɔ": 611,
      "atare": 612,
      "agye": 613,
      "Mmranteɛ": 614,
      "ahoma": 615,
      "abu": 616,
      "bɔfra": 617,
      "gy": 618,
      "abɔfra": 619,
      "wea": 620,
      "dɔ": 621,
      "nwa": 622,
      "kit": 623,
      "Barima": 624,
      "polisi": 625,
      "nkurɔfoɔ": 626,
      "ve": 627,
      "mmeranteɛ": 628,
      "Nipa": 629,
      "ll": 630,
      "Kaa": 631,
      "agorɔ": 632,
      "maa": 633,
      "nkɔ": 634,
      "Ɛhyɛn": 635,
      "retwa": 636,
      "sukuu": 637,
      "ahorow": 638,
      "ɛntɛn": 639,
      "paa": 640,
      "biri": 641,
      "hone": 642,
      "panin": 643,
      "wɔredi": 644,
      "ahyiam": 645,
      "bɔɔ": 646,
      "esia": 647,
      "aberanteɛ": 648,
      "nhyɛ": 649,
      "Abranteɛ": 650,
      "Car": 651,
      "ɛso": 652,
      "fɛfɛɛfɛ": 653,
      "Mmienu": 654,
      "Aman": 655,
      "kente": 656,
      "nenam": 657,
      "besia": 658,
      "kuro": 659,
      "aboa": 660,
      "Ne": 661,
      "naa": 662,
      "top": 663,
      "ame": 664,
      "tsen": 665,
      "adan": 666,
      "fura": 667,
      "animfoɔ": 668,
      "ahabanmono": 669,
      "Nkurɔfo": 670,
      "Nsuo": 671,
      "wɔrebɔ": 672,
      "dwumayɛ": 673,
      "lɔɔre": 674,
      "nyin": 675,
      "phone": 676,
      "niiɛ": 677,
      "tuo": 678,
      "aman": 679,
      "bibifoɔ": 680,
      "benku": 681,
      "Abaayewa": 682,
      "mpo": 683,
      "koro": 684,
      "baasa": 685,
      "nna": 686,
      "moto": 687,
      "asiesie": 688,
      "bibire": 689,
      "Nyi": 690,
      "kyerɛkyerɛ": 691,
      "atwerɛ": 692,
      "benkum": 693,
      "ɔso": 694,
      "anwea": 695,
      "mme": 696,
      "Nkonnwa": 697,
      "biribi": 698,
      "Bo": 699,
      "wɔnam": 700,
      "nifa": 701,
      "abɔn": 702,
      "Hɔn": 703,
      "in": 704,
      "nhwiren": 705,
      "ɔgyina": 706,
      "tɛ": 707,
      "wɛ": 708,
      "wɔro": 709,
      "fofo": 710,
      "ntaade": 711,
      "ɔbaako": 712,
      "dadeɛ": 713,
      "mmabaawa": 714,
      "llow": 715,
      "pra": 716,
      "asisi": 717,
      "krataa": 718,
      "ɛbɔ": 719,
      "wɔhyehyɛ": 720,
      "reen": 721,
      "nea": 722,
      "woe": 723,
      "Su": 724,
      "dzɛ": 725,
      "aborɔfo": 726,
      "ndua": 727,
      "kodoɔ": 728,
      "firi": 729,
      "aptop": 730,
      "Ababaawa": 731,
      "akɛseɛ": 732,
      "akyekyere": 733,
      "Adan": 734,
      "Ɔmo": 735,
      "bebe": 736,
      "wogyina": 737,
      "kiti": 738,
      "sɛm": 739,
      "hwene": 740,
      "Nyimpa": 741,
      "kɛntɛn": 742,
      "yellow": 743,
      "bag": 744,
      "aya": 745,
      "ɔno": 746,
      "ati": 747,
      "nsia": 748,
      "resere": 749,
      "baage": 750,
      "panyin": 751,
      "nnum": 752,
      "Kor": 753,
      "bɛyɛ": 754,
      "saw": 755,
      "Pono": 756,
      "fɔm": 757,
      "ng": 758,
      "aki": 759,
      "beberee": 760,
      "agyina": 761,
      "on": 762,
      "ɛgyina": 763,
      "woma": 764,
      "nyimpa": 765,
      "Abɔfra": 766,
      "Nneɛma": 767,
      "green": 768,
      "Mmaayewa": 769,
      "polisifoɔ": 770,
      "sie": 771,
      "ronin": 772,
      "santene": 773,
      "Mmofra": 774,
      "ee": 775,
      "waa": 776,
      "dade": 777,
      "mpanimfoɔ": 778,
      "abe": 779,
      "cle": 780,
      "akwadaa": 781,
      "ɛnso": 782,
      "bɔtɔ": 783,
      "abien": 784,
      "Amanfoɔ": 785,
      "ɔdze": 786,
      "Ako": 787,
      "ce": 788,
      "ntaadeɛ": 789,
      "mmono": 790,
      "ɔma": 791,
      "ɛtete": 792,
      "mua": 793,
      "Nnipadɔm": 794,
      "akita": 795,
      "cy": 796,
      "apata": 797,
      "Ak": 798,
      "Bu": 799,
      "Nwura": 800,
      "hɛn": 801,
      "tan": 802,
      "ɛmu": 803,
      "tee": 804,
      "boo": 805,
      "frɛ": 806,
      "osi": 807,
      "akyir": 808,
      "pia": 809,
      "afiri": 810,
      "Hyɛn": 811,
      "asosɔ": 812,
      "dzɛmba": 813,
      "Adwumayɛ": 814,
      "emu": 815,
      "ir": 816,
      "sraa": 817,
      "wɔtɔn": 818,
      "nson": 819,
      "whe": 820,
      "wɔaka": 821,
      "ɛɛma": 822,
      "mpan": 823,
      "cycle": 824,
      "el": 825,
      "Ɔde": 826,
      "ɔɔ": 827,
      "bia": 828,
      "ter": 829,
      "enyin": 830,
      "Ku": 831,
      "hyi": 832,
      "fira": 833,
      "nkɔmmɔ": 834,
      "ogyina": 835,
      "ridzi": 836,
      "kyiniiɛ": 837,
      "Mfo": 838,
      "Nhwiren": 839,
      "hye": 840,
      "tra": 841,
      "sensɛn": 842,
      "adi": 843,
      "nno": 844,
      "ɛgu": 845,
      "akwan": 846,
      "ahyɛnso": 847,
      "hwehwɛ": 848,
      "etwa": 849,
      "ebaasa": 850,
      "um": 851,
      "noa": 852,
      "Wɔhyɛ": 853,
      "nkyɛnse": 854,
      "mfidie": 855,
      "yaa": 856,
      "toma": 857,
      "ket": 858,
      "ntadeɛ": 859,
      "abɔnten": 860,
      "al": 861,
      "anan": 862,
      "kanea": 863,
      "nwi": 864,
      "Maamefoɔ": 865,
      "mfoni": 866,
      "ntam": 867,
      "Beaeɛ": 868,
      "ndzɛmba": 869,
      "okita": 870,
      "ɔbarima": 871,
      "wɔtete": 872,
      "rofoɔ": 873,
      "egya": 874,
      "wen": 875,
      "soɔ": 876,
      "benyin": 877,
      "buroni": 878,
      "kitakita": 879,
      "Nnu": 880,
      "ck": 881,
      "lɔre": 882,
      "laptop": 883,
      "rekasa": 884,
      "Wɔre": 885,
      "wowɔ": 886,
      "ɛrekɔ": 887,
      "akura": 888,
      "Gha": 889,
      "ayi": 890,
      "soso": 891,
      "bofra": 892,
      "nkanea": 893,
      "Nkrɔfoɔ": 894,
      "dɛm": 895,
      "ate": 896,
      "reba": 897,
      "sini": 898,
      "pagya": 899,
      "abranteɛ": 900,
      "wiemhyɛn": 901,
      "Ghana": 902,
      "amo": 903,
      "ɛrehwɛ": 904,
      "wia": 905,
      "abammono": 906,
      "dwam": 907,
      "foforɔ": 908,
      "nketewa": 909,
      "nwoma": 910,
      "ɛho": 911,
      "sika": 912,
      "dadze": 913,
      "nkrataa": 914,
      "Mmabaawa": 915,
      "Nkorɔfoɔ": 916,
      "besiafo": 917,
      "atenten": 918,
      "abibifoɔ": 919,
      "kɛ": 920,
      "kwa": 921,
      "kora": 922,
      "abaayewa": 923,
      "ei": 924,
      "las": 925,
      "st": 926,
      "ahabammono": 927,
      "abofra": 928,
      "gyafoɔ": 929,
      "dziban": 930,
      "ruwa": 931,
      "ur": 932,
      "homa": 933,
      "Wɔyɛ": 934,
      "Wɔahyehyɛ": 935,
      "ɛɛfo": 936,
      "Nkurɔfokuo": 937,
      "mpoano": 938,
      "mmerɛ": 939,
      "rakura": 940,
      "Ɔbarima": 941,
      "ɔdan": 942,
      "abue": 943,
      "kurakura": 944,
      "bokiti": 945,
      "abansoro": 946,
      "keteke": 947,
      "Akonnwa": 948,
      "bɛn": 949,
      "kyerɛkyerɛni": 950,
      "wheel": 951,
      "Abu": 952,
      "cha": 953,
      "daka": 954,
      "faako": 955,
      "ɛkyi": 956,
      "wɔatwerɛ": 957,
      "rekyerɛ": 958,
      "dwe": 959,
      "laa": 960,
      "ɔne": 961,
      "ɛsisi": 962,
      "foro": 963,
      "akyiri": 964,
      "Mmea": 965,
      "rante": 966,
      "miiɛ": 967,
      "hel": 968,
      "mmofra": 969,
      "Akwadaa": 970,
      "Be": 971,
      "Nsu": 972,
      "bra": 973,
      "brow": 974,
      "ehyia": 975,
      "funu": 976,
      "adua": 977,
      "enyiwa": 978,
      "obiara": 979,
      "mfimfin": 980,
      "Baa": 981,
      "ɛtwa": 982,
      "noho": 983,
      "ɛrebɔ": 984,
      "mienu": 985,
      "Nipakuo": 986,
      "kyɛnsee": 987,
      "ɛma": 988,
      "wɔahyia": 989,
      "tare": 990,
      "aseɛ": 991,
      "brown": 992,
      "Saa": 993,
      "ahyɛn": 994,
      "edwuma": 995,
      "refoɔ": 996,
      "wabɔ": 997,
      "tor": 998,
      "Adwumayɛfoɔ": 999,
      "Dua": 1000,
      "abaa": 1001,
      "den": 1002,
      "Mmayewa": 1003,
      "lowe": 1004,
      "atoto": 1005,
      "didipono": 1006,
      "afadeɛ": 1007,
      "ves": 1008,
      "ahyɛnsodeɛ": 1009,
      "Aso": 1010,
      "whi": 1011,
      "ɔpono": 1012,
      "bol": 1013,
      "ɔrebɔ": 1014,
      "famu": 1015,
      "Nkanea": 1016,
      "ntama": 1017,
      "Abofra": 1018,
      "bɔɔlo": 1019,
      "Wo": 1020,
      "ene": 1021,
      "ɔbɔ": 1022,
      "tie": 1023,
      "asɔre": 1024,
      "serew": 1025,
      "Kanea": 1026,
      "wɔkita": 1027,
      "fon": 1028,
      "horo": 1029,
      "rokɔ": 1030,
      "wɔrekɔ": 1031,
      "akonwa": 1032,
      "asraa": 1033,
      "Nkorɔfo": 1034,
      "amena": 1035,
      "Akwan": 1036,
      "ɛpo": 1037,
      "wɔtsena": 1038,
      "wɔfrɛ": 1039,
      "mmea": 1040,
      "ahwɛ": 1041,
      "bue": 1042,
      "ntar": 1043,
      "akwanhyia": 1044,
      "Ahyɛn": 1045,
      "Apolisifoɔ": 1046,
      "ete": 1047,
      "ol": 1048,
      "wl": 1049,
      "ɛhɔ": 1050,
      "biara": 1051,
      "kube": 1052,
      "Mfonin": 1053,
      "Deɛ": 1054,
      "nsɛm": 1055,
      "ɛhyia": 1056,
      "nsamu": 1057,
      "resabea": 1058,
      "amanfoɔ": 1059,
      "Wi": 1060,
      "nka": 1061,
      "rt": 1062,
      "korɔ": 1063,
      "ahye": 1064,
      "asene": 1065,
      "kurom": 1066,
      "prama": 1067,
      "Sukuu": 1068,
      "boframba": 1069,
      "chair": 1070,
      "edi": 1071,
      "pata": 1072,
      "yɔ": 1073,
      "Ɛbinom": 1074,
      "ɔkita": 1075,
      "ɔkuta": 1076,
      "ɛsoro": 1077,
      "ɔreyɛ": 1078,
      "asen": 1079,
      "atene": 1080,
      "nke": 1081,
      "resi": 1082,
      "benyi": 1083,
      "tutu": 1084,
      "abɛɛfo": 1085,
      "cars": 1086,
      "Polisi": 1087,
      "sensan": 1088,
      "kamakama": 1089,
      "Cars": 1090,
      "atena": 1091,
      "glo": 1092,
      "nti": 1093,
      "Ɛpono": 1094,
      "ɛhyehyɛ": 1095,
      "ber": 1096,
      "abɛ": 1097,
      "dodo": 1098,
      "ababaawa": 1099,
      "adwumayɛ": 1100,
      "wuraba": 1101,
      "colo": 1102,
      "llon": 1103,
      "lowers": 1104,
      "enim": 1105,
      "rika": 1106,
      "met": 1107,
      "ɛredi": 1108,
      "kyerɛw": 1109,
      "ard": 1110,
      "nnadeɛ": 1111,
      "nnoɔma": 1112,
      "cket": 1113,
      "es": 1114,
      "sane": 1115,
      "wɔm": 1116,
      "wɔahyɛ": 1117,
      "rahyɛ": 1118,
      "kuruwa": 1119,
      "fuw": 1120,
      "wene": 1121,
      "tire": 1122,
      "akuta": 1123,
      "mic": 1124,
      "bre": 1125,
      "om": 1126,
      "tro": 1127,
      "vi": 1128,
      "anum": 1129,
      "rehyɛ": 1130,
      "muadeɛ": 1131,
      "raman": 1132,
      "tae": 1133,
      "ball": 1134,
      "wɔresa": 1135,
      "ɔrekasa": 1136,
      "akoto": 1137,
      "akasa": 1138,
      "ɔyɛkyerɛ": 1139,
      "hene": 1140,
      "asɛm": 1141,
      "lass": 1142,
      "helmet": 1143,
      "nohoa": 1144,
      "Aban": 1145,
      "kata": 1146,
      "ɛt": 1147,
      "fom": 1148,
      "duane": 1149,
      "banku": 1150,
      "mpu": 1151,
      "ataareɛ": 1152,
      "hyiren": 1153,
      "Ban": 1154,
      "Do": 1155,
      "Lɔɔre": 1156,
      "Ndua": 1157,
      "anaa": 1158,
      "allon": 1159,
      "ɔto": 1160,
      "ɔdi": 1161,
      "ɛrima": 1162,
      "anya": 1163,
      "rosan": 1164,
      "ahu": 1165,
      "rɔba": 1166,
      "dza": 1167,
      "wɔresaw": 1168,
      "nkurɔfo": 1169,
      "dware": 1170,
      "egua": 1171,
      "coat": 1172,
      "Ade": 1173,
      "Abibifoɔ": 1174,
      "Besia": 1175,
      "Table": 1176,
      "edziban": 1177,
      "nyɛ": 1178,
      "ntum": 1179,
      "ɔkura": 1180,
      "ɛhwɛ": 1181,
      "wɔayɛ": 1182,
      "wɔato": 1183,
      "akan": 1184,
      "kut": 1185,
      "Wɔhyehyɛ": 1186,
      "rɔsan": 1187,
      "board": 1188,
      "nnwom": 1189,
      "woridzi": 1190,
      "blu": 1191,
      "asɛe": 1192,
      "kitsa": 1193,
      "Asraa": 1194,
      "TV": 1195,
      "cre": 1196,
      "ctor": 1197,
      "efi": 1198,
      "ngua": 1199,
      "srɛ": 1200,
      "ukuu": 1201,
      "ɔtɔn": 1202,
      "ɛɛse": 1203,
      "ɛbinom": 1204,
      "ɛsɛ": 1205,
      "wɔatwa": 1206,
      "wahyɛ": 1207,
      "atɔ": 1208,
      "atɛkyɛ": 1209,
      "nnɔ": 1210,
      "butu": 1211,
      "kaar": 1212,
      "line": 1213,
      "asaw": 1214,
      "nnuane": 1215,
      "kɛtɛ": 1216,
      "So": 1217,
      "broni": 1218,
      "bronin": 1219,
      "dam": 1220,
      "et": 1221,
      "oran": 1222,
      "pl": 1223,
      "reɛ": 1224,
      "kuw": 1225,
      "ahah": 1226,
      "wɔresi": 1227,
      "bowl": 1228,
      "asaa": 1229,
      "nante": 1230,
      "mmaayewa": 1231,
      "Nkrɔfo": 1232,
      "apegya": 1233,
      "ntade": 1234,
      "Abrɔfo": 1235,
      "motor": 1236,
      "Mp": 1237,
      "Nni": 1238,
      "trɔ": 1239,
      "red": 1240,
      "twere": 1241,
      "srade": 1242,
      "nkonwa": 1243,
      "tɔɔ": 1244,
      "kutakuta": 1245,
      "orange": 1246,
      "Aya": 1247,
      "ekita": 1248,
      "ekuta": 1249,
      "nhoma": 1250,
      "ɔda": 1251,
      "ahosu": 1252,
      "asase": 1253,
      "agor": 1254,
      "Adeɛ": 1255,
      "dwom": 1256,
      "glass": 1257,
      "nnipakuo": 1258,
      "wɔtena": 1259,
      "and": 1260,
      "ake": 1261,
      "ɔrekɔ": 1262,
      "bla": 1263,
      "redidi": 1264,
      "Buroni": 1265,
      "mpanyin": 1266,
      "gloves": 1267,
      "Abaa": 1268,
      "chi": 1269,
      "fe": 1270,
      "nye": 1271,
      "up": 1272,
      "ɔka": 1273,
      "ɛfam": 1274,
      "wɔa": 1275,
      "sofi": 1276,
      "abrɔfo": 1277,
      "wɔretwa": 1278,
      "apampa": 1279,
      "ruma": 1280,
      "pakuw": 1281,
      "ahweneɛ": 1282,
      "agoprama": 1283,
      "atuntum": 1284,
      "gyaa": 1285,
      "sraani": 1286,
      "asraafoɔ": 1287,
      "Dɔm": 1288,
      "Nea": 1289,
      "ehu": 1290,
      "gh": 1291,
      "gyin": 1292,
      "haban": 1293,
      "ɛkwan": 1294,
      "wɔabɔ": 1295,
      "anyi": 1296,
      "waraa": 1297,
      "ramo": 1298,
      "bepɔ": 1299,
      "rɛn": 1300,
      "dum": 1301,
      "bibini": 1302,
      "twerɛdua": 1303,
      "afura": 1304,
      "ayaresabea": 1305,
      "teebol": 1306,
      "nkyɛnsee": 1307,
      "black": 1308,
      "Kyi": 1309,
      "Lɔre": 1310,
      "agya": 1311,
      "sre": 1312,
      "wɔɔ": 1313,
      "wɔasiesie": 1314,
      "bicycle": 1315,
      "sol": 1316,
      "tere": 1317,
      "hohoro": 1318,
      "pae": 1319,
      "see": 1320,
      "kua": 1321,
      "ron": 1322,
      "rimaa": 1323,
      "sumiiɛ": 1324,
      "rɔdeɛ": 1325,
      "ɛretwa": 1326,
      "koraa": 1327,
      "nkorɔfo": 1328,
      "akyekyer": 1329,
      "rahyɛba": 1330,
      "Aduane": 1331,
      "Oburoni": 1332,
      "nsensan": 1333,
      "atakata": 1334,
      "Wɔdze": 1335,
      "ɛreyɛ": 1336,
      "banyin": 1337,
      "mpanin": 1338,
      "akɔkɔɔ": 1339,
      "tsentsen": 1340,
      "Dodoɔ": 1341,
      "Yɛ": 1342,
      "efie": 1343,
      "hɛ": 1344,
      "mbaa": 1345,
      "use": 1346,
      "ref": 1347,
      "retwi": 1348,
      "bammɔ": 1349,
      "ɔretɔn": 1350,
      "kyen": 1351,
      "keka": 1352,
      "akuo": 1353,
      "maamefoɔ": 1354,
      "bibifo": 1355,
      "mmoa": 1356,
      "Kodoɔ": 1357,
      "apagyapagya": 1358,
      "gyata": 1359,
      "Nipadɔm": 1360,
      "abere": 1361,
      "Asa": 1362,
      "Afidie": 1363,
      "Mo": 1364,
      "Mbaa": 1365,
      "Ntoma": 1366,
      "flowers": 1367,
      "ks": 1368,
      "pane": 1369,
      "Ɔdan": 1370,
      "ɔnam": 1371,
      "annua": 1372,
      "nee": 1373,
      "kota": 1374,
      "ahwen": 1375,
      "tow": 1376,
      "basa": 1377,
      "ɔresere": 1378,
      "nnuaba": 1379,
      "afadze": 1380,
      "dɔɔso": 1381,
      "dadesɛn": 1382,
      "adwumayɛfoɔ": 1383,
      "ght": 1384,
      "panel": 1385,
      "Dwa": 1386,
      "ch": 1387,
      "gallon": 1388,
      "kya": 1389,
      "lag": 1390,
      "Ɛdɔm": 1391,
      "wɔso": 1392,
      "sing": 1393,
      "koo": 1394,
      "atsen": 1395,
      "gyinabea": 1396,
      "mmranteɛ": 1397,
      "ensa": 1398,
      "enti": 1399,
      "asɛn": 1400,
      "let": 1401,
      "esiafo": 1402,
      "Baabi": 1403,
      "white": 1404,
      "Akwantu": 1405,
      "Wiem": 1406,
      "micro": 1407,
      "Nnipakuw": 1408,
      "solar": 1409,
      "Emu": 1410,
      "Mbesiafo": 1411,
      "gi": 1412,
      "mbesiafo": 1413,
      "nkita": 1414,
      "pla": 1415,
      "Ɛyɛ": 1416,
      "ɛtam": 1417,
      "wɔgyinagyina": 1418,
      "redzi": 1419,
      "yinam": 1420,
      "roɔ": 1421,
      "Wɔkita": 1422,
      "wɔredidi": 1423,
      "beae": 1424,
      "num": 1425,
      "gyeene": 1426,
      "akyerɛw": 1427,
      "retwam": 1428,
      "trouse": 1429,
      "egyinagyina": 1430,
      "mbɔ": 1431,
      "nt": 1432,
      "ɔtɔ": 1433,
      "siesie": 1434,
      "bebi": 1435,
      "sesa": 1436,
      "dzen": 1437,
      "tumtum": 1438,
      "adwa": 1439,
      "kyiri": 1440,
      "mfini": 1441,
      "nsuom": 1442,
      "dwadi": 1443,
      "ɛdeda": 1444,
      "resaw": 1445,
      "amera": 1446,
      "dadepɔnkɔ": 1447,
      "Abusua": 1448,
      "Af": 1449,
      "Ago": 1450,
      "Mboframba": 1451,
      "ana": 1452,
      "awe": 1453,
      "bua": 1454,
      "ena": 1455,
      "ekura": 1456,
      "nya": 1457,
      "odi": 1458,
      "yo": 1459,
      "ɛbobɔ": 1460,
      "wɔama": 1461,
      "sodeɛ": 1462,
      "akra": 1463,
      "atwi": 1464,
      "toes": 1465,
      "wɔredzi": 1466,
      "wɔresua": 1467,
      "ɔrekyerɛ": 1468,
      "banbɔ": 1469,
      "Nkurofoɔ": 1470,
      "akokɔsrade": 1471,
      "nkorɔfoɔ": 1472,
      "kasamu": 1473,
      "pem": 1474,
      "pepa": 1475,
      "twerɛpono": 1476,
      "woehyia": 1477,
      "alam": 1478,
      "Laptop": 1479,
      "apolisifoɔ": 1480,
      "gri": 1481,
      "ia": 1482,
      "nhyiren": 1483,
      "raka": 1484,
      "sh": 1485,
      "sta": 1486,
      "Ɔkyerɛkyerɛni": 1487,
      "ɛkoto": 1488,
      "retu": 1489,
      "reto": 1490,
      "neaba": 1491,
      "akatakata": 1492,
      "Wɔte": 1493,
      "bae": 1494,
      "wɔretɔn": 1495,
      "boɔ": 1496,
      "dada": 1497,
      "kyere": 1498,
      "pink": 1499,
      "abayewa": 1500,
      "duukuu": 1501,
      "ɔden": 1502,
      "con": 1503,
      "atareɛ": 1504,
      "bɔɔl": 1505,
      "chine": 1506,
      "apampam": 1507,
      "bebiree": 1508,
      "Asra": 1509,
      "Frankaa": 1510,
      "awo": 1511,
      "cup": 1512,
      "edua": 1513,
      "nte": 1514,
      "ntwene": 1515,
      "okura": 1516,
      "tw": 1517,
      "wɔdi": 1518,
      "yimfo": 1519,
      "sono": 1520,
      "ango": 1521,
      "mako": 1522,
      "rofo": 1523,
      "ahata": 1524,
      "toa": 1525,
      "hwen": 1526,
      "enum": 1527,
      "ɔredi": 1528,
      "ɔmɔ": 1529,
      "ɛkyɛw": 1530,
      "pet": 1531,
      "kakraa": 1532,
      "tirinwi": 1533,
      "Mmoa": 1534,
      "sukuufoɔ": 1535,
      "abɔntene": 1536,
      "colour": 1537,
      "Wiemhyɛn": 1538,
      "Gy": 1539,
      "bɛɛma": 1540,
      "bber": 1541,
      "mfu": 1542,
      "nfi": 1543,
      "ɛm": 1544,
      "ɛnim": 1545,
      "repia": 1546,
      "waka": 1547,
      "tadeɛ": 1548,
      "poma": 1549,
      "ahofa": 1550,
      "ahoroɔ": 1551,
      "mmirika": 1552,
      "tenkete": 1553,
      "ntoosi": 1554,
      "ɔman": 1555,
      "atoɔ": 1556,
      "Bokiti": 1557,
      "wɔrobɔ": 1558,
      "benyinfo": 1559,
      "Nnuane": 1560,
      "nketenkete": 1561,
      "benyimfo": 1562,
      "Asraafoɔ": 1563,
      "microphone": 1564,
      "Aha": 1565,
      "Awuraba": 1566,
      "Kete": 1567,
      "ebu": 1568,
      "hy": 1569,
      "kyia": 1570,
      "mfoɔ": 1571,
      "nhwi": 1572,
      "ove": 1573,
      "shi": 1574,
      "ɔmu": 1575,
      "wɔhɔ": 1576,
      "yɛahyehyɛ": 1577,
      "ankaa": 1578,
      "regye": 1579,
      "papaa": 1580,
      "kun": 1581,
      "kutu": 1582,
      "ric": 1583,
      "sum": 1584,
      "hwea": 1585,
      "baeɛ": 1586,
      "Mme": 1587,
      "wɔretu": 1588,
      "mmayewa": 1589,
      "ɛresa": 1590,
      "ɛɛhwɛ": 1591,
      "santen": 1592,
      "agugu": 1593,
      "siafo": 1594,
      "ation": 1595,
      "Asogyafoɔ": 1596,
      "asaase": 1597,
      "Abe": 1598,
      "Adze": 1599,
      "Benyin": 1600,
      "Mpa": 1601,
      "Nn": 1602,
      "Si": 1603,
      "efuw": 1604,
      "kro": 1605,
      "mmu": 1606,
      "ndze": 1607,
      "ry": 1608,
      "Ɔsraani": 1609,
      "ɔri": 1610,
      "soa": 1611,
      "mar": 1612,
      "wama": 1613,
      "Wɔgyina": 1614,
      "wɔreto": 1615,
      "bot": 1616,
      "tunu": 1617,
      "kyenku": 1618,
      "ɔnye": 1619,
      "ɛresere": 1620,
      "wie": 1621,
      "mpɛsɛ": 1622,
      "mfonyin": 1623,
      "agudeɛ": 1624,
      "Abayewa": 1625,
      "Mmorɔfo": 1626,
      "mfonini": 1627,
      "amoa": 1628,
      "akasamu": 1629,
      "gyaade": 1630,
      "nkitaho": 1631,
      "aye": 1632,
      "etu": 1633,
      "etuo": 1634,
      "flag": 1635,
      "nsɛn": 1636,
      "tle": 1637,
      "Ɔbea": 1638,
      "ɛkor": 1639,
      "wɔtwe": 1640,
      "wɔahyiam": 1641,
      "ankasa": 1642,
      "net": 1643,
      "nensa": 1644,
      "wɔnhyɛ": 1645,
      "wahyehyɛ": 1646,
      "baanu": 1647,
      "nika": 1648,
      "serɛ": 1649,
      "wɔreyi": 1650,
      "wɔretwe": 1651,
      "wokita": 1652,
      "asea": 1653,
      "wim": 1654,
      "nnipadɔm": 1655,
      "agua": 1656,
      "kɔnmuadeɛ": 1657,
      "rubber": 1658,
      "dɔmpem": 1659,
      "egugu": 1660,
      "Obiara": 1661,
      "him": 1662,
      "nwuram": 1663,
      "wɔrohwɛ": 1664,
      "Kube": 1665,
      "bluu": 1666,
      "ɛɛseni": 1667,
      "plate": 1668,
      "papaapa": 1669,
      "Enipa": 1670,
      "abibifo": 1671,
      "mɔ": 1672,
      "mfitaa": 1673,
      "yan": 1674,
      "ɔtena": 1675,
      "ɛsa": 1676,
      "ɛban": 1677,
      "res": 1678,
      "retwe": 1679,
      "retɔ": 1680,
      "wasɔ": 1681,
      "pot": 1682,
      "ebiasa": 1683,
      "ahoɔden": 1684,
      "ɛnkyɛn": 1685,
      "ɔretwa": 1686,
      "nkyɛnkyɛn": 1687,
      "aboaboa": 1688,
      "bucket": 1689,
      "duaba": 1690,
      "ntaare": 1691,
      "hwie": 1692,
      "nnuro": 1693,
      "kakraka": 1694,
      "atwedeɛ": 1695,
      "afei": 1696,
      "Sumiiɛ": 1697,
      "amona": 1698,
      "fonni": 1699,
      "Abansoro": 1700,
      "bankum": 1701,
      "Kyiniiɛ": 1702,
      "refle": 1703,
      "Akwantufoɔ": 1704,
      "Gyata": 1705,
      "bat": 1706,
      "galam": 1707,
      "nhwehwɛ": 1708,
      "pɛɛ": 1709,
      "Ɛmu": 1710,
      "ɔro": 1711,
      "ɔbea": 1712,
      "ɔkyerɛ": 1713,
      "ɔsan": 1714,
      "anyinam": 1715,
      "anhwea": 1716,
      "reyi": 1717,
      "rema": 1718,
      "pam": 1719,
      "bebre": 1720,
      "pole": 1721,
      "wɔregye": 1722,
      "wori": 1723,
      "Ebien": 1724,
      "ɛrema": 1725,
      "nkata": 1726,
      "afira": 1727,
      "pegya": 1728,
      "ntaaboo": 1729,
      "pɛɛse": 1730,
      "reserew": 1731,
      "Abusu": 1732,
      "Bebree": 1733,
      "gyingyina": 1734,
      "Bronin": 1735,
      "Kwan": 1736,
      "Ma": 1737,
      "Mfidie": 1738,
      "amu": 1739,
      "awia": 1740,
      "brɛ": 1741,
      "ky": 1742,
      "ntɔ": 1743,
      "ple": 1744,
      "rak": 1745,
      "Ɔpanin": 1746,
      "Ɛpo": 1747,
      "ɔtsena": 1748,
      "ɔkyerɛkyerɛni": 1749,
      "ɔrokɔ": 1750,
      "ɛfa": 1751,
      "ɛkeka": 1752,
      "wɔasɔ": 1753,
      "ans": 1754,
      "tea": 1755,
      "wapagya": 1756,
      "kɔmpu": 1757,
      "bee": 1758,
      "yere": 1759,
      "sey": 1760,
      "ent": 1761,
      "robɛn": 1762,
      "tar": 1763,
      "amia": 1764,
      "kɔɔpo": 1765,
      "nkoto": 1766,
      "petee": 1767,
      "asono": 1768,
      "bɛrima": 1769,
      "pɔt": 1770,
      "kakraba": 1771,
      "abubu": 1772,
      "dwumayɛfo": 1773,
      "ayarefoɔ": 1774,
      "ahahan": 1775,
      "mpanyinfoɔ": 1776,
      "atuntumfoɔ": 1777,
      "ramofoɔ": 1778,
      "Adɔ": 1779,
      "Ha": 1780,
      "Nkɔ": 1781,
      "Se": 1782,
      "camera": 1783,
      "it": 1784,
      "kraman": 1785,
      "mbanyin": 1786,
      "nten": 1787,
      "ogu": 1788,
      "ze": 1789,
      "Ɔyɛ": 1790,
      "ɛka": 1791,
      "wɔto": 1792,
      "resua": 1793,
      "borɔ": 1794,
      "animfo": 1795,
      "akoko": 1796,
      "aborosan": 1797,
      "nkaa": 1798,
      "pipe": 1799,
      "atosodeɛ": 1800,
      "ɛnenam": 1801,
      "miamia": 1802,
      "nyipa": 1803,
      "Pon": 1804,
      "foforo": 1805,
      "Kuro": 1806,
      "ayiri": 1807,
      "Asono": 1808,
      "Mpanimfoɔ": 1809,
      "kotafoɔ": 1810,
      "Keteke": 1811,
      "aseanam": 1812,
      "Ama": 1813,
      "Ahwehwɛ": 1814,
      "Adaka": 1815,
      "Adwadi": 1816,
      "Mbɔfra": 1817,
      "Nkyɛnse": 1818,
      "afra": 1819,
      "apono": 1820,
      "aforo": 1821,
      "ihu": 1822,
      "ice": 1823,
      "mboframba": 1824,
      "nkwan": 1825,
      "ntɔn": 1826,
      "ndadze": 1827,
      "nkyen": 1828,
      "penyin": 1829,
      "sho": 1830,
      "uku": 1831,
      "ɛteɛ": 1832,
      "ɛmo": 1833,
      "ɛpon": 1834,
      "sosɔ": 1835,
      "reka": 1836,
      "machine": 1837,
      "akyɛ": 1838,
      "rall": 1839,
      "berɛ": 1840,
      "mmɛrima": 1841,
      "fir": 1842,
      "sisisisi": 1843,
      "ɔreto": 1844,
      "ash": 1845,
      "light": 1846,
      "Papafoɔ": 1847,
      "tententen": 1848,
      "twerɛfoɔ": 1849,
      "twie": 1850,
      "pɔtɔ": 1851,
      "pɛs": 1852,
      "gyani": 1853,
      "ver": 1854,
      "Borɔdeɛ": 1855,
      "tomatoes": 1856,
      "wɔatwerɛtwerɛ": 1857,
      "Polisini": 1858,
      "trousers": 1859,
      "Asrafoɔ": 1860,
      "twɛn": 1861,
      "overall": 1862,
      "nkotodwe": 1863,
      "Apo": 1864,
      "Ahwe": 1865,
      "Ntaa": 1866,
      "ado": 1867,
      "apo": 1868,
      "bru": 1869,
      "dɛɛ": 1870,
      "dɔte": 1871,
      "efu": 1872,
      "frɔ": 1873,
      "gyi": 1874,
      "ibi": 1875,
      "ns": 1876,
      "rry": 1877,
      "tter": 1878,
      "Ɛkor": 1879,
      "ɛkoro": 1880,
      "angua": 1881,
      "rewɔ": 1882,
      "renante": 1883,
      "sii": 1884,
      "hɔho": 1885,
      "nie": 1886,
      "abati": 1887,
      "kunu": 1888,
      "robɔ": 1889,
      "Wɔabɔ": 1890,
      "bar": 1891,
      "badwam": 1892,
      "werɛ": 1893,
      "mmiensa": 1894,
      "nyinara": 1895,
      "ɔreserew": 1896,
      "worɔ": 1897,
      "ɔnko": 1898,
      "aseɛnam": 1899,
      "asan": 1900,
      "kyim": 1901,
      "abom": 1902,
      "mfinfi": 1903,
      "bunu": 1904,
      "kaal": 1905,
      "sɛdeɛ": 1906,
      "apaa": 1907,
      "kɔnmu": 1908,
      "akɔneaba": 1909,
      "aduaba": 1910,
      "kotoku": 1911,
      "afasuo": 1912,
      "atwere": 1913,
      "atutu": 1914,
      "book": 1915,
      "enyinfo": 1916,
      "mputer": 1917,
      "cream": 1918,
      "ahwenneɛ": 1919,
      "singlet": 1920,
      "atsentsen": 1921,
      "atwitwa": 1922,
      "griin": 1923,
      "ahofasuo": 1924,
      "Abusuakuo": 1925,
      "kɔmputa": 1926,
      "An": 1927,
      "Atwe": 1928,
      "Dɛm": 1929,
      "Kɔ": 1930,
      "Kyɛn": 1931,
      "Mehu": 1932,
      "ci": 1933,
      "gwa": 1934,
      "nni": 1935,
      "nse": 1936,
      "nnam": 1937,
      "pu": 1938,
      "spe": 1939,
      "urs": 1940,
      "Ɔte": 1941,
      "ɔhwɛ": 1942,
      "wɔne": 1943,
      "wɔbɔ": 1944,
      "wɔakɔ": 1945,
      "wɔabue": 1946,
      "sifoɔ": 1947,
      "for": 1948,
      "atua": 1949,
      "abatoɔ": 1950,
      "ahen": 1951,
      "ahɛn": 1952,
      "gum": 1953,
      "tumi": 1954,
      "tia": 1955,
      "ataar": 1956,
      "frama": 1957,
      "ɛnan": 1958,
      "kyea": 1959,
      "ker": 1960,
      "nkrɔfoɔ": 1961,
      "ɔmmu": 1962,
      "aduro": 1963,
      "suafoɔ": 1964,
      "nnuannua": 1965,
      "tsenatsena": 1966,
      "fɛɛfɛɛfɛ": 1967,
      "afade": 1968,
      "carpet": 1969,
      "mmɔfoɔ": 1970,
      "afuom": 1971,
      "yaafi": 1972,
      "atere": 1973,
      "station": 1974,
      "wheelchair": 1975,
      "aduadua": 1976,
      "dodow": 1977,
      "trɔsa": 1978,
      "rahyɛbadwa": 1979,
      "aweneɛ": 1980,
      "ntɔkwa": 1981,
      "Dadeɛ": 1982,
      "Dade": 1983,
      "Fam": 1984,
      "Mba": 1985,
      "Nsɛn": 1986,
      "Obronin": 1987,
      "ammono": 1988,
      "bɛɛ": 1989,
      "efidie": 1990,
      "efiri": 1991,
      "ffi": 1992,
      "fla": 1993,
      "hyin": 1994,
      "mbɔfra": 1995,
      "ndaka": 1996,
      "osisi": 1997,
      "rani": 1998,
      "sak": 1999,
      "Ɛm": 2000,
      "ɔpon": 2001,
      "wɔtse": 2002,
      "wɔakyerɛw": 2003,
      "yɛlo": 2004,
      "kot": 2005,
      "kosua": 2006,
      "wayɛ": 2007,
      "akadeɛ": 2008,
      "baanan": 2009,
      "kɔtɔ": 2010,
      "besi": 2011,
      "beran": 2012,
      "sekan": 2013,
      "turu": 2014,
      "ahene": 2015,
      "rimma": 2016,
      "suu": 2017,
      "bɔfoɔ": 2018,
      "torofoɔ": 2019,
      "dibea": 2020,
      "ampe": 2021,
      "wee": 2022,
      "yare": 2023,
      "keta": 2024,
      "ɛɛte": 2025,
      "aboɔ": 2026,
      "Mmaranteɛ": 2027,
      "ape": 2028,
      "nkuruma": 2029,
      "fɛm": 2030,
      "ling": 2031,
      "Bibi": 2032,
      "Ɔbaatan": 2033,
      "dwumadie": 2034,
      "nyiwa": 2035,
      "per": 2036,
      "afuo": 2037,
      "afunu": 2038,
      "abie": 2039,
      "mpanyimfo": 2040,
      "train": 2041,
      "nkae": 2042,
      "asensɛn": 2043,
      "Banyin": 2044,
      "akansie": 2045,
      "crete": 2046,
      "Abaamua": 2047,
      "mpaninfoɔ": 2048,
      "angoo": 2049,
      "Fi": 2050,
      "Kasa": 2051,
      "Kente": 2052,
      "Mpanyin": 2053,
      "Nno": 2054,
      "Naa": 2055,
      "Nto": 2056,
      "Ngua": 2057,
      "Pi": 2058,
      "Te": 2059,
      "Tra": 2060,
      "adzi": 2061,
      "eti": 2062,
      "hen": 2063,
      "lɛ": 2064,
      "oburoni": 2065,
      "pen": 2066,
      "wn": 2067,
      "yɔnko": 2068,
      "Ɔkita": 2069,
      "Ɛkyɛ": 2070,
      "ɛwowɔ": 2071,
      "Ↄbaa": 2072,
      "wɔhwɛ": 2073,
      "wɔkura": 2074,
      "wɔabobɔ": 2075,
      "wɔaboa": 2076,
      "rebɛ": 2077,
      "ware": 2078,
      "wall": 2079,
      "paya": 2080,
      "nii": 2081,
      "Wɔtete": 2082,
      "anigye": 2083,
      "toto": 2084,
      "ahobammɔ": 2085,
      "ɔretɔ": 2086,
      "ɔresaw": 2087,
      "kyekyere": 2088,
      "adwi": 2089,
      "esiesie": 2090,
      "Nkrataa": 2091,
      "nkukuo": 2092,
      "lice": 2093,
      "nyim": 2094,
      "Nkonwa": 2095,
      "huri": 2096,
      "Mmiɛnsa": 2097,
      "wɔrokɔ": 2098,
      "atifi": 2099,
      "ahahammono": 2100,
      "buafoɔ": 2101,
      "barrow": 2102,
      "Apono": 2103,
      "Ahɛn": 2104,
      "Hɔ": 2105,
      "Mbenyinfo": 2106,
      "aten": 2107,
      "eyi": 2108,
      "edwa": 2109,
      "fangoo": 2110,
      "gn": 2111,
      "mf": 2112,
      "nkyɛ": 2113,
      "ndo": 2114,
      "ndwom": 2115,
      "yam": 2116,
      "Ɛhɔ": 2117,
      "ɔtse": 2118,
      "ɛko": 2119,
      "ɛbɛ": 2120,
      "wɔafa": 2121,
      "wɔasosɔ": 2122,
      "wɔsoso": 2123,
      "sotɔɔ": 2124,
      "regu": 2125,
      "mufoɔ": 2126,
      "forɔ": 2127,
      "yerɛ": 2128,
      "mmrɛ": 2129,
      "pool": 2130,
      "Mmesiafo": 2131,
      "wɔreba": 2132,
      "ahobanbɔ": 2133,
      "mehu": 2134,
      "yarefoɔ": 2135,
      "asra": 2136,
      "ɛrekasa": 2137,
      "ɛɛbɔ": 2138,
      "abobo": 2139,
      "mpaeɛ": 2140,
      "apan": 2141,
      "amammerɛ": 2142,
      "asɔɔto": 2143,
      "hwee": 2144,
      "paneɛ": 2145,
      "wɛs": 2146,
      "Adwumayɛfo": 2147,
      "tractor": 2148,
      "nwira": 2149,
      "ɛtwahyia": 2150,
      "Polisifoɔ": 2151,
      "colours": 2152,
      "efir": 2153,
      "anyim": 2154,
      "neema": 2155,
      "ahataw": 2156,
      "reflector": 2157,
      "bebrebee": 2158,
      "Akɔ": 2159,
      "Ahaban": 2160,
      "Asukuufoɔ": 2161,
      "Bɛɛma": 2162,
      "Fu": 2163,
      "Ibi": 2164,
      "Mbenyimfo": 2165,
      "Nka": 2166,
      "Obroni": 2167,
      "ae": 2168,
      "awu": 2169,
      "ca": 2170,
      "ctu": 2171,
      "dro": 2172,
      "hwa": 2173,
      "kra": 2174,
      "lɔri": 2175,
      "men": 2176,
      "nd": 2177,
      "os": 2178,
      "srani": 2179,
      "tru": 2180,
      "Ɔkura": 2181,
      "Ɔhene": 2182,
      "ɛkita": 2183,
      "ℇdan": 2184,
      "yɛma": 2185,
      "som": 2186,
      "retɔn": 2187,
      "redware": 2188,
      "nsonson": 2189,
      "watene": 2190,
      "akwa": 2191,
      "atse": 2192,
      "seɛ": 2193,
      "mmɛɛma": 2194,
      "mmesiafo": 2195,
      "kuru": 2196,
      "kurow": 2197,
      "fii": 2198,
      "Wɔnam": 2199,
      "guam": 2200,
      "tore": 2201,
      "ambɔ": 2202,
      "wɔresere": 2203,
      "wɔreserew": 2204,
      "wei": 2205,
      "nnɛteɛ": 2206,
      "dadaa": 2207,
      "tiɛ": 2208,
      "tion": 2209,
      "ɔresa": 2210,
      "ɔreka": 2211,
      "mon": 2212,
      "adɔ": 2213,
      "wane": 2214,
      "mmaranteɛ": 2215,
      "nantwie": 2216,
      "ɛreto": 2217,
      "wiemu": 2218,
      "ley": 2219,
      "apam": 2220,
      "nkakra": 2221,
      "srahwɛ": 2222,
      "aptɔ": 2223,
      "apenti": 2224,
      "Abɛɛfo": 2225,
      "nsutene": 2226,
      "twitwa": 2227,
      "atuo": 2228,
      "polisifo": 2229,
      "paake": 2230,
      "tɛm": 2231,
      "hyerɛn": 2232,
      "Nnuaba": 2233,
      "cks": 2234,
      "dodoeɛ": 2235,
      "nnɔteɛ": 2236,
      "shirt": 2237,
      "galamsey": 2238,
      "Ad": 2239,
      "Aho": 2240,
      "Apata": 2241,
      "Flowers": 2242,
      "Krataa": 2243,
      "Mpo": 2244,
      "Nna": 2245,
      "Nwoma": 2246,
      "Nhyiren": 2247,
      "Nɛɛseni": 2248,
      "asu": 2249,
      "anom": 2250,
      "bɛrema": 2251,
      "dri": 2252,
      "eni": 2253,
      "fee": 2254,
      "mbenyin": 2255,
      "ngo": 2256,
      "nfonni": 2257,
      "ose": 2258,
      "ps": 2259,
      "ski": 2260,
      "Ɔno": 2261,
      "ɔba": 2262,
      "ɔbɛyɛ": 2263,
      "ɛsɛn": 2264,
      "wɔtu": 2265,
      "wɔmo": 2266,
      "wɔsan": 2267,
      "wɔakye": 2268,
      "wɔkurakura": 2269,
      "yɛfrɛ": 2270,
      "nos": 2271,
      "sil": 2272,
      "koko": 2273,
      "nsoso": 2274,
      "baag": 2275,
      "kɔm": 2276,
      "kɔsi": 2277,
      "abrɔsan": 2278,
      "kumaa": 2279,
      "kusuu": 2280,
      "rot": 2281,
      "kyɛm": 2282,
      "kyɛɛ": 2283,
      "hwaa": 2284,
      "rɔbɛ": 2285,
      "nipadɔm": 2286,
      "wɔrekasa": 2287,
      "box": 2288,
      "ahoɔ": 2289,
      "dzea": 2290,
      "wohu": 2291,
      "kyir": 2292,
      "abomu": 2293,
      "les": 2294,
      "dur": 2295,
      "mpanimfo": 2296,
      "ntare": 2297,
      "nyini": 2298,
      "ntaareɛ": 2299,
      "afe": 2300,
      "ahomatorofoɔ": 2301,
      "abutu": 2302,
      "polisini": 2303,
      "Kaar": 2304,
      "amanyɔ": 2305,
      "mpoma": 2306,
      "fofor": 2307,
      "Nnuannua": 2308,
      "Beebi": 2309,
      "whiren": 2310,
      "Akwanhyia": 2311,
      "nkurɔfokuo": 2312,
      "nnɔbaeɛ": 2313,
      "apegyapegya": 2314,
      "Asase": 2315,
      "basabasa": 2316,
      "Afei": 2317,
      "concrete": 2318,
      "marsk": 2319,
      "bottle": 2320,
      "nkatasoɔ": 2321,
      "Adwadifoɔ": 2322,
      "apaake": 2323,
      "Nnoɔma": 2324,
      "Ataa": 2325,
      "Ame": 2326,
      "Broni": 2327,
      "Co": 2328,
      "Edua": 2329,
      "Edwumayɛfo": 2330,
      "Me": 2331,
      "Obu": 2332,
      "Twene": 2333,
      "Twerɛ": 2334,
      "Wahyehyɛ": 2335,
      "awɔ": 2336,
      "air": 2337,
      "ef": 2338,
      "er": 2339,
      "ffe": 2340,
      "han": 2341,
      "nne": 2342,
      "ndɛ": 2343,
      "nwɔtwe": 2344,
      "ste": 2345,
      "Ɔkuta": 2346,
      "ɔhene": 2347,
      "ɛno": 2348,
      "ɛdi": 2349,
      "ɛfidie": 2350,
      "wɔapagya": 2351,
      "bisa": 2352,
      "renom": 2353,
      "rehyehyɛ": 2354,
      "repra": 2355,
      "repepa": 2356,
      "teaseɛnam": 2357,
      "war": 2358,
      "wato": 2359,
      "akɔn": 2360,
      "tain": 2361,
      "Wɔreyɛ": 2362,
      "too": 2363,
      "Mmeɛnsa": 2364,
      "moa": 2365,
      "ɛsere": 2366,
      "kyire": 2367,
      "kyineɛ": 2368,
      "abɔdwe": 2369,
      "akari": 2370,
      "akutuo": 2371,
      "sɛe": 2372,
      "santsen": 2373,
      "Nkramofoɔ": 2374,
      "mpɔ": 2375,
      "nkumaa": 2376,
      "hyiadan": 2377,
      "afir": 2378,
      "tenatenten": 2379,
      "tenatena": 2380,
      "miɛ": 2381,
      "asogyafoɔ": 2382,
      "ahwehwɛnyiwa": 2383,
      "computer": 2384,
      "twitwi": 2385,
      "kanko": 2386,
      "gyna": 2387,
      "Boo": 2388,
      "firafira": 2389,
      "urtain": 2390,
      "asraafo": 2391,
      "ahusuo": 2392,
      "Nkrɔfokuo": 2393,
      "Ayaresabea": 2394,
      "Moto": 2395,
      "Afric": 2396,
      "mfutu": 2397,
      "Atwedeɛ": 2398,
      "flawɛs": 2399,
      "berantiɛ": 2400,
      "Bibini": 2401,
      "atentenatenten": 2402,
      "forɔeɛ": 2403,
      "Ato": 2404,
      "Di": 2405,
      "Ebu": 2406,
      "Ewiem": 2407,
      "Efie": 2408,
      "Ewuraba": 2409,
      "Kɛntɛn": 2410,
      "Li": 2411,
      "Nnyimpa": 2412,
      "Pl": 2413,
      "afo": 2414,
      "ayie": 2415,
      "adidi": 2416,
      "adidipono": 2417,
      "awie": 2418,
      "bri": 2419,
      "cs": 2420,
      "dra": 2421,
      "dwo": 2422,
      "edzi": 2423,
      "ken": 2424,
      "ndwa": 2425,
      "nɛkyi": 2426,
      "nneema": 2427,
      "ss": 2428,
      "ɔkasa": 2429,
      "ɛkɔ": 2430,
      "ɛdɔm": 2431,
      "wɔbɛ": 2432,
      "wɔafura": 2433,
      "wɔaboaboa": 2434,
      "nohwaa": 2435,
      "muden": 2436,
      "wafa": 2437,
      "ben": 2438,
      "yer": 2439,
      "abre": 2440,
      "kukuo": 2441,
      "fita": 2442,
      "Wɔahyɛ": 2443,
      "gutter": 2444,
      "donno": 2445,
      "fuo": 2446,
      "wɔretɔ": 2447,
      "boro": 2448,
      "borɔdeɛ": 2449,
      "atae": 2450,
      "ahome": 2451,
      "ɔreyi": 2452,
      "ɔretwerɛ": 2453,
      "woru": 2454,
      "ɔnhyɛ": 2455,
      "kyin": 2456,
      "mfir": 2457,
      "apampan": 2458,
      "pictu": 2459,
      "akun": 2460,
      "daadze": 2461,
      "Mmaamua": 2462,
      "duro": 2463,
      "duru": 2464,
      "lorry": 2465,
      "agudie": 2466,
      "mirika": 2467,
      "kasafidie": 2468,
      "Aborosan": 2469,
      "head": 2470,
      "ɔtedan": 2471,
      "Ababaa": 2472,
      "pɛt": 2473,
      "aburo": 2474,
      "nkɔlaa": 2475,
      "nnaka": 2476,
      "dzɛma": 2477,
      "hyiam": 2478,
      "akyirikyiri": 2479,
      "dent": 2480,
      "asɔredan": 2481,
      "Motor": 2482,
      "stage": 2483,
      "Mpaboa": 2484,
      "batakari": 2485,
      "Adɔkotafoɔ": 2486,
      "adowa": 2487,
      "wiemuhyɛn": 2488,
      "Oburonin": 2489,
      "Ahoma": 2490,
      "Bag": 2491,
      "Bɛrima": 2492,
      "Egya": 2493,
      "Mbofra": 2494,
      "Nsa": 2495,
      "Nkete": 2496,
      "Pɔnkɔ": 2497,
      "US": 2498,
      "Yɛde": 2499,
      "ble": 2500,
      "cci": 2501,
      "dge": 2502,
      "ii": 2503,
      "laptɔ": 2504,
      "mbenyimfo": 2505,
      "nfo": 2506,
      "nsrahwɛ": 2507,
      "sket": 2508,
      "shel": 2509,
      "uu": 2510,
      "vol": 2511,
      "xi": 2512,
      "Ɔsan": 2513,
      "Ɔsono": 2514,
      "ɔhyehyɛ": 2515,
      "ɔkasamu": 2516,
      "ɛɛyɛ": 2517,
      "ɛmaa": 2518,
      "wɔda": 2519,
      "wɔadi": 2520,
      "yɛkyerɛ": 2521,
      "yɛatwerɛ": 2522,
      "sogya": 2523,
      "sopɛɛse": 2524,
      "aaa": 2525,
      "rebu": 2526,
      "retie": 2527,
      "ner": 2528,
      "neho": 2529,
      "konko": 2530,
      "wat": 2531,
      "hor": 2532,
      "sei": 2533,
      "sebɔ": 2534,
      "abɛn": 2535,
      "suneɛ": 2536,
      "dini": 2537,
      "basia": 2538,
      "amba": 2539,
      "wɔrehyehyɛ": 2540,
      "wɔrekyerɛ": 2541,
      "bodua": 2542,
      "mming": 2543,
      "kar": 2544,
      "kyene": 2545,
      "ketse": 2546,
      "ɛredidi": 2547,
      "wimu": 2548,
      "fufuu": 2549,
      "mpapa": 2550,
      "nkrɔfo": 2551,
      "pira": 2552,
      "akutu": 2553,
      "atow": 2554,
      "apɔnkɔ": 2555,
      "akyere": 2556,
      "lin": 2557,
      "dwabɔ": 2558,
      "mina": 2559,
      "miɛnsa": 2560,
      "asorɔ": 2561,
      "papafoɔ": 2562,
      "enyimfo": 2563,
      "agodie": 2564,
      "suafo": 2565,
      "mango": 2566,
      "ement": 2567,
      "kotokoto": 2568,
      "panneɛ": 2569,
      "fɛɛfɛɛ": 2570,
      "pɔw": 2571,
      "boot": 2572,
      "laase": 2573,
      "abaamua": 2574,
      "Ayarefoɔ": 2575,
      "akɔkɔɔfoɔ": 2576,
      "ayer": 2577,
      "zebra": 2578,
      "mfinfin": 2579,
      "Nsɛntwerɛfoɔ": 2580,
      "abiesa": 2581,
      "apanpan": 2582,
      "Nnadeɛ": 2583,
      "Anyina": 2584,
      "Asan": 2585,
      "Atɔ": 2586,
      "Ahwen": 2587,
      "Gua": 2588,
      "Gallon": 2589,
      "Pan": 2590,
      "Panin": 2591,
      "To": 2592,
      "ada": 2593,
      "afoforɔ": 2594,
      "ewiem": 2595,
      "gra": 2596,
      "hand": 2597,
      "il": 2598,
      "ja": 2599,
      "je": 2600,
      "kakɔkɔɔ": 2601,
      "lk": 2602,
      "mbra": 2603,
      "nyan": 2604,
      "oo": 2605,
      "or": 2606,
      "osk": 2607,
      "obroni": 2608,
      "prɛ": 2609,
      "ty": 2610,
      "Ɛkwan": 2611,
      "ɔsraani": 2612,
      "ɛl": 2613,
      "ɛkyerɛ": 2614,
      "ɛgugu": 2615,
      "ɛfiri": 2616,
      "wɔka": 2617,
      "bifo": 2618,
      "biako": 2619,
      "son": 2620,
      "sogyani": 2621,
      "anwen": 2622,
      "retwerɛ": 2623,
      "remiamia": 2624,
      "tema": 2625,
      "maks": 2626,
      "wɔnye": 2627,
      "aky": 2628,
      "akwaraa": 2629,
      "kɔba": 2630,
      "sam": 2631,
      "fiti": 2632,
      "enya": 2633,
      "rohwɛ": 2634,
      "suhyɛn": 2635,
      "Wɔabobɔ": 2636,
      "Wɔaduadua": 2637,
      "difoɔ": 2638,
      "bawa": 2639,
      "bage": 2640,
      "basket": 2641,
      "amp": 2642,
      "wɔrebɛ": 2643,
      "bom": 2644,
      "nnɛte": 2645,
      "ahom": 2646,
      "bebreeee": 2647,
      "tuntumfoɔ": 2648,
      "kas": 2649,
      "kala": 2650,
      "wodzi": 2651,
      "ɔnkye": 2652,
      "mmako": 2653,
      "mmabaa": 2654,
      "tente": 2655,
      "ɛsensɛn": 2656,
      "esiaba": 2657,
      "wimming": 2658,
      "aborɔsan": 2659,
      "aboduaba": 2660,
      "nkan": 2661,
      "nkwa": 2662,
      "nkwaraa": 2663,
      "pie": 2664,
      "buukuu": 2665,
      "buuku": 2666,
      "rum": 2667,
      "akyea": 2668,
      "hyiamu": 2669,
      "blak": 2670,
      "mii": 2671,
      "nuadaka": 2672,
      "asopaa": 2673,
      "obiaa": 2674,
      "aduru": 2675,
      "mmɔframma": 2676,
      "Abarimaa": 2677,
      "twenee": 2678,
      "nkɔmbɔ": 2679,
      "sukuudan": 2680,
      "Amanyɔ": 2681,
      "ɔsono": 2682,
      "praeɛ": 2683,
      "aber": 2684,
      "Buronin": 2685,
      "kwaeɛ": 2686,
      "Bepɔ": 2687,
      "Sukuufoɔ": 2688,
      "ahuri": 2689,
      "nyɛma": 2690,
      "Asraafo": 2691,
      "mpanyinfo": 2692,
      "rɛnkyɛm": 2693,
      "trouser": 2694,
      "mfinimfini": 2695,
      "Mmerante": 2696,
      "mpɛsɛmpɛsɛ": 2697,
      "Mbɔframba": 2698,
      "pɛsɛɛ": 2699,
      "brush": 2700,
      "Kɔkɔɔ": 2701,
      "Dadesɛn": 2702,
      "anigyeɛ": 2703,
      "aboboyaa": 2704,
      "Mpoano": 2705,
      "skirt": 2706,
      "ccident": 2707,
      "volley": 2708,
      "At": 2709,
      "Abi": 2710,
      "Ado": 2711,
      "Akua": 2712,
      "Abibifo": 2713,
      "Ekuo": 2714,
      "Kwa": 2715,
      "Kɔm": 2716,
      "Mako": 2717,
      "Wa": 2718,
      "adziban": 2719,
      "blo": 2720,
      "cto": 2721,
      "efunu": 2722,
      "ina": 2723,
      "inu": 2724,
      "lla": 2725,
      "lling": 2726,
      "mboa": 2727,
      "mframa": 2728,
      "ngu": 2729,
      "okitsa": 2730,
      "py": 2731,
      "pɛn": 2732,
      "sc": 2733,
      "store": 2734,
      "va": 2735,
      "Ɔgyina": 2736,
      "Ɔbɔ": 2737,
      "Ɔdze": 2738,
      "Ɔpono": 2739,
      "Ɛha": 2740,
      "ɔsi": 2741,
      "ɔayɛ": 2742,
      "ɔyarefoɔ": 2743,
      "ɛba": 2744,
      "ɛbu": 2745,
      "ɛgyinagyina": 2746,
      "ɛfɔm": 2747,
      "Ↄhyɛ": 2748,
      "wɔkɔ": 2749,
      "wɔaba": 2750,
      "wɔasi": 2751,
      "wɔasa": 2752,
      "wɔkitakita": 2753,
      "wɔadua": 2754,
      "yɛfoɔ": 2755,
      "now": 2756,
      "bile": 2757,
      "yiye": 2758,
      "anua": 2759,
      "resɔ": 2760,
      "nemu": 2761,
      "nenan": 2762,
      "sin": 2763,
      "tetare": 2764,
      "mayaafi": 2765,
      "muwa": 2766,
      "muwaa": 2767,
      "mudzen": 2768,
      "kɔla": 2769,
      "paper": 2770,
      "nis": 2771,
      "bere": 2772,
      "samina": 2773,
      "ronyi": 2774,
      "riwa": 2775,
      "Wɔgyinagyina": 2776,
      "Wɔato": 2777,
      "Wɔrehwɛ": 2778,
      "Wɔredi": 2779,
      "Wɔkitakita": 2780,
      "toy": 2781,
      "diɛ": 2782,
      "Mmɛɛma": 2783,
      "Mmrante": 2784,
      "Mmɛrima": 2785,
      "wɔrehohoro": 2786,
      "boba": 2787,
      "borɔfo": 2788,
      "botan": 2789,
      "ebimo": 2790,
      "ahoban": 2791,
      "mmire": 2792,
      "ɔrekye": 2793,
      "ɔrehyehyɛ": 2794,
      "mobile": 2795,
      "wusie": 2796,
      "mmarimaa": 2797,
      "beayɛ": 2798,
      "ɛsen": 2799,
      "wira": 2800,
      "aboo": 2801,
      "abotire": 2802,
      "anopy": 2803,
      "nkɛntɛn": 2804,
      "nkraman": 2805,
      "piti": 2806,
      "daade": 2807,
      "sɛnea": 2808,
      "tsetse": 2809,
      "abae": 2810,
      "Nkurofo": 2811,
      "ɔmoo": 2812,
      "kasamfonin": 2813,
      "asoa": 2814,
      "asom": 2815,
      "mbasiafo": 2816,
      "agoro": 2817,
      "Abrɔsan": 2818,
      "carrot": 2819,
      "atwer": 2820,
      "Ɔbaakofoɔ": 2821,
      "dedadeda": 2822,
      "goro": 2823,
      "abinet": 2824,
      "akyerɛkyerɛ": 2825,
      "abubuafoɔ": 2826,
      "nkɔmɔ": 2827,
      "furafura": 2828,
      "mmeinu": 2829,
      "woetwa": 2830,
      "woedzi": 2831,
      "atia": 2832,
      "vio": 2833,
      "Banku": 2834,
      "ramofo": 2835,
      "bibinii": 2836,
      "aberewa": 2837,
      "Dwadini": 2838,
      "Aberante": 2839,
      "kɔɔpoo": 2840,
      "nkaafo": 2841,
      "Kyɛnsee": 2842,
      "specs": 2843,
      "Mpanyinfo": 2844,
      "ahoɔfɛ": 2845,
      "urtains": 2846,
      "African": 2847,
      "Didi": 2848,
      "Light": 2849,
      "Afa": 2850,
      "Akete": 2851,
      "Ahen": 2852,
      "Cup": 2853,
      "Dɔ": 2854,
      "Kɔɔ": 2855,
      "Mi": 2856,
      "Maa": 2857,
      "Nan": 2858,
      "Ndzɛmba": 2859,
      "Nkyɛnsee": 2860,
      "Ntar": 2861,
      "Okita": 2862,
      "Tee": 2863,
      "Wasɔ": 2864,
      "awhe": 2865,
      "edu": 2866,
      "ebue": 2867,
      "ekutu": 2868,
      "haa": 2869,
      "lab": 2870,
      "mber": 2871,
      "mbenyinfo": 2872,
      "nkɔkɔɔ": 2873,
      "nneɛ": 2874,
      "nɛɛseni": 2875,
      "of": 2876,
      "swimming": 2877,
      "trak": 2878,
      "y3": 2879,
      "yahyehyɛ": 2880,
      "Ɔso": 2881,
      "Ɔman": 2882,
      "Ɔpanyin": 2883,
      "Ɔsrani": 2884,
      "Ɛmaa": 2885,
      "Ɛkoro": 2886,
      "ɔkoto": 2887,
      "ɛti": 2888,
      "ɛsan": 2889,
      "ɛbɛyɛ": 2890,
      "ɛsrɛ": 2891,
      "wɔpɛ": 2892,
      "wɔatu": 2893,
      "wɔapenti": 2894,
      "nanso": 2895,
      "nakyi": 2896,
      "angwa": 2897,
      "rewa": 2898,
      "refo": 2899,
      "resu": 2900,
      "resesa": 2901,
      "sion": 2902,
      "sikakɔkɔɔ": 2903,
      "teaseanam": 2904,
      "mas": 2905,
      "kon": 2906,
      "wɔnsa": 2907,
      "atɔso": 2908,
      "honin": 2909,
      "par": 2910,
      "niɛ": 2911,
      "abbage": 2912,
      "kul": 2913,
      "finn": 2914,
      "robot": 2915,
      "sumiɛ": 2916,
      "Wɔkuta": 2917,
      "Wɔasosɔ": 2918,
      "bɔn": 2919,
      "akyia": 2920,
      "tokuro": 2921,
      "diffe": 2922,
      "fua": 2923,
      "amma": 2924,
      "bow": 2925,
      "tir": 2926,
      "ɛnhyɛ": 2927,
      "ɔretwe": 2928,
      "ɔretwi": 2929,
      "mogya": 2930,
      "memen": 2931,
      "soronko": 2932,
      "kel": 2933,
      "nanbea": 2934,
      "ɛretwi": 2935,
      "abow": 2936,
      "aborɔbɛ": 2937,
      "atwahyia": 2938,
      "levi": 2939,
      "nkruma": 2940,
      "bankye": 2941,
      "Nkwaraa": 2942,
      "ekyire": 2943,
      "fɛw": 2944,
      "dɛtse": 2945,
      "Aboɔ": 2946,
      "pear": 2947,
      "Mmɔframma": 2948,
      "dukuu": 2949,
      "Abrante": 2950,
      "raase": 2951,
      "egum": 2952,
      "twerɛeɛ": 2953,
      "bɛsi": 2954,
      "bɛhwɛ": 2955,
      "pɔɔto": 2956,
      "atuu": 2957,
      "abusua": 2958,
      "gyan": 2959,
      "Kaal": 2960,
      "Carpet": 2961,
      "Bowl": 2962,
      "Adansifoɔ": 2963,
      "bags": 2964,
      "Bucket": 2965,
      "Kuruwa": 2966,
      "Mfoni": 2967,
      "akwantu": 2968,
      "amoamoa": 2969,
      "kwabo": 2970,
      "wɔtsenatsena": 2971,
      "resiesie": 2972,
      "asɛesɛe": 2973,
      "ɛɛsefoɔ": 2974,
      "Sogyafoɔ": 2975,
      "dambɔ": 2976,
      "gyaadze": 2977,
      "dumgya": 2978,
      "ronsan": 2979,
      "rahyɛbadwam": 2980,
      "kyale": 2981,
      "Abusuafoɔ": 2982,
      "yowa": 2983,
      "ship": 2984,
      "ɔkyerɛkyerɛnii": 2985,
      "Ahweneɛ": 2986,
      "ahenkyɛ": 2987,
      "Mbasiafo": 2988,
      "ffic": 2989,
      "asrafoɔ": 2990,
      "asɔɔtoo": 2991,
      "Nkae": 2992,
      "Ebusua": 2993,
      "kenkan": 2994,
      "USA": 2995,
      "Anyinam": 2996,
      "jeans": 2997,
      "nyansa": 2998,
      "ahoɔfɛfoɔ": 2999,
      "Kɔɔpo": 3000,
      "Ata": 3001,
      "Ahe": 3002,
      "Akyerɛkyerɛ": 3003,
      "Akutu": 3004,
      "Bɔtɔ": 3005,
      "Besiaba": 3006,
      "Edziban": 3007,
      "Ikor": 3008,
      "Kɔn": 3009,
      "Kyin": 3010,
      "Kyerɛ": 3011,
      "Mboa": 3012,
      "Mberantiɛ": 3013,
      "Ntadeɛ": 3014,
      "Otum": 3015,
      "Wabɔ": 3016,
      "Wahyɛ": 3017,
      "Wei": 3018,
      "abaasa": 3019,
      "asum": 3020,
      "ahɔho": 3021,
      "cu": 3022,
      "cam": 3023,
      "cement": 3024,
      "canopy": 3025,
      "cabinet": 3026,
      "dwu": 3027,
      "edan": 3028,
      "ear": 3029,
      "fan": 3030,
      "flaa": 3031,
      "glaase": 3032,
      "im": 3033,
      "kɛn": 3034,
      "ld": 3035,
      "lɛt": 3036,
      "nwom": 3037,
      "nwhiren": 3038,
      "ndzɛma": 3039,
      "nhyiamu": 3040,
      "pro": 3041,
      "spɛs": 3042,
      "tre": 3043,
      "tri": 3044,
      "tree": 3045,
      "twɛ": 3046,
      "wc": 3047,
      "ɔnn": 3048,
      "ɔama": 3049,
      "ɔbɛ": 3050,
      "ɔpanin": 3051,
      "ɛkura": 3052,
      "ɛkasa": 3053,
      "ɛwom": 3054,
      "ɛkata": 3055,
      "wɔma": 3056,
      "wɔsa": 3057,
      "wɔdzi": 3058,
      "wɔasisi": 3059,
      "wɔakyekyere": 3060,
      "yɛaka": 3061,
      "yiwa": 3062,
      "yikyerɛ": 3063,
      "sode": 3064,
      "socks": 3065,
      "ret": 3066,
      "reforo": 3067,
      "repae": 3068,
      "nenkyɛn": 3069,
      "hyɛma": 3070,
      "foo": 3071,
      "kɔnk": 3072,
      "pai": 3073,
      "nibea": 3074,
      "beako": 3075,
      "sene": 3076,
      "fin": 3077,
      "enyinam": 3078,
      "aha": 3079,
      "tafo": 3080,
      "Wɔmo": 3081,
      "Wɔkura": 3082,
      "Wɔresa": 3083,
      "bɔnten": 3084,
      "guar": 3085,
      "dow": 3086,
      "doma": 3087,
      "tos": 3088,
      "toman": 3089,
      "Nana": 3090,
      "fugu": 3091,
      "wɔrenom": 3092,
      "wɔrepia": 3093,
      "wɔretwɛn": 3094,
      "wer": 3095,
      "wera": 3096,
      "ahondze": 3097,
      "rant": 3098,
      "ataasia": 3099,
      "ɔresi": 3100,
      "ɔrepia": 3101,
      "ɔrehohoro": 3102,
      "frafra": 3103,
      "moma": 3104,
      "wogu": 3105,
      "woesiesie": 3106,
      "akondwa": 3107,
      "adwene": 3108,
      "mmarahyɛbadwa": 3109,
      "Ebibifo": 3110,
      "kere": 3111,
      "ɛretu": 3112,
      "ɛɛɛ": 3113,
      "tweneɛ": 3114,
      "mfiri": 3115,
      "mpae": 3116,
      "ntokua": 3117,
      "ntommire": 3118,
      "nkron": 3119,
      "akuw": 3120,
      "twam": 3121,
      "kaase": 3122,
      "mmaamua": 3123,
      "yinfo": 3124,
      "ator": 3125,
      "sradze": 3126,
      "asia": 3127,
      "rutwa": 3128,
      "tenabea": 3129,
      "asor": 3130,
      "ɔbaatan": 3131,
      "agokan": 3132,
      "kotow": 3133,
      "gyebea": 3134,
      "twerɛtwerɛ": 3135,
      "sɔfo": 3136,
      "card": 3137,
      "tirim": 3138,
      "Abammɔfoɔ": 3139,
      "mfonintwa": 3140,
      "fɛɛfɛw": 3141,
      "afuw": 3142,
      "abobɔbobɔ": 3143,
      "afɔ": 3144,
      "Beae": 3145,
      "adane": 3146,
      "Borɔ": 3147,
      "ayarehwɛ": 3148,
      "Akonwa": 3149,
      "bool": 3150,
      "Kurow": 3151,
      "hyire": 3152,
      "alɔn": 3153,
      "dadzepɔnkɔ": 3154,
      "kwadu": 3155,
      "lower": 3156,
      "Wonyinaa": 3157,
      "ahyehye": 3158,
      "benyini": 3159,
      "Polisifo": 3160,
      "wɔatow": 3161,
      "Sotɔɔ": 3162,
      "Sogyani": 3163,
      "plane": 3164,
      "plɛɛte": 3165,
      "trɔɔ": 3166,
      "andle": 3167,
      "chief": 3168,
      "Yɛahyehyɛ": 3169,
      "bammɔfoɔ": 3170,
      "Akwantufo": 3171,
      "gina": 3172,
      "redzidzi": 3173,
      "anaasɛ": 3174,
      "kuntunu": 3175,
      "mmufoɔ": 3176,
      "nhwehwɛmu": 3177,
      "Machine": 3178,
      "wɔtontɔn": 3179,
      "sakre": 3180,
      "afunumu": 3181,
      "adwiri": 3182,
      "Akɔkora": 3183,
      "drink": 3184,
      "akɔnneaba": 3185,
      "Book": 3186,
      "picture": 3187,
      "akuntunu": 3188,
      "laptɔp": 3189,
      "watch": 3190,
      "Akuafoɔ": 3191,
      "ctors": 3192,
      "ahobanmmɔ": 3193,
      "Didipono": 3194,
      "Ayɛ": 3195,
      "Afra": 3196,
      "Agya": 3197,
      "Asaa": 3198,
      "Ahɔho": 3199,
      "Bas": 3200,
      "Egua": 3201,
      "Efir": 3202,
      "Kan": 3203,
      "Mah": 3204,
      "Nnam": 3205,
      "Nnyipa": 3206,
      "Phone": 3207,
      "Ta": 3208,
      "Wokita": 3209,
      "Ze": 3210,
      "atete": 3211,
      "abibire": 3212,
      "asukuufoɔ": 3213,
      "accident": 3214,
      "cro": 3215,
      "che": 3216,
      "dwane": 3217,
      "enipa": 3218,
      "esuo": 3219,
      "edwumayɛfo": 3220,
      "faa": 3221,
      "fem": 3222,
      "gyɛ": 3223,
      "ls": 3224,
      "ly": 3225,
      "lpɔt": 3226,
      "ntsi": 3227,
      "nhaban": 3228,
      "ndur": 3229,
      "ntwerɛeɛ": 3230,
      "ori": 3231,
      "odzi": 3232,
      "ofura": 3233,
      "pri": 3234,
      "plas": 3235,
      "rwa": 3236,
      "sɛɛ": 3237,
      "tɔm": 3238,
      "trofoɔ": 3239,
      "und": 3240,
      "Ɛwɔ": 3241,
      "Ɛnam": 3242,
      "ɔgu": 3243,
      "ɔsɛ": 3244,
      "ɔdzi": 3245,
      "ɔsane": 3246,
      "ɔware": 3247,
      "ɛni": 3248,
      "ɛfu": 3249,
      "ɛboɔ": 3250,
      "ɛtoa": 3251,
      "ℇhyɛn": 3252,
      "wɔak": 3253,
      "wɔgu": 3254,
      "wɔaso": 3255,
      "sow": 3256,
      "anko": 3257,
      "anwo": 3258,
      "anwia": 3259,
      "rekye": 3260,
      "redua": 3261,
      "rekyerɛkyerɛ": 3262,
      "nekyi": 3263,
      "sign": 3264,
      "mae": 3265,
      "madeɛ": 3266,
      "muhu": 3267,
      "watwa": 3268,
      "water": 3269,
      "wabue": 3270,
      "akaa": 3271,
      "kɔdɔ": 3272,
      "patere": 3273,
      "bedwa": 3274,
      "abrante": 3275,
      "suit": 3276,
      "Wɔayɛ": 3277,
      "Wɔrebɔ": 3278,
      "dondo": 3279,
      "toɔ": 3280,
      "rɔɔ": 3281,
      "fundaka": 3282,
      "funnaka": 3283,
      "port": 3284,
      "Mmɛma": 3285,
      "wɔreka": 3286,
      "wɔretie": 3287,
      "wɔrehim": 3288,
      "taae": 3289,
      "bon": 3290,
      "bodan": 3291,
      "ebie": 3292,
      "nnyi": 3293,
      "nnwoma": 3294,
      "kyɛnku": 3295,
      "tikya": 3296,
      "tuntun": 3297,
      "ɛntoma": 3298,
      "ɔrema": 3299,
      "ɔresu": 3300,
      "ɔregye": 3301,
      "wogyinagyina": 3302,
      "adwabɔ": 3303,
      "Wɔnhyɛ": 3304,
      "mmarimma": 3305,
      "hanom": 3306,
      "Ebimo": 3307,
      "wɔdeda": 3308,
      "ɛrewɔ": 3309,
      "ɛresi": 3310,
      "ɛreba": 3311,
      "ɛreka": 3312,
      "ɛrekyerɛ": 3313,
      "ɛɛkɔ": 3314,
      "tetetete": 3315,
      "mfin": 3316,
      "nkramofoɔ": 3317,
      "pim": 3318,
      "pila": 3319,
      "apue": 3320,
      "apee": 3321,
      "mpaa": 3322,
      "mpɛn": 3323,
      "mpɔnkɔ": 3324,
      "mpenyimfo": 3325,
      "mfonyini": 3326,
      "ruw": 3327,
      "Biri": 3328,
      "adekorɔ": 3329,
      "mia": 3330,
      "dɛma": 3331,
      "obia": 3332,
      "aduan": 3333,
      "Abatoɔ": 3334,
      "hweneɛ": 3335,
      "mmoba": 3336,
      "akatawia": 3337,
      "Police": 3338,
      "atwene": 3339,
      "coal": 3340,
      "tirihwi": 3341,
      "ɛsiesie": 3342,
      "afee": 3343,
      "dɔeɛ": 3344,
      "llar": 3345,
      "amema": 3346,
      "amanfo": 3347,
      "Nyipa": 3348,
      "ing": 3349,
      "ɔbaakofoɔ": 3350,
      "ayaresa": 3351,
      "muafoɔ": 3352,
      "asosɔsosɔ": 3353,
      "ɔɔta": 3354,
      "Mfonyin": 3355,
      "ayiyi": 3356,
      "brella": 3357,
      "nyeɛma": 3358,
      "dumgyafoɔ": 3359,
      "wɔɔhwɛ": 3360,
      "kotafo": 3361,
      "Dwam": 3362,
      "buafo": 3363,
      "grin": 3364,
      "Asrafo": 3365,
      "angoa": 3366,
      "hy3": 3367,
      "ahahanmono": 3368,
      "Amamfoɔ": 3369,
      "Anwea": 3370,
      "kerchief": 3371,
      "fɛɛfɛɛfɛw": 3372,
      "mbɔframba": 3373,
      "kotani": 3374,
      "besiaba": 3375,
      "cav": 3376,
      "Addo": 3377,
      "silver": 3378,
      "Americ": 3379,
      "mfuturo": 3380,
      "fufuuo": 3381,
      "Asante": 3382,
      "jacket": 3383,
      "ampesie": 3384,
      "Abien": 3385,
      "differen": 3386,
      "Nkaefo": 3387,
      "Ahemfo": 3388,
      "kɔnkret": 3389,
      "Zebra": 3390,
      "''": 3391,
      ",.": 3392,
      "Asukuu": 3393,
      "Afuw": 3394,
      "Atadeɛ": 3395,
      "Curtains": 3396,
      "Fla": 3397,
      "Gyaa": 3398,
      "Galam": 3399,
      "Hɛn": 3400,
      "Kraman": 3401,
      "Kɔtɔ": 3402,
      "Lɔri": 3403,
      "Mpan": 3404,
      "Mfiri": 3405,
      "Nta": 3406,
      "Nsensan": 3407,
      "Nfonni": 3408,
      "Ro": 3409,
      "Tam": 3410,
      "ayewa": 3411,
      "apolisifo": 3412,
      "bro": 3413,
      "cal": 3414,
      "ction": 3415,
      "cabbage": 3416,
      "ep": 3417,
      "eyɛ": 3418,
      "eku": 3419,
      "esu": 3420,
      "eduane": 3421,
      "fɔ": 3422,
      "ffo": 3423,
      "fran": 3424,
      "fru": 3425,
      "ga": 3426,
      "hya": 3427,
      "kamera": 3428,
      "mbe": 3429,
      "mfrankaa": 3430,
      "mɛt": 3431,
      "mbrɛ": 3432,
      "ny": 3433,
      "nɔ": 3434,
      "nhyehyɛ": 3435,
      "ntɛm": 3436,
      "tr": 3437,
      "two": 3438,
      "wua": 3439,
      "Ɔtena": 3440,
      "Ɛfɔm": 3441,
      "Ɛmbaa": 3442,
      "ɔtwe": 3443,
      "ɛwo": 3444,
      "ɛbea": 3445,
      "ɛdua": 3446,
      "ɛkuta": 3447,
      "ɛtare": 3448,
      "wɔbu": 3449,
      "wɔtwa": 3450,
      "wɔkuta": 3451,
      "wɔgye": 3452,
      "wɔakyekyer": 3453,
      "wɔapagyapagya": 3454,
      "yɛasiesie": 3455,
      "bir": 3456,
      "bibre": 3457,
      "anwene": 3458,
      "rekyɛ": 3459,
      "rehwehwɛ": 3460,
      "retutu": 3461,
      "redum": 3462,
      "rekyea": 3463,
      "sifo": 3464,
      "sink": 3465,
      "dea": 3466,
      "tem": 3467,
      "komm": 3468,
      "koom": 3469,
      "muna": 3470,
      "wɔnmmo": 3471,
      "was": 3472,
      "wakɔ": 3473,
      "wakye": 3474,
      "wakoto": 3475,
      "akete": 3476,
      "fomma": 3477,
      "foon": 3478,
      "atre": 3479,
      "atue": 3480,
      "hoa": 3481,
      "honi": 3482,
      "hosuo": 3483,
      "hool": 3484,
      "hohor": 3485,
      "kɔpo": 3486,
      "pain": 3487,
      "bel": 3488,
      "yehu": 3489,
      "mmɔn": 3490,
      "fine": 3491,
      "fini": 3492,
      "enkyɛn": 3493,
      "ence": 3494,
      "room": 3495,
      "ahe": 3496,
      "ria": 3497,
      "tal": 3498,
      "tamu": 3499,
      "Wɔwɔ": 3500,
      "Wɔso": 3501,
      "Wɔsan": 3502,
      "Wɔatu": 3503,
      "anima": 3504,
      "aniwa": 3505,
      "bɔd": 3506,
      "bɔfo": 3507,
      "guan": 3508,
      "doa": 3509,
      "dom": 3510,
      "ton": 3511,
      "din": 3512,
      "dzan": 3513,
      "funuadaka": 3514,
      "amɔto": 3515,
      "wɔrekyɛ": 3516,
      "wɔretwi": 3517,
      "wɔresesa": 3518,
      "bor": 3519,
      "boat": 3520,
      "nnwuma": 3521,
      "nnɔte": 3522,
      "mmiiɛ": 3523,
      "tiatia": 3524,
      "ɛnte": 3525,
      "ɛnsee": 3526,
      "ɔredidi": 3527,
      "ɔrenoa": 3528,
      "ɔresre": 3529,
      "kiosk": 3530,
      "kap": 3531,
      "kawa": 3532,
      "kapɛt": 3533,
      "wode": 3534,
      "wodi": 3535,
      "woesi": 3536,
      "wokitsa": 3537,
      "akongua": 3538,
      "akonya": 3539,
      "asesa": 3540,
      "ɛsesa": 3541,
      "ɛresu": 3542,
      "ɛresua": 3543,
      "ɛredware": 3544,
      "ɛɛt": 3545,
      "ɛɛsa": 3546,
      "anoa": 3547,
      "ntoa": 3548,
      "apae": 3549,
      "bun": 3550,
      "bukyia": 3551,
      "Mmabaa": 3552,
      "Mmarimma": 3553,
      "Mmaayaa": 3554,
      "tsew": 3555,
      "abarimaa": 3556,
      "banner": 3557,
      "agbaa": 3558,
      "atosode": 3559,
      "nkokɔ": 3560,
      "Nkwa": 3561,
      "apɔ": 3562,
      "mpe": 3563,
      "mpata": 3564,
      "mpataa": 3565,
      "nkunim": 3566,
      "adesua": 3567,
      "adepam": 3568,
      "asaso": 3569,
      "bibiri": 3570,
      "ahabanmon": 3571,
      "Aboa": 3572,
      "sereɛ": 3573,
      "sereba": 3574,
      "hwiil": 3575,
      "mbabaawa": 3576,
      "adura": 3577,
      "asɔr": 3578,
      "mmom": 3579,
      "tablet": 3580,
      "mfimfinn": 3581,
      "laet": 3582,
      "guare": 3583,
      "kamara": 3584,
      "dɔɔ": 3585,
      "dɔteɛ": 3586,
      "paano": 3587,
      "paninmu": 3588,
      "bɔɔd": 3589,
      "koropɔɔto": 3590,
      "mmer": 3591,
      "Mmoframa": 3592,
      "eedi": 3593,
      "books": 3594,
      "traw": 3595,
      "tray": 3596,
      "traffic": 3597,
      "umbrella": 3598,
      "Nsutene": 3599,
      "braon": 3600,
      "Baage": 3601,
      "Nkorɔfokuo": 3602,
      "nkaeɛ": 3603,
      "ahyehɛ": 3604,
      "akotow": 3605,
      "Adesuafoɔ": 3606,
      "butuw": 3607,
      "redwane": 3608,
      "anyiwa": 3609,
      "Asaso": 3610,
      "ahwendze": 3611,
      "panels": 3612,
      "singlɛt": 3613,
      "Agoprama": 3614,
      "awotwe": 3615,
      "cupboard": 3616,
      "sononko": 3617,
      "hyw": 3618,
      "galamsee": 3619,
      "ɔrohwɛ": 3620,
      "robɛnto": 3621,
      "nkwanhyia": 3622,
      "shoe": 3623,
      "pɔtɔpɔtɔ": 3624,
      "Kyɛnse": 3625,
      "Mehunu": 3626,
      "Naaaa": 3627,
      "totorobɛnto": 3628,
      "nyimfa": 3629,
      "Funu": 3630,
      "drobe": 3631,
      "atsena": 3632,
      "nkakramba": 3633,
      "hann": 3634,
      "wardrobe": 3635,
      "bench": 3636,
      "fitafita": 3637,
      "kyinniiɛ": 3638,
      "shelves": 3639,
      "handkerchief": 3640,
      "ahomka": 3641,
      "violet": 3642,
      "Teebol": 3643,
      "trakta": 3644,
      "levision": 3645,
      "Atade": 3646,
      "paign": 3647,
      "tomantos": 3648,
      "Asaase": 3649,
      "Taxi": 3650,
      "kɔdɔkɔ": 3651,
      "Biribi": 3652,
      "America": 3653,
      "Asantehene": 3654,
      "different": 3655,
      "franka": 3656,
      ".,": 3657,
      "..": 3658,
      "3ne": 3659,
      "As": 3660,
      "Anko": 3661,
      "Asɛn": 3662,
      "Apɔ": 3663,
      "Asaw": 3664,
      "Air": 3665,
      "Atare": 3666,
      "Amaamefoɔ": 3667,
      "Akasamu": 3668,
      "Apolisifo": 3669,
      "Bɔɔ": 3670,
      "Dz": 3671,
      "Efi": 3672,
      "Edwa": 3673,
      "Gu": 3674,
      "La": 3675,
      "Mu": 3676,
      "Man": 3677,
      "Mbanyin": 3678,
      "Mbɛɛma": 3679,
      "Mpoma": 3680,
      "Mborɔfo": 3681,
      "Nsɛm": 3682,
      "Nur": 3683,
      "Nwhiren": 3684,
      "Okura": 3685,
      "Owura": 3686,
      "Pata": 3687,
      "Skul": 3688,
      "Ti": 3689,
      "Tu": 3690,
      "Tse": 3691,
      "afam": 3692,
      "dwan": 3693,
      "dɔn": 3694,
      "dwi": 3695,
      "dame": 3696,
      "drobɛn": 3697,
      "ele": 3698,
      "efura": 3699,
      "flower": 3700,
      "glas": 3701,
      "irs": 3702,
      "ibra": 3703,
      "katakata": 3704,
      "lɔ": 3705,
      "lɔn": 3706,
      "lambɔ": 3707,
      "lmɛt": 3708,
      "mbofra": 3709,
      "mbɛɛma": 3710,
      "mbuukuu": 3711,
      "nsi": 3712,
      "nwea": 3713,
      "nyaa": 3714,
      "ntere": 3715,
      "ndaadze": 3716,
      "ona": 3717,
      "onipa": 3718,
      "ogya": 3719,
      "okuta": 3720,
      "oridzi": 3721,
      "obronin": 3722,
      "pani": 3723,
      "rfo": 3724,
      "rse": 3725,
      "stee": 3726,
      "th": 3727,
      "tto": 3728,
      "trɛ": 3729,
      "vo": 3730,
      "Ɔkraman": 3731,
      "Ɛnipa": 3732,
      "Ɛda": 3733,
      "Ɛpon": 3734,
      "Ɛhɛn": 3735,
      "ɔkor": 3736,
      "ɔahyehyɛ": 3737,
      "ɔpapa": 3738,
      "ɔpanyin": 3739,
      "ɔbɛrima": 3740,
      "ɛd": 3741,
      "ɛs": 3742,
      "ɛtu": 3743,
      "ɛtɔn": 3744,
      "ɛgye": 3745,
      "ɛtwerɛ": 3746,
      "ɛhɛn": 3747,
      "wɔyi": 3748,
      "wɔdidi": 3749,
      "wɔnenam": 3750,
      "wɔfira": 3751,
      "wɔbɛn": 3752,
      "wɔsane": 3753,
      "yɛfo": 3754,
      "yɛtena": 3755,
      "nobi": 3756,
      "bike": 3757,
      "yimba": 3758,
      "sogyafoɔ": 3759,
      "refa": 3760,
      "renoa": 3761,
      "rehohoro": 3762,
      "retwɛn": 3763,
      "nenim": 3764,
      "sirwa": 3765,
      "dem": 3766,
      "der": 3767,
      "dede": 3768,
      "map": 3769,
      "mampanin": 3770,
      "yinaa": 3771,
      "wadan": 3772,
      "wapegya": 3773,
      "akasaa": 3774,
      "akaky": 3775,
      "foni": 3776,
      "baas": 3777,
      "baagi": 3778,
      "hodoɔ": 3779,
      "horow": 3780,
      "rateɛ": 3781,
      "part": 3782,
      "beenu": 3783,
      "beesia": 3784,
      "beans": 3785,
      "yerɛnkyɛm": 3786,
      "saf": 3787,
      "sesɛn": 3788,
      "tumm": 3789,
      "tutum": 3790,
      "mmɛn": 3791,
      "mmɛma": 3792,
      "kum": 3793,
      "fidi": 3794,
      "round": 3795,
      "tase": 3796,
      "Wɔtɔn": 3797,
      "Wɔasɔ": 3798,
      "Wɔabue": 3799,
      "Wɔadua": 3800,
      "Wɔaboaboa": 3801,
      "gui": 3802,
      "dorɔ": 3803,
      "toku": 3804,
      "rɔn": 3805,
      "rɔkye": 3806,
      "basaa": 3807,
      "ballo": 3808,
      "Nam": 3809,
      "futu": 3810,
      "police": 3811,
      "wɔreko": 3812,
      "wɔredua": 3813,
      "wɔrenoa": 3814,
      "wɔredware": 3815,
      "taade": 3816,
      "bonto": 3817,
      "nnyɛma": 3818,
      "rɛse": 3819,
      "breegye": 3820,
      "nyinaaa": 3821,
      "dahɔ": 3822,
      "dawu": 3823,
      "tii": 3824,
      "tin": 3825,
      "titi": 3826,
      "ɛnum": 3827,
      "ɔreba": 3828,
      "ɔrekyerɛkyerɛ": 3829,
      "ɔretie": 3830,
      "ɔrehwie": 3831,
      "ɔrebisa": 3832,
      "dzewa": 3833,
      "moko": 3834,
      "wow": 3835,
      "wosi": 3836,
      "merɛ": 3837,
      "kyer": 3838,
      "kyew": 3839,
      "beaɛ": 3840,
      "asepatere": 3841,
      "ɛrehyɛ": 3842,
      "ɛretwe": 3843,
      "ɛrepia": 3844,
      "face": 3845,
      "mfitam": 3846,
      "ntom": 3847,
      "ntoos": 3848,
      "nkr": 3849,
      "nkramofo": 3850,
      "buk": 3851,
      "bul": 3852,
      "buu": 3853,
      "Maamefo": 3854,
      "Mmarimaa": 3855,
      "Mmaayiwa": 3856,
      "mmaayaafi": 3857,
      "sɛs": 3858,
      "arden": 3859,
      "low": 3860,
      "akokɔangua": 3861,
      "akokɔangoa": 3862,
      "Nkruma": 3863,
      "apron": 3864,
      "apple": 3865,
      "dzibea": 3866,
      "mpenyinfo": 3867,
      "agum": 3868,
      "kɔntena": 3869,
      "nurse": 3870,
      "ruction": 3871,
      "ntamu": 3872,
      "ntareɛ": 3873,
      "afie": 3874,
      "tɔnfoɔ": 3875,
      "milk": 3876,
      "nnuadan": 3877,
      "Aborɔsan": 3878,
      "pete": 3879,
      "papabi": 3880,
      "ahwehwɛenyiwa": 3881,
      "many": 3882,
      "huru": 3883,
      "sɔfi": 3884,
      "afahyɛ": 3885,
      "bɛka": 3886,
      "hin": 3887,
      "skɛt": 3888,
      "aturu": 3889,
      "ahomatrofoɔ": 3890,
      "vel": 3891,
      "Nipadodoɔ": 3892,
      "nkɔla": 3893,
      "bɔɔdo": 3894,
      "bɔɔla": 3895,
      "nnade": 3896,
      "atwerɛtwerɛ": 3897,
      "ɔson": 3898,
      "Boat": 3899,
      "wɔrotɔn": 3900,
      "woebue": 3901,
      "bebere": 3902,
      "ayarefo": 3903,
      "akit": 3904,
      "aberante": 3905,
      "Nnuro": 3906,
      "Wɔretu": 3907,
      "sinii": 3908,
      "struction": 3909,
      "abuebue": 3910,
      "dwere": 3911,
      "nohoaa": 3912,
      "atenetene": 3913,
      "benyimba": 3914,
      "plɛte": 3915,
      "Mpanimfo": 3916,
      "akeka": 3917,
      "afurafura": 3918,
      "reflɛ": 3919,
      "retwitwi": 3920,
      "Dwadibea": 3921,
      "ntakra": 3922,
      "condi": 3923,
      "aworɔ": 3924,
      "Mmoadoma": 3925,
      "Nnɔ": 3926,
      "etur": 3927,
      "nsɛntwerɛfoɔ": 3928,
      "reflectors": 3929,
      "kyakaky": 3930,
      "Nkɔla": 3931,
      "Sekan": 3932,
      "shop": 3933,
      "Apomuden": 3934,
      "Ahwedeɛ": 3935,
      "dɔtedan": 3936,
      "wɔakyerɛwkyerɛw": 3937,
      "ahenemma": 3938,
      "Kasamfonin": 3939,
      "Mpanyinfoɔ": 3940,
      "Ntokua": 3941,
      "Train": 3942,
      "lɛvi": 3943,
      "mehunu": 3944,
      "adɔkotafoɔ": 3945,
      "kɔmmuadeɛ": 3946,
      "amanyɔkuo": 3947,
      "Twerɛpono": 3948,
      "steps": 3949,
      "headpan": 3950,
      "Nketeesia": 3951,
      "mpapadan": 3952,
      "Ahwendze": 3953,
      "nkwalaa": 3954,
      "toys": 3955,
      "Ahenfo": 3956,
      "Otumfoɔ": 3957,
      "campaign": 3958,
      "twɛdeɛ": 3959,
      "rantsɛ": 3960,
      "print": 3961,
      "mpɛnsɛ": 3962,
      "cavator": 3963,
      "Asukuufo": 3964,
      "Galamsey": 3965,
      "Ntama": 3966,
      "Apɔmuden": 3967,
      "Nurse": 3968,
      "party": 3969,
      "ballot": 3970,
      "mfitamfitaa": 3971,
      "kyakakyaka": 3972,
      "3w": 3973,
      "Ap": 3974,
      "Aku": 3975,
      "Adwuma": 3976,
      "Afiri": 3977,
      "Afunu": 3978,
      "Basa": 3979,
      "Chi": 3980,
      "Eyi": 3981,
      "Ehwɛ": 3982,
      "Ihwɛ": 3983,
      "Kye": 3984,
      "Kap": 3985,
      "Lo": 3986,
      "Mbɛrema": 3987,
      "No": 3988,
      "Nne": 3989,
      "Nti": 3990,
      "Nkwan": 3991,
      "Nhwehwɛ": 3992,
      "Nhoma": 3993,
      "Nwira": 3994,
      "Ogyina": 3995,
      "Sc": 3996,
      "Sto": 3997,
      "Sol": 3998,
      "Store": 3999,
      "Tɔ": 4000,
      "Tru": 4001,
      "ay": 4002,
      "apon": 4003,
      "apia": 4004,
      "awuraba": 4005,
      "awɔtwe": 4006,
      "cra": 4007,
      "cake": 4008,
      "candle": 4009,
      "drum": 4010,
      "ebe": 4011,
      "ewia": 4012,
      "eduaba": 4013,
      "fr": 4014,
      "fro": 4015,
      "gan": 4016,
      "gas": 4017,
      "galɔn": 4018,
      "garden": 4019,
      "ibinom": 4020,
      "ju": 4021,
      "mban": 4022,
      "mbesia": 4023,
      "mfuw": 4024,
      "mɛko": 4025,
      "nyia": 4026,
      "nwo": 4027,
      "ntete": 4028,
      "nkyerɛkyerɛ": 4029,
      "nyɔ": 4030,
      "owia": 4031,
      "offi": 4032,
      "pter": 4033,
      "penti": 4034,
      "rsa": 4035,
      "sro": 4036,
      "sle": 4037,
      "sake": 4038,
      "ssing": 4039,
      "spɛɛse": 4040,
      "tɛn": 4041,
      "traa": 4042,
      "wy": 4043,
      "wɛn": 4044,
      "Ɔtɔn": 4045,
      "Ɔyarefoɔ": 4046,
      "Ɔbeako": 4047,
      "Ɛfam": 4048,
      "Ɛmmaa": 4049,
      "Ɛmmeranteɛ": 4050,
      "ɔbi": 4051,
      "ɔfo": 4052,
      "ɔta": 4053,
      "ɔkye": 4054,
      "ɔkwan": 4055,
      "ɔabɔ": 4056,
      "ɔtwa": 4057,
      "ɔɔyɛ": 4058,
      "ɔfura": 4059,
      "ɔhye": 4060,
      "ɔkeka": 4061,
      "ɛyi": 4062,
      "ɛnn": 4063,
      "ɛkɔn": 4064,
      "ɛtwere": 4065,
      "ɛkro": 4066,
      "Ↄbarima": 4067,
      "wɔsi": 4068,
      "wɔani": 4069,
      "wɔfa": 4070,
      "wɔagye": 4071,
      "wɔatena": 4072,
      "wɔkutakuta": 4073,
      "wɔafira": 4074,
      "wɔatutu": 4075,
      "yɛdi": 4076,
      "nana": 4077,
      "naaa": 4078,
      "naaaa": 4079,
      "noma": 4080,
      "bio": 4081,
      "biibi": 4082,
      "yiyi": 4083,
      "yimfoɔ": 4084,
      "aana": 4085,
      "anwa": 4086,
      "ansa": 4087,
      "anyo": 4088,
      "rete": 4089,
      "reko": 4090,
      "reda": 4091,
      "reboa": 4092,
      "resre": 4093,
      "rehwie": 4094,
      "nem": 4095,
      "new": 4096,
      "siaba": 4097,
      "tebel": 4098,
      "muu": 4099,
      "mukaase": 4100,
      "nsoɔ": 4101,
      "wayi": 4102,
      "wasi": 4103,
      "wasa": 4104,
      "wagya": 4105,
      "wasan": 4106,
      "wadwo": 4107,
      "fow": 4108,
      "raw": 4109,
      "nia": 4110,
      "beree": 4111,
      "besie": 4112,
      "bebia": 4113,
      "yea": 4114,
      "sae": 4115,
      "sal": 4116,
      "sar": 4117,
      "sare": 4118,
      "sakora": 4119,
      "ser": 4120,
      "sera": 4121,
      "sesaw": 4122,
      "sert": 4123,
      "mmɛ": 4124,
      "mman": 4125,
      "abam": 4126,
      "abrɛ": 4127,
      "abrosan": 4128,
      "abash": 4129,
      "kuhaa": 4130,
      "enten": 4131,
      "ennua": 4132,
      "engi": 4133,
      "roba": 4134,
      "roplane": 4135,
      "ahama": 4136,
      "rist": 4137,
      "sundze": 4138,
      "tai": 4139,
      "taxi": 4140,
      "dantia": 4141,
      "Wɔne": 4142,
      "Wɔkurakura": 4143,
      "Wɔsane": 4144,
      "Wɔresaw": 4145,
      "doeɛ": 4146,
      "dorobɛn": 4147,
      "torɔ": 4148,
      "totɔ": 4149,
      "tontɔn": 4150,
      "fun": 4151,
      "poly": 4152,
      "Mmrɔfo": 4153,
      "Mmenyinfo": 4154,
      "wɔrewɔ": 4155,
      "wɔrehyɛ": 4156,
      "wɔrekan": 4157,
      "wɔrehwehwɛ": 4158,
      "wɔrekyerɛw": 4159,
      "taataa": 4160,
      "taaboo": 4161,
      "wele": 4162,
      "nnyɛ": 4163,
      "nnɔtedan": 4164,
      "rɛd": 4165,
      "rantse": 4166,
      "mmia": 4167,
      "ɔren": 4168,
      "ɔrewɔ": 4169,
      "ɔrenom": 4170,
      "kiri": 4171,
      "kiki": 4172,
      "mor": 4173,
      "mona": 4174,
      "motto": 4175,
      "wote": 4176,
      "wobe": 4177,
      "wotu": 4178,
      "wokura": 4179,
      "woenya": 4180,
      "kyee": 4181,
      "ɛwɔm": 4182,
      "hammer": 4183,
      "tent": 4184,
      "tennis": 4185,
      "asesɛ": 4186,
      "asepaa": 4187,
      "asane": 4188,
      "asaka": 4189,
      "ɛregu": 4190,
      "ɛretɔ": 4191,
      "ɛretɔn": 4192,
      "ɛrebɛ": 4193,
      "ɛrenante": 4194,
      "ɛresre": 4195,
      "ɛɛhyɛ": 4196,
      "ɛɛdi": 4197,
      "wii": 4198,
      "atwam": 4199,
      "gyafo": 4200,
      "mpam": 4201,
      "ntomi": 4202,
      "ntokuro": 4203,
      "apampaa": 4204,
      "nkra": 4205,
      "nkataa": 4206,
      "nsuomu": 4207,
      "piano": 4208,
      "pinkyen": 4209,
      "pillar": 4210,
      "ababaa": 4211,
      "abasa": 4212,
      "abammɔfoɔ": 4213,
      "lon": 4214,
      "apɔtɔ": 4215,
      "mpɔn": 4216,
      "mpem": 4217,
      "mpenyin": 4218,
      "nkurofoɔ": 4219,
      "fɛfɛɛ": 4220,
      "mfonyi": 4221,
      "nunu": 4222,
      "rutu": 4223,
      "lia": 4224,
      "ning": 4225,
      "adehwɛ": 4226,
      "Papabi": 4227,
      "afiase": 4228,
      "tɔnfo": 4229,
      "tɔnbea": 4230,
      "ketekete": 4231,
      "amamfoɔ": 4232,
      "miensa": 4233,
      "nuanom": 4234,
      "piita": 4235,
      "Aborɔfoɔ": 4236,
      "akɔkora": 4237,
      "dwumadzi": 4238,
      "pep": 4239,
      "pere": 4240,
      "asopiti": 4241,
      "asomadeɛ": 4242,
      "Nkokɔ": 4243,
      "Nkorofoɔ": 4244,
      "aduku": 4245,
      "manmufoɔ": 4246,
      "kotokuo": 4247,
      "mmorɔfo": 4248,
      "twerɛfo": 4249,
      "Obia": 4250,
      "Kotoku": 4251,
      "late": 4252,
      "afupɔnkɔ": 4253,
      "pɔtɔɔ": 4254,
      "nimfa": 4255,
      "afri": 4256,
      "kyɛnsedan": 4257,
      "dɔkotani": 4258,
      "Kaas": 4259,
      "sukuuni": 4260,
      "ɛsoso": 4261,
      "amannyɔ": 4262,
      "motocycle": 4263,
      "mmemm": 4264,
      "asisisisi": 4265,
      "Suneɛ": 4266,
      "Suhyɛn": 4267,
      "ɔnoa": 4268,
      "waahyɛ": 4269,
      "aben": 4270,
      "Akokɔ": 4271,
      "Akwaraa": 4272,
      "osifoɔ": 4273,
      "tery": 4274,
      "Kun": 4275,
      "hyeɛ": 4276,
      "nnoe": 4277,
      "nnodoeɛ": 4278,
      "Wɔrehyehyɛ": 4279,
      "atetare": 4280,
      "ɛhohoro": 4281,
      "korabea": 4282,
      "abofraba": 4283,
      "Abofraba": 4284,
      "mmeaeɛ": 4285,
      "olu": 4286,
      "Wim": 4287,
      "nketse": 4288,
      "dodoe": 4289,
      "adwumayɛfo": 4290,
      "adwumayɛni": 4291,
      "kyerɛwfo": 4292,
      "ahuro": 4293,
      "woridzidzi": 4294,
      "srɛsrɛ": 4295,
      "bronii": 4296,
      "bowls": 4297,
      "asaawa": 4298,
      "Nkrɔfokuw": 4299,
      "trɔtrɔ": 4300,
      "Kyim": 4301,
      "agyananbea": 4302,
      "paep": 4303,
      "ronya": 4304,
      "retwitwa": 4305,
      "kootu": 4306,
      "kootaa": 4307,
      "kooti": 4308,
      "mbɔdambɔ": 4309,
      "dzendzen": 4310,
      "adwadifoɔ": 4311,
      "nsuomnam": 4312,
      "nsuomhyɛn": 4313,
      "nyama": 4314,
      "wɔredzidzi": 4315,
      "Ɔkyerɛkyerɛnii": 4316,
      "mfuiɛ": 4317,
      "repiapia": 4318,
      "over": 4319,
      "kuntu": 4320,
      "kuntun": 4321,
      "Aberewa": 4322,
      "krofon": 4323,
      "etua": 4324,
      "flags": 4325,
      "battery": 4326,
      "worisi": 4327,
      "amuna": 4328,
      "borɔde": 4329,
      "Kurom": 4330,
      "Amamfo": 4331,
      "afraba": 4332,
      "Ntaade": 4333,
      "Ntaadeɛ": 4334,
      "bruu": 4335,
      "frɔeɛ": 4336,
      "gyitaa": 4337,
      "siilin": 4338,
      "asanka": 4339,
      "atweredeɛ": 4340,
      "nsem": 4341,
      "Mbabaawa": 4342,
      "bɛɛmua": 4343,
      "sakasaka": 4344,
      "ahenema": 4345,
      "apeenti": 4346,
      "Tema": 4347,
      "Teaseɛnam": 4348,
      "Tractor": 4349,
      "penke": 4350,
      "ɛkoɔ": 4351,
      "ɛbɛbɔ": 4352,
      "aeroplane": 4353,
      "hwaet": 4354,
      "truck": 4355,
      "kurukuruwa": 4356,
      "Ahome": 4357,
      "bottles": 4358,
      "Computer": 4359,
      "Twerɛdua": 4360,
      "abɔdwesɛ": 4361,
      "mpɔboa": 4362,
      "Books": 4363,
      "mfutukwan": 4364,
      "bridge": 4365,
      "ahomeka": 4366,
      "wimuhyɛn": 4367,
      "Ahwenneɛ": 4368,
      "Panyin": 4369,
      "tyre": 4370,
      "temammufoɔ": 4371,
      "Atɛkyɛ": 4372,
      "Kwame": 4373,
      "Cupboard": 4374,
      "Mienu": 4375,
      "awheniɛ": 4376,
      "park": 4377,
      "akwantufoɔ": 4378,
      "nyansapɛ": 4379,
      "Kɔɔpoo": 4380,
      "Akyerɛkyerɛfoɔ": 4381,
      "flaage": 4382,
      "mmarahyɛbadwafie": 4383,
      "Basket": 4384,
      "waterme": 4385,
      "bedwafie": 4386,
      "dɛmara": 4387,
      "Gyaade": 4388,
      "Mpanyimfo": 4389,
      "calabash": 4390,
      "ekuraase": 4391,
      "fruit": 4392,
      "sinkran": 4393,
      "mmɔntene": 4394,
      "amɔtoam": 4395,
      "frankae": 4396,
      "Ankorɛ": 4397,
      "Tseaseanam": 4398,
      "dwerebɛɛ": 4399,
      "condition": 4400,
      "Basabasa": 4401,
      "Lorry": 4402,
      "Solar": 4403,
      "office": 4404,
      "sakere": 4405,
      "ristmas": 4406,
      "polyt": 4407,
      "ntomire": 4408,
      "3pono": 4409,
      "Agyina": 4410,
      "Ani": 4411,
      "Afi": 4412,
      "Agu": 4413,
      "Asie": 4414,
      "Afir": 4415,
      "Asuafoɔ": 4416,
      "Apɔw": 4417,
      "Amona": 4418,
      "Bɔ": 4419,
      "Cha": 4420,
      "Con": 4421,
      "Dwabɔ": 4422,
      "Ebaasa": 4423,
      "Efuw": 4424,
      "Ewiemuhyɛn": 4425,
      "Fa": 4426,
      "Flag": 4427,
      "Famu": 4428,
      "Gya": 4429,
      "Glass": 4430,
      "Ger": 4431,
      "Gaana": 4432,
      "Hyɛma": 4433,
      "Ki": 4434,
      "Kyɛ": 4435,
      "Kar": 4436,
      "Kakra": 4437,
      "Mb": 4438,
      "Mbenyin": 4439,
      "Nnan": 4440,
      "Ntɔ": 4441,
      "Ngo": 4442,
      "Nnwoma": 4443,
      "Nkoraa": 4444,
      "Nose": 4445,
      "Ndzɛma": 4446,
      "Osei": 4447,
      "Odumgya": 4448,
      "Plate": 4449,
      "Rɔba": 4450,
      "Sa": 4451,
      "Spe": 4452,
      "Shi": 4453,
      "Tete": 4454,
      "UN": 4455,
      "Waa": 4456,
      "Wayɛ": 4457,
      "Wapagya": 4458,
      "Wafura": 4459,
      "agyinagyina": 4460,
      "ayowa": 4461,
      "bab": 4462,
      "bati": 4463,
      "ct": 4464,
      "ds": 4465,
      "dwen": 4466,
      "ex": 4467,
      "ehwɛ": 4468,
      "etwi": 4469,
      "edwumayɛ": 4470,
      "etutu": 4471,
      "esum": 4472,
      "egwa": 4473,
      "egyan": 4474,
      "fri": 4475,
      "ffee": 4476,
      "gyia": 4477,
      "hata": 4478,
      "hɛɛ": 4479,
      "kam": 4480,
      "kane": 4481,
      "kwaa": 4482,
      "leɛ": 4483,
      "lɛte": 4484,
      "mani": 4485,
      "mdze": 4486,
      "mfe": 4487,
      "mbɛrema": 4488,
      "mboba": 4489,
      "nɛ": 4490,
      "nkye": 4491,
      "nfidie": 4492,
      "ndadeɛ": 4493,
      "nhwene": 4494,
      "nwusie": 4495,
      "nwera": 4496,
      "osu": 4497,
      "otwa": 4498,
      "ohonin": 4499,
      "pɔn": 4500,
      "rd": 4501,
      "ration": 4502,
      "spi": 4503,
      "she": 4504,
      "skuu": 4505,
      "sco": 4506,
      "snow": 4507,
      "tak": 4508,
      "the": 4509,
      "waame": 4510,
      "whɛ": 4511,
      "yuu": 4512,
      "Ɔwɔ": 4513,
      "Ɔda": 4514,
      "Ɔrehwɛ": 4515,
      "Ɔpon": 4516,
      "Ɔnhyɛ": 4517,
      "Ɔfura": 4518,
      "Ɔmmu": 4519,
      "Ɔsɔfo": 4520,
      "Ɛɛ": 4521,
      "Ɛne": 4522,
      "Ɛdua": 4523,
      "Ɛban": 4524,
      "Ɛtam": 4525,
      "Ɛsono": 4526,
      "ɔbo": 4527,
      "ɔtete": 4528,
      "ɔwom": 4529,
      "ɔpɔnkɔ": 4530,
      "ɔpɛ": 4531,
      "ɔkyerɛkyerɛ": 4532,
      "ɔsensɛn": 4533,
      "ɔhen": 4534,
      "ɛha": 4535,
      "ɛneɛma": 4536,
      "ɛtwe": 4537,
      "ɛmmaa": 4538,
      "ɛdwa": 4539,
      "ɛtena": 4540,
      "ɛhɔnom": 4541,
      "ɛtuo": 4542,
      "ɛfira": 4543,
      "ɛwia": 4544,
      "ɛbɛn": 4545,
      "ɛfunu": 4546,
      "ɛfor": 4547,
      "ℇna": 4548,
      "ℇkor": 4549,
      "Ↄde": 4550,
      "wɔnom": 4551,
      "wɔmma": 4552,
      "wɔkoto": 4553,
      "wɔmmo": 4554,
      "wɔakyerɛ": 4555,
      "wɔfura": 4556,
      "wɔanya": 4557,
      "wɔapegya": 4558,
      "yɛɛ": 4559,
      "yɛsi": 4560,
      "yɛtɔn": 4561,
      "yɛaboa": 4562,
      "yɛabue": 4563,
      "yɛakyerɛw": 4564,
      "nanim": 4565,
      "non": 4566,
      "nomu": 4567,
      "bii": 4568,
      "biaa": 4569,
      "yifoɔ": 4570,
      "sofoɔ": 4571,
      "sodze": 4572,
      "sofa": 4573,
      "soasoa": 4574,
      "aase": 4575,
      "reb": 4576,
      "nel": 4577,
      "sim": 4578,
      "siw": 4579,
      "site": 4580,
      "siwa": 4581,
      "siamba": 4582,
      "siriwa": 4583,
      "dedam": 4584,
      "tetafo": 4585,
      "television": 4586,
      "kosow": 4587,
      "hyɛm": 4588,
      "hyɛmma": 4589,
      "nsono": 4590,
      "nsodeɛ": 4591,
      "wɔnyɛ": 4592,
      "wɔnyinaa": 4593,
      "watu": 4594,
      "wata": 4595,
      "waba": 4596,
      "wawu": 4597,
      "wabu": 4598,
      "wahyia": 4599,
      "wabobɔ": 4600,
      "wagye": 4601,
      "watwerɛ": 4602,
      "wafura": 4603,
      "wakata": 4604,
      "wabae": 4605,
      "waduro": 4606,
      "akua": 4607,
      "akwen": 4608,
      "akɛt": 4609,
      "foa": 4610,
      "foto": 4611,
      "foam": 4612,
      "baasia": 4613,
      "baanum": 4614,
      "baason": 4615,
      "atam": 4616,
      "hoo": 4617,
      "hole": 4618,
      "kɔkɔ": 4619,
      "kɔbe": 4620,
      "kɔntoa": 4621,
      "raffe": 4622,
      "paw": 4623,
      "paen": 4624,
      "bedwam": 4625,
      "betumi": 4626,
      "yewaa": 4627,
      "sel": 4628,
      "sew": 4629,
      "sepɛɛse": 4630,
      "sekel": 4631,
      "tua": 4632,
      "turo": 4633,
      "mmenyinfo": 4634,
      "abat": 4635,
      "fire": 4636,
      "filling": 4637,
      "enua": 4638,
      "rowɔ": 4639,
      "roto": 4640,
      "ahia": 4641,
      "rimba": 4642,
      "tag": 4643,
      "dansinkran": 4644,
      "Wɔatwa": 4645,
      "Wɔaka": 4646,
      "Wɔama": 4647,
      "Wɔfura": 4648,
      "Wɔasiesie": 4649,
      "Wɔatwerɛ": 4650,
      "Wɔresere": 4651,
      "Wɔkutakuta": 4652,
      "aniagye": 4653,
      "bɔdɔm": 4654,
      "akyikyiri": 4655,
      "dida": 4656,
      "bai": 4657,
      "bambɔ": 4658,
      "bayerɛ": 4659,
      "fuɔ": 4660,
      "amaame": 4661,
      "ambrɛ": 4662,
      "Mmenyin": 4663,
      "wɔresie": 4664,
      "wɔretutu": 4665,
      "wɔregoro": 4666,
      "taadeɛ": 4667,
      "taafoɔ": 4668,
      "taabow": 4669,
      "botum": 4670,
      "bolo": 4671,
      "wel": 4672,
      "reet": 4673,
      "nnhyɛ": 4674,
      "nnwera": 4675,
      "mmie": 4676,
      "hwɛbea": 4677,
      "tiona": 4678,
      "ɛnya": 4679,
      "ɛnnan": 4680,
      "ɔrebu": 4681,
      "ɔresua": 4682,
      "ɔrebɛ": 4683,
      "ɔrekyerɛw": 4684,
      "kase": 4685,
      "moe": 4686,
      "won": 4687,
      "woyi": 4688,
      "wofi": 4689,
      "wosua": 4690,
      "meeti": 4691,
      "yareɛ": 4692,
      "adɛ": 4693,
      "adwow": 4694,
      "mmari": 4695,
      "mmarahyɛbadwam": 4696,
      "ahyiamu": 4697,
      "ɛseɛ": 4698,
      "asɛɛ": 4699,
      "ketoa": 4700,
      "esin": 4701,
      "kyiakyia": 4702,
      "nantwi": 4703,
      "ɛrepra": 4704,
      "ɛretie": 4705,
      "ɛrekyia": 4706,
      "ɛɛsre": 4707,
      "win": 4708,
      "wien": 4709,
      "wisie": 4710,
      "fasuo": 4711,
      "hyehyɛhyehyɛ": 4712,
      "aboba": 4713,
      "abotan": 4714,
      "abonten": 4715,
      "kyerɛni": 4716,
      "duadua": 4717,
      "ntos": 4718,
      "ntoro": 4719,
      "bus": 4720,
      "bubu": 4721,
      "Mmarahyɛbadwa": 4722,
      "kaas": 4723,
      "kaafo": 4724,
      "Mmaabunu": 4725,
      "tseaseanam": 4726,
      "agba": 4727,
      "ɔdee": 4728,
      "Nkukuo": 4729,
      "nkosua": 4730,
      "Nkan": 4731,
      "Nkraman": 4732,
      "Nkramofo": 4733,
      "apake": 4734,
      "nkube": 4735,
      "nkuruwa": 4736,
      "aguam": 4737,
      "akyene": 4738,
      "lip": 4739,
      "lish": 4740,
      "Bia": 4741,
      "Papafo": 4742,
      "ketewaa": 4743,
      "amambra": 4744,
      "Aboronsan": 4745,
      "akɔforo": 4746,
      "baabia": 4747,
      "pers": 4748,
      "asomuadeɛ": 4749,
      "seresere": 4750,
      "rehwɛfoɔ": 4751,
      "agoru": 4752,
      "suadan": 4753,
      "emaa": 4754,
      "emfam": 4755,
      "gyeɛ": 4756,
      "pannel": 4757,
      "tsenabea": 4758,
      "geria": 4759,
      "mmɔframa": 4760,
      "husuo": 4761,
      "huhu": 4762,
      "nsum": 4763,
      "nsuhyɛn": 4764,
      "Nia": 4765,
      "Nigeria": 4766,
      "bɛma": 4767,
      "esiei": 4768,
      "hia": 4769,
      "tsiri": 4770,
      "cou": 4771,
      "mmɔfo": 4772,
      "twenebɔfoɔ": 4773,
      "Kolpɔt": 4774,
      "twiw": 4775,
      "afuru": 4776,
      "kandzea": 4777,
      "Ball": 4778,
      "ahyire": 4779,
      "pɛpɛɛ": 4780,
      "ɛntsɛn": 4781,
      "afemfam": 4782,
      "tsirnhwi": 4783,
      "abɔfraba": 4784,
      "dɔfo": 4785,
      "dɔdɔeɛ": 4786,
      "kitch": 4787,
      "Kaase": 4788,
      "ɛsono": 4789,
      "Nkurɔfokuw": 4790,
      "kyerɛkyerɛw": 4791,
      "ɔsoa": 4792,
      "mmerante": 4793,
      "tɛtrɛ": 4794,
      "wɛr": 4795,
      "woedua": 4796,
      "woehyiam": 4797,
      "nduadzewa": 4798,
      "kitiwaa": 4799,
      "sɛmɛnte": 4800,
      "Nyimpadɔm": 4801,
      "nyimpadɔm": 4802,
      "Buuku": 4803,
      "Buronyi": 4804,
      "ɔɔtwa": 4805,
      "ɔɔkasa": 4806,
      "hyihyɛ": 4807,
      "Mfonyini": 4808,
      "ahyɛnsode": 4809,
      "hwehwɛniwa": 4810,
      "tomato": 4811,
      "nwii": 4812,
      "ɛhoro": 4813,
      "strɔɔ": 4814,
      "statue": 4815,
      "street": 4816,
      "Aburo": 4817,
      "ɛkyire": 4818,
      "dwene": 4819,
      "dwemma": 4820,
      "atotototo": 4821,
      "Nkorɔfokuw": 4822,
      "kubedua": 4823,
      "Wimu": 4824,
      "nkawa": 4825,
      "ahyerɛn": 4826,
      "abɛtɔ": 4827,
      "katapila": 4828,
      "akansi": 4829,
      "nnɔbae": 4830,
      "butubutu": 4831,
      "ply": 4832,
      "motorbike": 4833,
      "Mpɔnkye": 4834,
      "wɔtenatena": 4835,
      "ɔrekɔdo": 4836,
      "Abaatan": 4837,
      "wɔadzi": 4838,
      "blackboard": 4839,
      "tsentsentsen": 4840,
      "Yɛtɔn": 4841,
      "hɛmba": 4842,
      "asɛnnibea": 4843,
      "placard": 4844,
      "ntwɛr": 4845,
      "adwam": 4846,
      "adwareɛ": 4847,
      "dwadibea": 4848,
      "Agor": 4849,
      "anamuna": 4850,
      "anaadɛ": 4851,
      "yoma": 4852,
      "construction": 4853,
      "ntem": 4854,
      "Ketewa": 4855,
      "Adzesuafo": 4856,
      "Nnɔte": 4857,
      "Nnɔtedan": 4858,
      "Sini": 4859,
      "Sika": 4860,
      "marker": 4861,
      "wɔretontɔn": 4862,
      "amuni": 4863,
      "pleeti": 4864,
      "Nkɔlaa": 4865,
      "Sebɔ": 4866,
      "pipes": 4867,
      "Nkyɛnsedan": 4868,
      "Ntaabodan": 4869,
      "efupɔnkɔ": 4870,
      "efundaka": 4871,
      "frɔyɛ": 4872,
      "abatiri": 4873,
      "mfinfinn": 4874,
      "Anɛɛsefoɔ": 4875,
      "nsesan": 4876,
      "puta": 4877,
      "wɔtsetse": 4878,
      "berantse": 4879,
      "nkaefo": 4880,
      "Fie": 4881,
      "Fidie": 4882,
      "Naaa": 4883,
      "mfeɛ": 4884,
      "mfɛnsee": 4885,
      "asrafo": 4886,
      "Nkaeɛ": 4887,
      "call": 4888,
      "akwaha": 4889,
      "asubɔnten": 4890,
      "boxing": 4891,
      "abutuw": 4892,
      "Ataare": 4893,
      "Ataadeɛ": 4894,
      "Amena": 4895,
      "ndɛtse": 4896,
      "mpɔtamu": 4897,
      "Atoyerɛnkyɛm": 4898,
      "wɔafurafura": 4899,
      "worutu": 4900,
      "pictures": 4901,
      "nfoni": 4902,
      "wimuhɛn": 4903,
      "obronii": 4904,
      "prɛtse": 4905,
      "wɔrebɛto": 4906,
      "kasakasa": 4907,
      "nkantan": 4908,
      "piece": 4909,
      "Amanyɔkuo": 4910,
      "Kɔmputa": 4911,
      "school": 4912,
      "nowhaa": 4913,
      "Aketesia": 4914,
      "Maami": 4915,
      "Nantwie": 4916,
      "atɔsodeɛ": 4917,
      "bɛhwɛade": 4918,
      "Mfonini": 4919,
      "Kɔnmuadeɛ": 4920,
      "agokansie": 4921,
      "trɔɔko": 4922,
      "Kandzea": 4923,
      "crossing": 4924,
      "ankorɛ": 4925,
      "temmuafoɔ": 4926,
      "finimfin": 4927,
      "apɔw": 4928,
      "Bɔɔlo": 4929,
      "Dza": 4930,
      "Gutter": 4931,
      "Laet": 4932,
      "nyaadoa": 4933,
      "wadane": 4934,
      "guitar": 4935,
      "beberebe": 4936,
      "Akuffo": 4937,
      "mbanyimba": 4938,
      "rsabea": 4939,
      "wyn": 4940,
      "wadwow": 4941,
      "enginee": 4942,
      "kiriti": 4943,
      "adehwɛpono": 4944,
      "pepper": 4945,
      "Ahomegyebea": 4946,
      "Basabasayɛ": 4947,
      "polythene": 4948,
      "Kiosk": 4949,
      "Ship": 4950,
      "ctric": 4951,
      "skuul": 4952,
      "pɛpɛɛpɛ": 4953,
      "kitchen": 4954,
      "'.": 4955,
      "))": 4956,
      "3n": 4957,
      "Ac": 4958,
      "Asu": 4959,
      "Ada": 4960,
      "Adua": 4961,
      "Apon": 4962,
      "Anim": 4963,
      "Abibire": 4964,
      "Asɛm": 4965,
      "Aduaba": 4966,
      "Accident": 4967,
      "Ayowa": 4968,
      "Ben": 4969,
      "Bako": 4970,
      "Benyi": 4971,
      "Bambɔ": 4972,
      "Basia": 4973,
      "Candle": 4974,
      "Dra": 4975,
      "Dri": 4976,
      "Dadze": 4977,
      "Ex": 4978,
      "Ena": 4979,
      "Ewiemhyɛn": 4980,
      "Efunu": 4981,
      "Flow": 4982,
      "Galɔn": 4983,
      "He": 4984,
      "Hyɛ": 4985,
      "In": 4986,
      "Ihu": 4987,
      "Ice": 4988,
      "Ju": 4989,
      "Ka": 4990,
      "Kr": 4991,
      "Laptɔ": 4992,
      "Mbaayewa": 4993,
      "Mpanin": 4994,
      "Mfidi": 4995,
      "Mberantse": 4996,
      "Ntere": 4997,
      "Nsrahwɛ": 4998,
      "Nwusie": 4999,
      "Nkaafo": 5000,
      "Odumgyafoɔ": 5001,
      "Odwan": 5002,
      "Pa": 5003,
      "Paa": 5004,
      "Pen": 5005,
      "Pad": 5006,
      "Par": 5007,
      "Pear": 5008,
      "Sak": 5009,
      "Sta": 5010,
      "Sam": 5011,
      "Tɛ": 5012,
      "Tea": 5013,
      "Wabobɔ": 5014,
      "Watene": 5015,
      "Zibra": 5016,
      "awa": 5017,
      "afoɔ": 5018,
      "asua": 5019,
      "awɔrehwɛ": 5020,
      "ammo": 5021,
      "awene": 5022,
      "apira": 5023,
      "cho": 5024,
      "cta": 5025,
      "came": 5026,
      "curtains": 5027,
      "drɔ": 5028,
      "dɛnt": 5029,
      "eb": 5030,
      "efra": 5031,
      "ewura": 5032,
      "ekuo": 5033,
      "etsi": 5034,
      "efira": 5035,
      "efom": 5036,
      "edware": 5037,
      "ewie": 5038,
      "fs": 5039,
      "fas": 5040,
      "fence": 5041,
      "gles": 5042,
      "gɔta": 5043,
      "itum": 5044,
      "iti": 5045,
      "iron": 5046,
      "iling": 5047,
      "iPad": 5048,
      "kta": 5049,
      "kaba": 5050,
      "kahyire": 5051,
      "kɛntsɛn": 5052,
      "lt": 5053,
      "lkyɛɛ": 5054,
      "mɛ": 5055,
      "mbea": 5056,
      "mhyɛn": 5057,
      "mfa": 5058,
      "maako": 5059,
      "mpi": 5060,
      "mbu": 5061,
      "mbɛn": 5062,
      "mbesi": 5063,
      "mɔɔta": 5064,
      "ndz": 5065,
      "npo": 5066,
      "nda": 5067,
      "nsan": 5068,
      "nkete": 5069,
      "nsen": 5070,
      "nyɛn": 5071,
      "nwhi": 5072,
      "nwene": 5073,
      "nɛɛse": 5074,
      "nhwen": 5075,
      "nɛteɛ": 5076,
      "nyɔnko": 5077,
      "nbenyini": 5078,
      "nhweneɛ": 5079,
      "od": 5080,
      "obe": 5081,
      "otum": 5082,
      "odu": 5083,
      "osogyani": 5084,
      "odumgya": 5085,
      "orutwa": 5086,
      "pak": 5087,
      "pho": 5088,
      "pea": 5089,
      "pue": 5090,
      "pɛkyɛ": 5091,
      "pake": 5092,
      "que": 5093,
      "rk": 5094,
      "sto": 5095,
      "swea": 5096,
      "stɛ": 5097,
      "spɛɛ": 5098,
      "sci": 5099,
      "spɛt": 5100,
      "sakit": 5101,
      "ttle": 5102,
      "uta": 5103,
      "vs": 5104,
      "wwɔ": 5105,
      "wɛɛ": 5106,
      "ys": 5107,
      "yum": 5108,
      "yhɛ": 5109,
      "yles": 5110,
      "Ɔne": 5111,
      "Ɔba": 5112,
      "Ɔbia": 5113,
      "Ɔfira": 5114,
      "Ɔyare": 5115,
      "Ɔtɛm": 5116,
      "Ɛfa": 5117,
      "Ɛsan": 5118,
      "Ɛnua": 5119,
      "Ɛmmoa": 5120,
      "ɔk": 5121,
      "ɔkɔ": 5122,
      "ɔya": 5123,
      "ɔhe": 5124,
      "ɔsɔ": 5125,
      "ɔkoro": 5126,
      "ɔfira": 5127,
      "ɔbɛn": 5128,
      "ɔkata": 5129,
      "ɔatsen": 5130,
      "ɔyere": 5131,
      "ɔyare": 5132,
      "ɔbeako": 5133,
      "ɔhyw": 5134,
      "ɛto": 5135,
      "ɛtaa": 5136,
      "ɛboa": 5137,
      "ɛsɔ": 5138,
      "ɛdidi": 5139,
      "ɛwiem": 5140,
      "ɛdɛm": 5141,
      "ɛdidipono": 5142,
      "ɛfom": 5143,
      "ɛfɛm": 5144,
      "Ↄbaako": 5145,
      "wɔr": 5146,
      "wɔna": 5147,
      "wɔwɔn": 5148,
      "wɔta": 5149,
      "wɔakyi": 5150,
      "wɔsisi": 5151,
      "wɔti": 5152,
      "wɔɔyɛ": 5153,
      "wɔtɔ": 5154,
      "wɔsua": 5155,
      "wɔabu": 5156,
      "wɔnoa": 5157,
      "wɔkora": 5158,
      "wɔforo": 5159,
      "wɔahwɛ": 5160,
      "wɔasen": 5161,
      "wɔasaw": 5162,
      "wɔdɔɔso": 5163,
      "wɔsiesie": 5164,
      "wɔakatakata": 5165,
      "wɔakyɛ": 5166,
      "wɔabom": 5167,
      "wɔaduadua": 5168,
      "wɔapaake": 5169,
      "yɛa": 5170,
      "yɛfa": 5171,
      "yɛhu": 5172,
      "yɛsɛm": 5173,
      "naan": 5174,
      "nafo": 5175,
      "nara": 5176,
      "nahusuo": 5177,
      "noo": 5178,
      "noaa": 5179,
      "noos": 5180,
      "bin": 5181,
      "bino": 5182,
      "binso": 5183,
      "bifoɔ": 5184,
      "yim": 5185,
      "aafa": 5186,
      "ank": 5187,
      "anwe": 5188,
      "annwa": 5189,
      "anɛɛsefoɔ": 5190,
      "rew": 5191,
      "rebo": 5192,
      "rehyɛn": 5193,
      "rewura": 5194,
      "repɛ": 5195,
      "repata": 5196,
      "retw": 5197,
      "rehim": 5198,
      "reboro": 5199,
      "rehole": 5200,
      "nes": 5201,
      "nena": 5202,
      "nese": 5203,
      "nensɛm": 5204,
      "nenne": 5205,
      "desert": 5206,
      "tew": 5207,
      "teaa": 5208,
      "tese": 5209,
      "tesɛ": 5210,
      "temanmufoɔ": 5211,
      "matoes": 5212,
      "mahyin": 5213,
      "kom": 5214,
      "kow": 5215,
      "koɔ": 5216,
      "kolpɔt": 5217,
      "kontomire": 5218,
      "hɔa": 5219,
      "hyɛɛt": 5220,
      "wɔnsi": 5221,
      "wɔnde": 5222,
      "wɔnho": 5223,
      "wɔnnom": 5224,
      "wɔntumi": 5225,
      "wɔnim": 5226,
      "wate": 5227,
      "wagu": 5228,
      "watɔ": 5229,
      "wakora": 5230,
      "watutu": 5231,
      "wasiesie": 5232,
      "wafee": 5233,
      "wakyerɛkyerɛw": 5234,
      "akɔm": 5235,
      "akwaame": 5236,
      "fomba": 5237,
      "atr": 5238,
      "atɔn": 5239,
      "atworɔ": 5240,
      "honam": 5241,
      "hospi": 5242,
      "gyinaa": 5243,
      "pas": 5244,
      "pasa": 5245,
      "pafoɔ": 5246,
      "pampan": 5247,
      "papers": 5248,
      "nic": 5249,
      "niyɛ": 5250,
      "bed": 5251,
      "bebiri": 5252,
      "beenum": 5253,
      "yeaa": 5254,
      "saen": 5255,
      "sek": 5256,
      "sedeɛ": 5257,
      "ture": 5258,
      "mmɛɛ": 5259,
      "mmaako": 5260,
      "abro": 5261,
      "abua": 5262,
      "abfra": 5263,
      "abɛsi": 5264,
      "abɛbɔ": 5265,
      "abrofo": 5266,
      "abrɔbɛ": 5267,
      "kuku": 5268,
      "kubɔ": 5269,
      "filag": 5270,
      "fimfini": 5271,
      "fish": 5272,
      "rodo": 5273,
      "rin": 5274,
      "riin": 5275,
      "risifoɔ": 5276,
      "sutadeɛ": 5277,
      "sumii": 5278,
      "summiiɛ": 5279,
      "Wɔhwɛ": 5280,
      "Wɔnyinaa": 5281,
      "Wɔaboa": 5282,
      "Wɔasisi": 5283,
      "Wɔakyekyere": 5284,
      "Wɔahata": 5285,
      "Wɔatwitwa": 5286,
      "anii": 5287,
      "anika": 5288,
      "bɔt": 5289,
      "bɔto": 5290,
      "bɔnka": 5291,
      "guina": 5292,
      "dodɔeɛ": 5293,
      "akyitaafoɔ": 5294,
      "toe": 5295,
      "tom": 5296,
      "toam": 5297,
      "tokuo": 5298,
      "dio": 5299,
      "dzu": 5300,
      "bako": 5301,
      "baskɛt": 5302,
      "fufoɔ": 5303,
      "pow": 5304,
      "amane": 5305,
      "Mmesi": 5306,
      "wɔregu": 5307,
      "wɔreboa": 5308,
      "wɔrekɛ": 5309,
      "wɔreforo": 5310,
      "wɔrehoro": 5311,
      "wɔrenante": 5312,
      "wɔresre": 5313,
      "wɔresom": 5314,
      "bof": 5315,
      "borehole": 5316,
      "ebiara": 5317,
      "nnwɔtwe": 5318,
      "ahono": 5319,
      "ahoro": 5320,
      "ahosoɔ": 5321,
      "rɛdze": 5322,
      "mmieni": 5323,
      "nyinaaaa": 5324,
      "hwɛfoɔ": 5325,
      "tic": 5326,
      "tim": 5327,
      "tunyum": 5328,
      "ataataa": 5329,
      "ɛnse": 5330,
      "ɛnsuo": 5331,
      "ɛnten": 5332,
      "ɔretu": 5333,
      "ɔrekyɛ": 5334,
      "ɔredan": 5335,
      "ɔrewe": 5336,
      "ɔreboa": 5337,
      "ɔrepra": 5338,
      "ɔrekenkan": 5339,
      "dzeen": 5340,
      "nkyɛnsen": 5341,
      "womu": 5342,
      "wonyinaa": 5343,
      "woayɛ": 5344,
      "wowom": 5345,
      "wofura": 5346,
      "wokitakita": 5347,
      "melɔn": 5348,
      "ɛnante": 5349,
      "kyenee": 5350,
      "akon": 5351,
      "akodeɛ": 5352,
      "ady": 5353,
      "adak": 5354,
      "adrɔ": 5355,
      "adwe": 5356,
      "adwen": 5357,
      "adrɛse": 5358,
      "wansane": 5359,
      "mmasiafo": 5360,
      "hare": 5361,
      "hair": 5362,
      "beawa": 5363,
      "naman": 5364,
      "sorosoro": 5365,
      "kwantere": 5366,
      "astle": 5367,
      "key": 5368,
      "kese": 5369,
      "kesee": 5370,
      "keseɛ": 5371,
      "ɛreyi": 5372,
      "ɛregye": 5373,
      "ɛrehim": 5374,
      "ɛrehwie": 5375,
      "ɛɛtwe": 5376,
      "aborɔfoɔ": 5377,
      "kyerɛma": 5378,
      "kyerɛwee": 5379,
      "twer": 5380,
      "twerɔ": 5381,
      "anopi": 5382,
      "mpasa": 5383,
      "mpadua": 5384,
      "apapafoɔ": 5385,
      "ping": 5386,
      "akukɔ": 5387,
      "akuru": 5388,
      "akutunu": 5389,
      "akuturu": 5390,
      "akutru": 5391,
      "buo": 5392,
      "but": 5393,
      "bukuu": 5394,
      "buei": 5395,
      "Mmarahyɛbadwam": 5396,
      "tware": 5397,
      "Mmaatan": 5398,
      "mmaabawa": 5399,
      "sɛw": 5400,
      "ayɛsɛ": 5401,
      "tsee": 5402,
      "ataade3": 5403,
      "ataadesoro": 5404,
      "art": 5405,
      "agrɔ": 5406,
      "agyan": 5407,
      "atoa": 5408,
      "atorofoɔ": 5409,
      "nkonyim": 5410,
      "Nkataasia": 5411,
      "apataa": 5412,
      "apakan": 5413,
      "dzin": 5414,
      "dzifo": 5415,
      "mpakuw": 5416,
      "nkuo": 5417,
      "nkunyim": 5418,
      "mfoyin": 5419,
      "kɔnst": 5420,
      "akyen": 5421,
      "Bicycle": 5422,
      "Mmarimakuo": 5423,
      "amamfo": 5424,
      "amamber": 5425,
      "min": 5426,
      "asau": 5427,
      "maamefo": 5428,
      "ahwea": 5429,
      "ahwedeɛ": 5430,
      "ahwehwe": 5431,
      "dɛfɛ": 5432,
      "kasanoma": 5433,
      "akɔtɔ": 5434,
      "akɔla": 5435,
      "akɔsɛm": 5436,
      "akɔsie": 5437,
      "nyifa": 5438,
      "pel": 5439,
      "ason": 5440,
      "asowa": 5441,
      "atadesu": 5442,
      "ntaabodan": 5443,
      "bobɔbobɔ": 5444,
      "obira": 5445,
      "heel": 5446,
      "Mmɔframa": 5447,
      "Mmɔframba": 5448,
      "womto": 5449,
      "Abato": 5450,
      "Abrofo": 5451,
      "Abatow": 5452,
      "tenetene": 5453,
      "eguam": 5454,
      "pantoo": 5455,
      "geans": 5456,
      "huro": 5457,
      "sɔɔtse": 5458,
      "nsufi": 5459,
      "kakrak": 5460,
      "Nipakuw": 5461,
      "Obiaa": 5462,
      "nnante": 5463,
      "bɛba": 5464,
      "tsie": 5465,
      "tsinhwi": 5466,
      "cor": 5467,
      "cour": 5468,
      "copter": 5469,
      "coffee": 5470,
      "mmɔɔ": 5471,
      "Koro": 5472,
      "Kosua": 5473,
      "Koroɔ": 5474,
      "laen": 5475,
      "labia": 5476,
      "kand": 5477,
      "pɔle": 5478,
      "Mmia": 5479,
      "Bammɔfoɔ": 5480,
      "beebia": 5481,
      "asɛw": 5482,
      "gold": 5483,
      "ahyihyɛ": 5484,
      "rekɔdo": 5485,
      "abusu": 5486,
      "abubuafo": 5487,
      "kitsakit": 5488,
      "lls": 5489,
      "paado": 5490,
      "ɛsoa": 5491,
      "fɛfɛɛfɛw": 5492,
      "Amanɔne": 5493,
      "Net": 5494,
      "tsenketse": 5495,
      "Nsuomhyɛn": 5496,
      "phones": 5497,
      "kyerɛkyerɛnyi": 5498,
      "atwerɛdeɛ": 5499,
      "Bottle": 5500,
      "tɛtɛ": 5501,
      "woefura": 5502,
      "Sumiɛ": 5503,
      "reseresere": 5504,
      "ngwa": 5505,
      "sieeɛ": 5506,
      "eetwa": 5507,
      "waakye": 5508,
      "waahyehyɛ": 5509,
      "abegyina": 5510,
      "abeti": 5511,
      "cles": 5512,
      "ɛnson": 5513,
      "ɛnsoso": 5514,
      "ceiling": 5515,
      "Akwakora": 5516,
      "osian": 5517,
      "Adwumayɛni": 5518,
      "wheniwa": 5519,
      "ɔɔbɔ": 5520,
      "biaɛ": 5521,
      "ridzidzi": 5522,
      "hyen": 5523,
      "hyehɛ": 5524,
      "adinkra": 5525,
      "ahyɛnsodze": 5526,
      "tomatese": 5527,
      "kettle": 5528,
      "Wɔregye": 5529,
      "Wɔrehwehwɛ": 5530,
      "ayiyɔ": 5531,
      "atea": 5532,
      "kɛt": 5533,
      "styles": 5534,
      "wheelbarrow": 5535,
      "chairs": 5536,
      "faakor": 5537,
      "mmoframa": 5538,
      "Nsuhyɛn": 5539,
      "brau": 5540,
      "brawn": 5541,
      "taretare": 5542,
      "denden": 5543,
      "dennenne": 5544,
      "Wori": 5545,
      "Wohu": 5546,
      "serewserew": 5547,
      "Akwanyifoɔ": 5548,
      "nkateɛ": 5549,
      "Sukuufo": 5550,
      "Sukuudan": 5551,
      "nketsenketse": 5552,
      "atenatena": 5553,
      "trol": 5554,
      "akasamfonin": 5555,
      "Abanbɔfoɔ": 5556,
      "Banbɔfo": 5557,
      "Dodow": 5558,
      "ahuru": 5559,
      "Adesuafo": 5560,
      "nyɛnko": 5561,
      "ntumi": 5562,
      "atɔfo": 5563,
      "Soro": 5564,
      "motorcycle": 5565,
      "Mpenyinfo": 5566,
      "Nnip": 5567,
      "tɔɔban": 5568,
      "aker": 5569,
      "akers": 5570,
      "Abaayaa": 5571,
      "wɔaworɔ": 5572,
      "wɔretwam": 5573,
      "atuntumfo": 5574,
      "bepɔw": 5575,
      "wɔɔkye": 5576,
      "rahyɛbaguam": 5577,
      "akɔkɔɔfo": 5578,
      "hɛlmɛt": 5579,
      "mmoawa": 5580,
      "Ntomadan": 5581,
      "gallons": 5582,
      "kyaw": 5583,
      "wɔsoa": 5584,
      "microsco": 5585,
      "mbɔlambɔ": 5586,
      "dzendzeen": 5587,
      "Agofomma": 5588,
      "banbɔfo": 5589,
      "baesekel": 5590,
      "ɛmɛɛma": 5591,
      "ahofama": 5592,
      "ɔmanpanyin": 5593,
      "ebunu": 5594,
      "ebuei": 5595,
      "hyuu": 5596,
      "kunturu": 5597,
      "Aberantsɛ": 5598,
      "Adzesua": 5599,
      "ndzeɛma": 5600,
      "wɔretoto": 5601,
      "tunutum": 5602,
      "ayeyɛ": 5603,
      "aseammɔ": 5604,
      "Kubedua": 5605,
      "ɔretwam": 5606,
      "reyiyi": 5607,
      "Abusuakuw": 5608,
      "kyani": 5609,
      "pleet": 5610,
      "entre": 5611,
      "mbanyinfo": 5612,
      "wɔtotɔn": 5613,
      "borɔdze": 5614,
      "borɔnya": 5615,
      "Adwadibea": 5616,
      "afrafra": 5617,
      "nkwantere": 5618,
      "shovel": 5619,
      "ɛmoa": 5620,
      "apomudzen": 5621,
      "efunuadaka": 5622,
      "mfinfini": 5623,
      "Kɔpo": 5624,
      "Dadepɔnkɔ": 5625,
      "flawa": 5626,
      "sakatuu": 5627,
      "Ɛmbɛɛmua": 5628,
      "ketafoɔ": 5629,
      "Fitaa": 5630,
      "Ntoosi": 5631,
      "Pii": 5632,
      "Pillow": 5633,
      "rebɛfa": 5634,
      "adwira": 5635,
      "ɛbɛduru": 5636,
      "nwiram": 5637,
      "Ahabanmono": 5638,
      "awufo": 5639,
      "droba": 5640,
      "krado": 5641,
      "akwame": 5642,
      "akwakora": 5643,
      "atsew": 5644,
      "adɔkotafo": 5645,
      "nkakramma": 5646,
      "driver": 5647,
      "kɔmpiita": 5648,
      "kyɛɛs": 5649,
      "wohunu": 5650,
      "amanyɔsɛm": 5651,
      "Ataade": 5652,
      "Colo": 5653,
      "airport": 5654,
      "ndɛte": 5655,
      "stew": 5656,
      "mpɔtam": 5657,
      "Africa": 5658,
      "Atosodeɛ": 5659,
      "Plane": 5660,
      "afono": 5661,
      "afora": 5662,
      "adidibea": 5663,
      "edzidzi": 5664,
      "ɔretwerɛtwerɛ": 5665,
      "akuntun": 5666,
      "akyirikyirikyiri": 5667,
      "Nketesia": 5668,
      "laptɔpo": 5669,
      "shelf": 5670,
      "sogyafo": 5671,
      "nehoa": 5672,
      "asorɔtow": 5673,
      "asorɔtoo": 5674,
      "Tomatoes": 5675,
      "grawa": 5676,
      "grass": 5677,
      "organ": 5678,
      "nnɛtedan": 5679,
      "kasatorofoɔ": 5680,
      "asopaatee": 5681,
      "asopaatere": 5682,
      "Amanyɔfoɔ": 5683,
      "volleyball": 5684,
      "Adoe": 5685,
      "nguan": 5686,
      "screen": 5687,
      "ɔrekyew": 5688,
      "Nkurofokuw": 5689,
      "violin": 5690,
      "Afarefoɔ": 5691,
      "Aketeesia": 5692,
      "awhewheniwa": 5693,
      "Ɔsranii": 5694,
      "akwantufo": 5695,
      "kwabokwabo": 5696,
      "kyalewote": 5697,
      "Kyinniiɛ": 5698,
      "ahɔhoɔ": 5699,
      "flaag": 5700,
      "ɔnnhyɛ": 5701,
      "repaepae": 5702,
      "mmarahyɛbadwafoɔ": 5703,
      "asordan": 5704,
      "agokansi": 5705,
      "Borɔnyi": 5706,
      "Afraba": 5707,
      "check": 5708,
      "esuon": 5709,
      "ankonnwa": 5710,
      "anwono": 5711,
      "maek": 5712,
      "bonnet": 5713,
      "ebiesa": 5714,
      "Flawa": 5715,
      "Robɔt": 5716,
      "nɔdeɛ": 5717,
      "aketewia": 5718,
      "painti": 5719,
      "ahemfo": 5720,
      "kapɛte": 5721,
      "Nkwalaa": 5722,
      "trawsɛs": 5723,
      "Asɛnnibea": 5724,
      "Muhu": 5725,
      "Tikya": 5726,
      "Tutu": 5727,
      "dwiri": 5728,
      "futukwan": 5729,
      "tiivi": 5730,
      "nkratae": 5731,
      "buut": 5732,
      "Nkrumah": 5733,
      "reflɛkta": 5734,
      "Nnɔbaeɛ": 5735,
      "lɛvihyin": 5736,
      "Chinese": 5737,
      "Kapɛt": 5738,
      "Screen": 5739,
      "nananom": 5740,
      "anyow": 5741,
      "salmon": 5742,
      "ɔrengye": 5743,
      "asepaatre": 5744,
      "nsuomunam": 5745,
      "mmemmem": 5746,
      "Temamufoɔ": 5747,
      "watermelon": 5748,
      "Afiase": 5749,
      "Concrete": 5750,
      "Germany": 5751,
      "Kakraba": 5752,
      "Ntɔkwa": 5753,
      "taksi": 5754,
      "simpie": 5755,
      "akuafoɔ": 5756,
      "ambrɛla": 5757,
      "meeting": 5758,
      "ntorowa": 5759,
      "agbagya": 5760,
      "tɛtrɛɛ": 5761,
      "Benyini": 5762,
      "Hyɛmma": 5763,
      "Krakye": 5764,
      "Laptɔp": 5765,
      "Mfididwuma": 5766,
      "ctacles": 5767,
      "camel": 5768,
      "sweater": 5769,
      "spɛɛs": 5770,
      "spɛtak": 5771,
      "hospital": 5772,
      "akuturuku": 5773,
      "kɔnstrak": 5774,
      "ahwehweniwa": 5775,
      "kakrakaa": 5776,
      "court": 5777,
      "kitsakitsa": 5778,
      "dennennen": 5779,
      "microscope": 5780,
      "\".": 5781,
      "3ma": 5782,
      "3dan": 5783,
      "3y3": 5784,
      "Ah": 5785,
      "Ana": 5786,
      "Ano": 5787,
      "Ate": 5788,
      "Ase": 5789,
      "Abɔ": 5790,
      "Aka": 5791,
      "Ahɔn": 5792,
      "Asɔ": 5793,
      "Apɔnkɔ": 5794,
      "Afoforɔ": 5795,
      "Adidipono": 5796,
      "Adware": 5797,
      "Ankaa": 5798,
      "Apɔtɔ": 5799,
      "Asrani": 5800,
      "Akyire": 5801,
      "Akasamfonin": 5802,
      "Anurse": 5803,
      "Atwenebɔfoɔ": 5804,
      "Atemmuafoɔ": 5805,
      "Bl": 5806,
      "Bri": 5807,
      "Bɔn": 5808,
      "Bla": 5809,
      "Bel": 5810,
      "Bɛma": 5811,
      "Bɛrema": 5812,
      "Bronyi": 5813,
      "Ch": 5814,
      "Cu": 5815,
      "Cy": 5816,
      "Camera": 5817,
      "Cement": 5818,
      "Cabbage": 5819,
      "Du": 5820,
      "Don": 5821,
      "Dum": 5822,
      "Duku": 5823,
      "Dɔtedan": 5824,
      "Dɛmaa": 5825,
      "En": 5826,
      "Ele": 5827,
      "Ennua": 5828,
      "Efidie": 5829,
      "Etuo": 5830,
      "Eng": 5831,
      "Efom": 5832,
      "Ekuw": 5833,
      "Ekua": 5834,
      "Enum": 5835,
      "Fan": 5836,
      "Faya": 5837,
      "Flower": 5838,
      "Gi": 5839,
      "Gye": 5840,
      "Gal": 5841,
      "Gol": 5842,
      "Glaase": 5843,
      "Ham": 5844,
      "Hama": 5845,
      "Iyi": 5846,
      "Kata": 5847,
      "Kase": 5848,
      "Kane": 5849,
      "Kanopi": 5850,
      "Le": 5851,
      "Mbo": 5852,
      "Mag": 5853,
      "Mbarima": 5854,
      "Mbenyi": 5855,
      "Mfuw": 5856,
      "Mfir": 5857,
      "Mbenyimba": 5858,
      "Ns": 5859,
      "Nu": 5860,
      "Ny": 5861,
      "Nkyɛn": 5862,
      "Neɛ": 5863,
      "Ntwerɛ": 5864,
      "Ntwene": 5865,
      "Ndadze": 5866,
      "Nneema": 5867,
      "Onipa": 5868,
      "Opanin": 5869,
      "Okitsa": 5870,
      "Odwadi": 5871,
      "PO": 5872,
      "Pe": 5873,
      "Ple": 5874,
      "Pae": 5875,
      "Ru": 5876,
      "St": 5877,
      "Ste": 5878,
      "Sal": 5879,
      "Sɔfo": 5880,
      "Tɔm": 5881,
      "Tɔma": 5882,
      "Trak": 5883,
      "Tɛl": 5884,
      "Wama": 5885,
      "Wogyina": 5886,
      "Wayi": 5887,
      "Ward": 5888,
      "Wele": 5889,
      "Wheel": 5890,
      "Ye": 5891,
      "Yaa": 5892,
      "Yɛwɔ": 5893,
      "aw": 5894,
      "api": 5895,
      "awura": 5896,
      "awen": 5897,
      "afoforo": 5898,
      "ayɔnko": 5899,
      "afɛɛfɛɛ": 5900,
      "acro": 5901,
      "br": 5902,
      "bakata": 5903,
      "bronya": 5904,
      "dres": 5905,
      "eh": 5906,
      "ewɔ": 5907,
      "eda": 5908,
      "etuntum": 5909,
      "ewi": 5910,
      "ehyehyɛ": 5911,
      "esua": 5912,
      "egye": 5913,
      "esɔ": 5914,
      "efufuw": 5915,
      "edidi": 5916,
      "ekuro": 5917,
      "ewim": 5918,
      "ehwie": 5919,
      "ekunu": 5920,
      "ehyiam": 5921,
      "ewiemuhyɛn": 5922,
      "ff": 5923,
      "fɔn": 5924,
      "fete": 5925,
      "flow": 5926,
      "gen": 5927,
      "gap": 5928,
      "gɔɔta": 5929,
      "gration": 5930,
      "ggles": 5931,
      "hz": 5932,
      "hyina": 5933,
      "hɛne": 5934,
      "is": 5935,
      "iyi": 5936,
      "idi": 5937,
      "irika": 5938,
      "inee": 5939,
      "jo": 5940,
      "kr": 5941,
      "kaho": 5942,
      "kru": 5943,
      "kruwa": 5944,
      "kwn": 5945,
      "knic": 5946,
      "lli": 5947,
      "mso": 5948,
      "mbarima": 5949,
      "mbaayewa": 5950,
      "ment": 5951,
      "nnom": 5952,
      "nɛse": 5953,
      "ndzi": 5954,
      "ntena": 5955,
      "nɔte": 5956,
      "ndɔ": 5957,
      "nnifa": 5958,
      "ntan": 5959,
      "nɔɔ": 5960,
      "nter": 5961,
      "nwen": 5962,
      "nkoraa": 5963,
      "nkasamu": 5964,
      "nduro": 5965,
      "nhyiam": 5966,
      "nkɔɔpoo": 5967,
      "nhoni": 5968,
      "nsereba": 5969,
      "nkyerɛwee": 5970,
      "ot": 5971,
      "ou": 5972,
      "oko": 5973,
      "ofi": 5974,
      "osuo": 5975,
      "onu": 5976,
      "oru": 5977,
      "oves": 5978,
      "omiamia": 5979,
      "ohoni": 5980,
      "rw": 5981,
      "rma": 5982,
      "rfoɔ": 5983,
      "sl": 5984,
      "sy": 5985,
      "stu": 5986,
      "skul": 5987,
      "sque": 5988,
      "tab": 5989,
      "twu": 5990,
      "tɛɛ": 5991,
      "takra": 5992,
      "tworɔ": 5993,
      "takwame": 5994,
      "uni": 5995,
      "ugu": 5996,
      "uhu": 5997,
      "ugh": 5998,
      "wz": 5999,
      "wre": 6000,
      "wrɛnkyɛm": 6001,
      "ympa": 6002,
      "yaka": 6003,
      "zi": 6004,
      "zde": 6005,
      "Ɔbi": 6006,
      "Ɔnam": 6007,
      "Ɔhyehyɛ": 6008,
      "Ɔredi": 6009,
      "Ɔrekɔ": 6010,
      "Ɔrekasa": 6011,
      "Ɔrekyerɛ": 6012,
      "Ɔsane": 6013,
      "Ɔbɛrima": 6014,
      "Ɔmampanin": 6015,
      "Ɛsi": 6016,
      "Ɛhyɛ": 6017,
      "Ɛbaako": 6018,
      "Ɛsoro": 6019,
      "Ɛnu": 6020,
      "Ɛhɔnom": 6021,
      "Ɛyere": 6022,
      "Ɛdzan": 6023,
      "ɔt": 6024,
      "ɔnso": 6025,
      "ɔbe": 6026,
      "ɔsa": 6027,
      "ɔdeɛ": 6028,
      "ɔsisi": 6029,
      "ɔtaa": 6030,
      "ɔkɔɔ": 6031,
      "ɔfa": 6032,
      "ɔahyɛ": 6033,
      "ɔɔmo": 6034,
      "ɔsɛn": 6035,
      "ɔaso": 6036,
      "ɔfiri": 6037,
      "ɔfrɛ": 6038,
      "ɔbronin": 6039,
      "ɔturu": 6040,
      "ɔkra": 6041,
      "ɔsrani": 6042,
      "ɔbotan": 6043,
      "ɔɔnoa": 6044,
      "ɛr": 6045,
      "ɛɔ": 6046,
      "ɛfi": 6047,
      "ɛnipa": 6048,
      "ɛmma": 6049,
      "ɛdu": 6050,
      "ɛtɔ": 6051,
      "ɛmba": 6052,
      "ɛduku": 6053,
      "ɛfie": 6054,
      "ɛsor": 6055,
      "ɛbaasa": 6056,
      "ɛtɛ": 6057,
      "ɛhye": 6058,
      "ɛkitakita": 6059,
      "ɛkɛ": 6060,
      "ɛforo": 6061,
      "ɛmbaa": 6062,
      "ɛdɔɔso": 6063,
      "ɛbom": 6064,
      "ɛkatakata": 6065,
      "ℇbea": 6066,
      "wɔd": 6067,
      "wɔl": 6068,
      "wɔmu": 6069,
      "wɔnso": 6070,
      "wɔah": 6071,
      "wɔanim": 6072,
      "wɔtum": 6073,
      "wɔkye": 6074,
      "wɔɔn": 6075,
      "wɔase": 6076,
      "wɔnan": 6077,
      "wɔle": 6078,
      "wɔagu": 6079,
      "wɔhyia": 6080,
      "wɔkasa": 6081,
      "wɔakata": 6082,
      "wɔatwe": 6083,
      "wɔmmɔ": 6084,
      "wɔayi": 6085,
      "wɔahye": 6086,
      "wɔasan": 6087,
      "wɔatwitwa": 6088,
      "wɔfirafira": 6089,
      "wɔatae": 6090,
      "wɔnakyi": 6091,
      "wɔamema": 6092,
      "wɔbor": 6093,
      "wɔanoa": 6094,
      "wɔapeenti": 6095,
      "wɔasɛɛ": 6096,
      "yɛe": 6097,
      "yɛm": 6098,
      "yɛni": 6099,
      "yɛto": 6100,
      "yɛayɛ": 6101,
      "yɛgye": 6102,
      "yɛtwerɛ": 6103,
      "yɛatwitwa": 6104,
      "yɛapenti": 6105,
      "yɛbɛka": 6106,
      "yɛapeenti": 6107,
      "nap": 6108,
      "nakyiri": 6109,
      "naakoko": 6110,
      "nationa": 6111,
      "nor": 6112,
      "nohyɛ": 6113,
      "nonyinaa": 6114,
      "noara": 6115,
      "bire": 6116,
      "bine": 6117,
      "bien": 6118,
      "bidie": 6119,
      "bible": 6120,
      "yini": 6121,
      "yiri": 6122,
      "soo": 6123,
      "sorɔ": 6124,
      "sola": 6125,
      "any": 6126,
      "anso": 6127,
      "annan": 6128,
      "anhweneɛ": 6129,
      "annwea": 6130,
      "rem": 6131,
      "redze": 6132,
      "redu": 6133,
      "rehyia": 6134,
      "rekan": 6135,
      "rebue": 6136,
      "retow": 6137,
      "rekyia": 6138,
      "rekyekyere": 6139,
      "rebisa": 6140,
      "regoro": 6141,
      "reguare": 6142,
      "retase": 6143,
      "repenti": 6144,
      "renunu": 6145,
      "repere": 6146,
      "nefa": 6147,
      "netsir": 6148,
      "ners": 6149,
      "siki": 6150,
      "sili": 6151,
      "sibra": 6152,
      "dee": 6153,
      "dewa": 6154,
      "dehyeɛ": 6155,
      "ted": 6156,
      "tey": 6157,
      "tele": 6158,
      "tenis": 6159,
      "tensoɔ": 6160,
      "teatea": 6161,
      "mapa": 6162,
      "marima": 6163,
      "madam": 6164,
      "kosi": 6165,
      "kontommire": 6166,
      "muka": 6167,
      "hɔɔmo": 6168,
      "hyɛhyɛ": 6169,
      "hyɛɛte": 6170,
      "hyɛnsodeɛ": 6171,
      "nsoa": 6172,
      "nsohyɛ": 6173,
      "wɔnn": 6174,
      "wɔnnhyɛ": 6175,
      "wɔnwene": 6176,
      "wɔntɛm": 6177,
      "waso": 6178,
      "waboa": 6179,
      "wakyea": 6180,
      "wakyekyere": 6181,
      "wahuri": 6182,
      "akak": 6183,
      "akɔhyɛ": 6184,
      "akɔyɛ": 6185,
      "akyɛde": 6186,
      "akrak": 6187,
      "fora": 6188,
      "fofoɔ": 6189,
      "four": 6190,
      "baase": 6191,
      "baatan": 6192,
      "ataka": 6193,
      "attakwame": 6194,
      "hol": 6195,
      "hon": 6196,
      "gyinahɔ": 6197,
      "gyinagina": 6198,
      "kɔeɛ": 6199,
      "kɔmmu": 6200,
      "rado": 6201,
      "raba": 6202,
      "rasta": 6203,
      "pampa": 6204,
      "pamfoɔ": 6205,
      "beyɛ": 6206,
      "bese": 6207,
      "bedzi": 6208,
      "yena": 6209,
      "sau": 6210,
      "same": 6211,
      "sage": 6212,
      "saet": 6213,
      "sakoo": 6214,
      "sea": 6215,
      "senkuo": 6216,
      "tur": 6217,
      "tuma": 6218,
      "tufo": 6219,
      "mmm": 6220,
      "mmesi": 6221,
      "mmrahyɛ": 6222,
      "mmɔden": 6223,
      "abas": 6224,
      "abɛɛ": 6225,
      "abɛgyina": 6226,
      "abakɔsɛm": 6227,
      "kuwa": 6228,
      "kule": 6229,
      "fik": 6230,
      "endua": 6231,
      "enge": 6232,
      "enyɛma": 6233,
      "enguan": 6234,
      "rod": 6235,
      "roo": 6236,
      "roma": 6237,
      "robe": 6238,
      "rotu": 6239,
      "ahab": 6240,
      "ahwi": 6241,
      "ahemaa": 6242,
      "ris": 6243,
      "ring": 6244,
      "risifo": 6245,
      "riot": 6246,
      "susu": 6247,
      "sundzi": 6248,
      "tamm": 6249,
      "Wɔa": 6250,
      "Wɔdi": 6251,
      "Wɔasi": 6252,
      "Wɔakye": 6253,
      "Wɔtena": 6254,
      "Wɔasa": 6255,
      "Wɔbobɔ": 6256,
      "Wɔretwa": 6257,
      "Wɔredidi": 6258,
      "Wɔdɔɔso": 6259,
      "Wɔapaake": 6260,
      "Wɔkotokoto": 6261,
      "Wɔanwen": 6262,
      "Wɔahyehɛ": 6263,
      "Wɔapake": 6264,
      "animu": 6265,
      "bɔl": 6266,
      "bɔha": 6267,
      "bɔdambɔ": 6268,
      "bɔlambɔ": 6269,
      "guabɔ": 6270,
      "nsayam": 6271,
      "dot": 6272,
      "donko": 6273,
      "donke": 6274,
      "doze": 6275,
      "down": 6276,
      "akyin": 6277,
      "totro": 6278,
      "tower": 6279,
      "diɔm": 6280,
      "didwuma": 6281,
      "ding": 6282,
      "dzaa": 6283,
      "bam": 6284,
      "bana": 6285,
      "baro": 6286,
      "basiaba": 6287,
      "badwemma": 6288,
      "fuel": 6289,
      "podua": 6290,
      "poll": 6291,
      "polish": 6292,
      "nomdeɛ": 6293,
      "amɔ": 6294,
      "amirika": 6295,
      "Mmɛɛ": 6296,
      "Mmesia": 6297,
      "Mmrateɛ": 6298,
      "sisim": 6299,
      "wɔrey": 6300,
      "wɔrekye": 6301,
      "wɔretete": 6302,
      "wɔrehu": 6303,
      "wɔresɔ": 6304,
      "wɔremaa": 6305,
      "wɔrepra": 6306,
      "wɔrepata": 6307,
      "wɔreboro": 6308,
      "wɔretwerɛtwerɛ": 6309,
      "wɔrekasakasa": 6310,
      "wɔretsie": 6311,
      "taabo": 6312,
      "taalia": 6313,
      "boso": 6314,
      "boki": 6315,
      "boar": 6316,
      "bosaa": 6317,
      "boyaa": 6318,
      "wed": 6319,
      "wetwa": 6320,
      "wear": 6321,
      "reeɛ": 6322,
      "atafoɔ": 6323,
      "atawia": 6324,
      "ebia": 6325,
      "ebibifo": 6326,
      "nnwura": 6327,
      "nnɛma": 6328,
      "ahorɔ": 6329,
      "ranti": 6330,
      "rantie": 6331,
      "mmigration": 6332,
      "suon": 6333,
      "damu": 6334,
      "bebreebe": 6335,
      "bebreebee": 6336,
      "tiles": 6337,
      "titafo": 6338,
      "ɛnua": 6339,
      "ɛnwura": 6340,
      "ɛnyɛma": 6341,
      "ɔresɔ": 6342,
      "ɔrenante": 6343,
      "ɔrekyia": 6344,
      "ɔrekyea": 6345,
      "framba": 6346,
      "mob": 6347,
      "mom": 6348,
      "wowa": 6349,
      "wotum": 6350,
      "wohwɛ": 6351,
      "woabɔ": 6352,
      "wonto": 6353,
      "wobu": 6354,
      "wotwa": 6355,
      "woama": 6356,
      "woegyina": 6357,
      "wotutu": 6358,
      "woredzi": 6359,
      "wotumi": 6360,
      "wobotum": 6361,
      "wood": 6362,
      "wokitsakitsa": 6363,
      "kɔkɔɔɔ": 6364,
      "wunu": 6365,
      "mem": 6366,
      "mer": 6367,
      "mene": 6368,
      "mema": 6369,
      "meho": 6370,
      "megap": 6371,
      "kyemono": 6372,
      "akoa": 6373,
      "akonna": 6374,
      "yaw": 6375,
      "yard": 6376,
      "adrɔɔ": 6377,
      "eɛma": 6378,
      "wanya": 6379,
      "wantwi": 6380,
      "Wɔnmu": 6381,
      "ɔnyɛ": 6382,
      "mmamuwaa": 6383,
      "haw": 6384,
      "bear": 6385,
      "beach": 6386,
      "hɔnho": 6387,
      "Ebia": 6388,
      "ɛserɛ": 6389,
      "asrɔkye": 6390,
      "kerɛ": 6391,
      "kyirɛ": 6392,
      "kyinyɛ": 6393,
      "kyinie": 6394,
      "kyinii": 6395,
      "kyifuo": 6396,
      "abɔd": 6397,
      "abɔm": 6398,
      "abɔmu": 6399,
      "abɔdeɛ": 6400,
      "abɔdze": 6401,
      "abɔten": 6402,
      "abɔtire": 6403,
      "nankasa": 6404,
      "ɛrekye": 6405,
      "ɛretwerɛ": 6406,
      "ɛrepagya": 6407,
      "ɛrehohoro": 6408,
      "ɛresiesie": 6409,
      "ɛresesa": 6410,
      "ɛrekyiakyia": 6411,
      "ɛɛyi": 6412,
      "ɛɛba": 6413,
      "ɛɛnom": 6414,
      "ɛɛtɔn": 6415,
      "ɛɛkasa": 6416,
      "ɛɛhim": 6417,
      "ɛɛpɔt": 6418,
      "wumayɛfoɔ": 6419,
      "wires": 6420,
      "abor": 6421,
      "abowa": 6422,
      "aboro": 6423,
      "aboano": 6424,
      "abotsir": 6425,
      "aboronsan": 6426,
      "tetefoon": 6427,
      "ahosuoyɛ": 6428,
      "anobae": 6429,
      "anonneɛ": 6430,
      "mfie": 6431,
      "mpaso": 6432,
      "ntokura": 6433,
      "ntorɔba": 6434,
      "nks": 6435,
      "nky": 6436,
      "nkat": 6437,
      "nkenten": 6438,
      "pik": 6439,
      "pikya": 6440,
      "piuta": 6441,
      "buru": 6442,
      "bull": 6443,
      "Mmame": 6444,
      "Mmasiwa": 6445,
      "Mmaabawa": 6446,
      "Mmaamuwaa": 6447,
      "sɛt": 6448,
      "sɛvi": 6449,
      "tsei": 6450,
      "abasirwa": 6451,
      "abaɛfor": 6452,
      "duan": 6453,
      "bankuta": 6454,
      "ntomadan": 6455,
      "long": 6456,
      "loodu": 6457,
      "agyi": 6458,
      "ɔdetwa": 6459,
      "Nkurow": 6460,
      "Nkuruma": 6461,
      "atotɔ": 6462,
      "nnipadua": 6463,
      "akokɔnam": 6464,
      "nkoaa": 6465,
      "nkotee": 6466,
      "nkorofoɔ": 6467,
      "nkontommire": 6468,
      "nkotsee": 6469,
      "ahyehyɛhyehyɛ": 6470,
      "abankɛseɛ": 6471,
      "asie": 6472,
      "asieɛ": 6473,
      "asiei": 6474,
      "Nkrɔ": 6475,
      "apɛ": 6476,
      "apem": 6477,
      "apete": 6478,
      "apɔmu": 6479,
      "ekyim": 6480,
      "dzinn": 6481,
      "mpɛ": 6482,
      "mpɔnkye": 6483,
      "nkurow": 6484,
      "ɔyɛɛ": 6485,
      "tɔma": 6486,
      "tɔfin": 6487,
      "wuram": 6488,
      "kɔntenten": 6489,
      "nufu": 6490,
      "ruku": 6491,
      "rubɔ": 6492,
      "akyekyerɛ": 6493,
      "ɛbihyɛn": 6494,
      "like": 6495,
      "licopter": 6496,
      "adekyerɛ": 6497,
      "adesuafoɔ": 6498,
      "ketekye": 6499,
      "dwadie": 6500,
      "amara": 6501,
      "amamerɛ": 6502,
      "mix": 6503,
      "dɔmpim": 6504,
      "ahwene": 6505,
      "bibiman": 6506,
      "dɛte": 6507,
      "sɛnkuo": 6508,
      "kasafoni": 6509,
      "piis": 6510,
      "Abotan": 6511,
      "Aboduaba": 6512,
      "Aboboyaa": 6513,
      "akɔlaa": 6514,
      "akɔnnɔ": 6515,
      "ɛtene": 6516,
      "asoɔ": 6517,
      "Nkongua": 6518,
      "ntaabow": 6519,
      "hwilkyɛɛ": 6520,
      "enyigye": 6521,
      "hemaa": 6522,
      "suabea": 6523,
      "manyi": 6524,
      "manso": 6525,
      "manfoɔ": 6526,
      "Abro": 6527,
      "Abfra": 6528,
      "Abrɔfoɔ": 6529,
      "Abrosan": 6530,
      "hwease": 6531,
      "hweaseammɔ": 6532,
      "egudze": 6533,
      "gyenn": 6534,
      "mmoko": 6535,
      "Danhyia": 6536,
      "twerɛw": 6537,
      "sɔɔ": 6538,
      "tables": 6539,
      "nsuw": 6540,
      "kakaa": 6541,
      "Pole": 6542,
      "Poolu": 6543,
      "senge": 6544,
      "sensen": 6545,
      "sensane": 6546,
      "saakel": 6547,
      "saakere": 6548,
      "bɛr": 6549,
      "bɛbɔ": 6550,
      "hion": 6551,
      "tsim": 6552,
      "tsitsi": 6553,
      "skɛte": 6554,
      "skɛɛte": 6555,
      "mmɔbɔ": 6556,
      "mmɔtoam": 6557,
      "aninkyemono": 6558,
      "ɛsie": 6559,
      "ɛsieyɛ": 6560,
      "Korɔ": 6561,
      "Kontommire": 6562,
      "lae": 6563,
      "lai": 6564,
      "Aborɔfofoɔ": 6565,
      "llover": 6566,
      "afum": 6567,
      "afunum": 6568,
      "afurum": 6569,
      "kankyee": 6570,
      "pɔli": 6571,
      "enter": 6572,
      "gover": 6573,
      "goggles": 6574,
      "afaafa": 6575,
      "atuatua": 6576,
      "abire": 6577,
      "rekɔbu": 6578,
      "rekɔforo": 6579,
      "abubɔ": 6580,
      "abusuafoɔ": 6581,
      "abusuafo": 6582,
      "abuabua": 6583,
      "gyanyi": 6584,
      "gyakɛt": 6585,
      "dɔdɔ": 6586,
      "polisinii": 6587,
      "paati": 6588,
      "biribiri": 6589,
      "biridum": 6590,
      "New": 6591,
      "tsentse": 6592,
      "adanmu": 6593,
      "adansie": 6594,
      "dwumayɛfoɔ": 6595,
      "amanya": 6596,
      "amaneɛ": 6597,
      "amanneɛ": 6598,
      "benkun": 6599,
      "korowa": 6600,
      "koropɔ": 6601,
      "Nyimpakuw": 6602,
      "mmepɔ": 6603,
      "mmerahyɛbadwa": 6604,
      "Boɔ": 6605,
      "tɛnis": 6606,
      "wɔroko": 6607,
      "wɔroto": 6608,
      "wɔronom": 6609,
      "wɔrotow": 6610,
      "wɔrobor": 6611,
      "pradadaa": 6612,
      "woeyi": 6613,
      "woetu": 6614,
      "woepe": 6615,
      "Subonto": 6616,
      "dzɛm": 6617,
      "firim": 6618,
      "Adansifo": 6619,
      "ayare": 6620,
      "ayarfo": 6621,
      "ayarsabea": 6622,
      "atiu": 6623,
      "panyinmu": 6624,
      "panyinfoɔ": 6625,
      "onni": 6626,
      "Abɔfraba": 6627,
      "eee": 6628,
      "waama": 6629,
      "waabɔ": 6630,
      "waasɔ": 6631,
      "dadekyɛw": 6632,
      "aberantsɛ": 6633,
      "Akondwa": 6634,
      "Akwen": 6635,
      "Akataasia": 6636,
      "Akatawia": 6637,
      "Bus": 6638,
      "Burodo": 6639,
      "Nwuram": 6640,
      "teeblo": 6641,
      "Adwumayɛkuo": 6642,
      "whee": 6643,
      "mpanyimfoɔ": 6644,
      "els": 6645,
      "ɔɔtu": 6646,
      "ɔɔhwɛ": 6647,
      "ɔɔtɔn": 6648,
      "ɔɔgo": 6649,
      "Kuo": 6650,
      "Kukuo": 6651,
      "hyehye": 6652,
      "trao": 6653,
      "trawa": 6654,
      "adiban": 6655,
      "nkyɛnsedan": 6656,
      "nwie": 6657,
      "Nnuanua": 6658,
      "Wɔreto": 6659,
      "Wɔreda": 6660,
      "Wɔrepia": 6661,
      "Wɔreforo": 6662,
      "amono": 6663,
      "dadzekyɛw": 6664,
      "lask": 6665,
      "stri": 6666,
      "bɛnkye": 6667,
      "bɛnkum": 6668,
      "chain": 6669,
      "chalk": 6670,
      "rekyerɛw": 6671,
      "dwee": 6672,
      "dwetae": 6673,
      "laate": 6674,
      "mmoframma": 6675,
      "Nsufi": 6676,
      "funudaka": 6677,
      "Baanu": 6678,
      "Baatan": 6679,
      "ɛmabaawa": 6680,
      "ahyɛnsew": 6681,
      "abaayaa": 6682,
      "abaamuwa": 6683,
      "Asopiti": 6684,
      "Asogyafo": 6685,
      "whie": 6686,
      "Wohwɛ": 6687,
      "Wokura": 6688,
      "Wokitakita": 6689,
      "tietia": 6690,
      "nsɛmfua": 6691,
      "nkadam": 6692,
      "tutuw": 6693,
      "glove": 6694,
      "glovs": 6695,
      "glooves": 6696,
      "abɛto": 6697,
      "abɛduru": 6698,
      "adwumayɛbea": 6699,
      "kyerɛwpono": 6700,
      "kyerɛwdua": 6701,
      "rahyɛbedwafie": 6702,
      "vice": 6703,
      "taeble": 6704,
      "lassroom": 6705,
      "mpuro": 6706,
      "anaafoɔ": 6707,
      "ɔtontɔn": 6708,
      "Adetɔnfoɔ": 6709,
      "crew": 6710,
      "efiadze": 6711,
      "Sofa": 6712,
      "plat": 6713,
      "plen": 6714,
      "plɛɛt": 6715,
      "wɔresiesie": 6716,
      "asaaba": 6717,
      "Mpenyimfo": 6718,
      "Ayarehwɛ": 6719,
      "Ayaresa": 6720,
      "Ayarfo": 6721,
      "agordzibea": 6722,
      "Abaabawa": 6723,
      "Abaayea": 6724,
      "wɔafra": 6725,
      "wɔaforo": 6726,
      "wɔadorɔ": 6727,
      "agopramaso": 6728,
      "gyins": 6729,
      "anyini": 6730,
      "Kyineɛ": 6731,
      "wɔɔkɔ": 6732,
      "wɔɔsa": 6733,
      "paepae": 6734,
      "kuayɔ": 6735,
      "nkorɔfokuo": 6736,
      "mpaninfo": 6737,
      "Yɛabɔ": 6738,
      "Yɛatwerɛ": 6739,
      "efiewura": 6740,
      "kyensee": 6741,
      "akuokuo": 6742,
      "Mosque": 6743,
      "ahwende": 6744,
      "wɔsom": 6745,
      "kookoo": 6746,
      "adwareeɛ": 6747,
      "yoɔ": 6748,
      "banbɔfoɔ": 6749,
      "stairs": 6750,
      "ɛkotow": 6751,
      "nters": 6752,
      "ntwenee": 6753,
      "kakraabi": 6754,
      "ɛnimmu": 6755,
      "nhwii": 6756,
      "sumdze": 6757,
      "Sil": 6758,
      "Sikiriti": 6759,
      "krowa": 6760,
      "ndzema": 6761,
      "ndzemba": 6762,
      "nkitahodie": 6763,
      "ayere": 6764,
      "mɔta": 6765,
      "potato": 6766,
      "ɔrobɔ": 6767,
      "bebrebe": 6768,
      "woriyi": 6769,
      "worisiesie": 6770,
      "amusieeɛ": 6771,
      "pler": 6772,
      "ɔrokɔdo": 6773,
      "beesuon": 6774,
      "Adɔkotafo": 6775,
      "Hall": 6776,
      "Nkɔda": 6777,
      "Nkɔdaa": 6778,
      "Sereɛ": 6779,
      "cameras": 6780,
      "ntentensoɔ": 6781,
      "Ɔyɛkyerɛ": 6782,
      "borɔni": 6783,
      "machines": 6784,
      "akyɛw": 6785,
      "akyɛdeɛ": 6786,
      "akyɛdze": 6787,
      "Apoosifoɔ": 6788,
      "Ntaare": 6789,
      "brushe": 6790,
      "frɔe": 6791,
      "frɔm": 6792,
      "gyima": 6793,
      "renantew": 6794,
      "apaaki": 6795,
      "Atwer": 6796,
      "cil": 6797,
      "pullover": 6798,
      "spectacles": 6799,
      "wɔabuebue": 6800,
      "ahenfo": 6801,
      "ahenkyɛw": 6802,
      "Nsɛnkyerɛwfo": 6803,
      "bɛɛbi": 6804,
      "ffing": 6805,
      "Ɛmɔfra": 6806,
      "Ɛmɛɛma": 6807,
      "Ɛmbɛrima": 6808,
      "Ɛmberantiɛ": 6809,
      "yarempa": 6810,
      "Bibinyi": 6811,
      "afunupɔnkɔ": 6812,
      "Banyinba": 6813,
      "Kasafoni": 6814,
      "Pillar": 6815,
      "Television": 6816,
      "Traffic": 6817,
      "lɛs": 6818,
      "penk": 6819,
      "pencil": 6820,
      "rebɛto": 6821,
      "rebɛtɔ": 6822,
      "nkukuom": 6823,
      "hurihuri": 6824,
      "Hɔnom": 6825,
      "eyim": 6826,
      "ndoe": 6827,
      "ndow": 6828,
      "asɔɔtow": 6829,
      "Akɔdaa": 6830,
      "Fundaka": 6831,
      "Obronii": 6832,
      "awuraa": 6833,
      "drop": 6834,
      "kuruwaa": 6835,
      "nkakrama": 6836,
      "nkakraba": 6837,
      "Adwua": 6838,
      "Ahom": 6839,
      "anomdeɛ": 6840,
      "drip": 6841,
      "silling": 6842,
      "abutubutu": 6843,
      "nneɔma": 6844,
      "Plɛɛte": 6845,
      "bricks": 6846,
      "drawer": 6847,
      "wɔbɛka": 6848,
      "abrewa": 6849,
      "donnoo": 6850,
      "worutwa": 6851,
      "worusua": 6852,
      "woruguar": 6853,
      "kyinkyim": 6854,
      "pɛtɛɛ": 6855,
      "Motorcycle": 6856,
      "Ahomatorofoɔ": 6857,
      "nfonin": 6858,
      "yɛatwerɛtwerɛ": 6859,
      "sebɔnyin": 6860,
      "akyerekyere": 6861,
      "asorɔkye": 6862,
      "Asanka": 6863,
      "Atɔwrɛnkyɛm": 6864,
      "jalabia": 6865,
      "prɛɛte": 6866,
      "temamufoɔ": 6867,
      "ampesi": 6868,
      "bebreeeee": 6869,
      "wodzidzi": 6870,
      "tentensoɔ": 6871,
      "nkandzea": 6872,
      "nkwakora": 6873,
      "asopaatre": 6874,
      "Wall": 6875,
      "blocks": 6876,
      "llington": 6877,
      "ngusoɔ": 6878,
      "ɛbubu": 6879,
      "Nkurofokuo": 6880,
      "asomdeɛ": 6881,
      "akyerɛkyerɛfoɔ": 6882,
      "akyerɛkyerɛkwan": 6883,
      "Dɔteɛ": 6884,
      "Nantwi": 6885,
      "eduonu": 6886,
      "maske": 6887,
      "atɔsode": 6888,
      "bɔnframa": 6889,
      "Akyerɛkyerɛfo": 6890,
      "Kyerɛkyerɛni": 6891,
      "Otumfo": 6892,
      "cul": 6893,
      "dwumanyi": 6894,
      "earphone": 6895,
      "earpiece": 6896,
      "wcn": 6897,
      "ɔbɛdi": 6898,
      "foonu": 6899,
      "Nananom": 6900,
      "frafraeɛ": 6901,
      "Borɔde": 6902,
      "trɔɔg": 6903,
      "Agyananbea": 6904,
      "Mahama": 6905,
      "Nnyipadɔm": 6906,
      "Phones": 6907,
      "plasta": 6908,
      "plastic": 6909,
      "ɛfuom": 6910,
      "wɔakɛ": 6911,
      "signboard": 6912,
      "maekrofon": 6913,
      "nnyipa": 6914,
      "Policefoɔ": 6915,
      "brodo": 6916,
      "epue": 6917,
      "tratafoɔ": 6918,
      "twofoɔ": 6919,
      "dinning": 6920,
      "wɔretwiw": 6921,
      "mpempem": 6922,
      "asɔrdan": 6923,
      "kɔdɔkɔdeɛ": 6924,
      "Asɛndibea": 6925,
      "Aircondition": 6926,
      "Mantam": 6927,
      "electric": 6928,
      "saftey": 6929,
      "policeni": 6930,
      "dawuro": 6931,
      "akitakita": 6932,
      "reflɛta": 6933,
      "Apɔnkye": 6934,
      "Nkwanhyia": 6935,
      "Stores": 6936,
      "Trump": 6937,
      "crate": 6938,
      "drums": 6939,
      "juice": 6940,
      "nteteeɛ": 6941,
      "sleet": 6942,
      "ɛnnyina": 6943,
      "ansana": 6944,
      "saekere": 6945,
      "service": 6946,
      "seradeɛ": 6947,
      "seradze": 6948,
      "torɔmo": 6949,
      "wɔrekyerɛwkyerɛw": 6950,
      "morter": 6951,
      "nkataano": 6952,
      "pinkyenpinkyen": 6953,
      "Akokɔsradeɛ": 6954,
      "dzendzendzen": 6955,
      "fruits": 6956,
      "Agyinamoa": 6957,
      "Anigyeɛ": 6958,
      "Apɔwmudzen": 6959,
      "Kyɛw": 6960,
      "Mbrantse": 6961,
      "Sare": 6962,
      "Waakye": 6963,
      "batics": 6964,
      "hɛɛlmɛt": 6965,
      "kaneadua": 6966,
      "theatre": 6967,
      "wɔakyerɛkyerɛw": 6968,
      "selfie": 6969,
      "amaamefoɔ": 6970,
      "kaseɛbɔ": 6971,
      "wienhyɛn": 6972,
      "Mmarahyɛbadwafoɔ": 6973,
      "huhuuhu": 6974,
      "esieise": 6975,
      "counters": 6976,
      "tomatose": 6977,
      "Wimuhyɛn": 6978,
      "plywood": 6979,
      "placards": 6980,
      "nkantankan": 6981,
      "bɛhwɛadefoɔ": 6982,
      "apɔwmudzen": 6983,
      "engineer": 6984,
      "Accra": 6985,
      "Abibirem": 6986,
      "Bambɔfo": 6987,
      "Excavator": 6988,
      "Flowres": 6989,
      "Indi": 6990,
      "Icecream": 6991,
      "Judge": 6992,
      "Nsrahwɛfoɔ": 6993,
      "Sakre": 6994,
      "Samina": 6995,
      "ammor": 6996,
      "fashion": 6997,
      "mbesiamba": 6998,
      "ndzama": 6999,
      "nketeesia": 7000,
      "nhwenneɛ": 7001,
      "nbenyinifo": 7002,
      "science": 7003,
      "Ɔtɛmmuafoɔ": 7004,
      "reboaboa": 7005,
      "akɔmfo": 7006,
      "passenge": 7007,
      "mmɛɛmuwaa": 7008,
      "abrobɛ": 7009,
      "powder": 7010,
      "Mmesiamma": 7011,
      "bofrot": 7012,
      "adakaba": 7013,
      "adrɔdrɔ": 7014,
      "Koropɔɔto": 7015,
      "abusuakuo": 7016,
      "brauw": 7017,
      "wɔaworɔworɔ": 7018,
      "awufosom": 7019,
      "spɛtakels": 7020,
      "kɔnstrakhyin": 7021,
      "Black": 7022,
      "Christmas": 7023,
      "Cycle": 7024,
      "Dondo": 7025,
      "Enginee": 7026,
      "Ekuafo": 7027,
      "Giraffe": 7028,
      "Hammar": 7029,
      "Katapila": 7030,
      "Kaseɛbɔ": 7031,
      "Nyame": 7032,
      "Rubber": 7033,
      "Steps": 7034,
      "Trakta": 7035,
      "Wardrobe": 7036,
      "acrobatics": 7037,
      "gens": 7038,
      "knicker": 7039,
      "nɔɔdeɛ": 7040,
      "twuw": 7041,
      "national": 7042,
      "sorɔtow": 7043,
      "akakraka": 7044,
      "abasriwa": 7045,
      "kuleta": 7046,
      "donkey": 7047,
      "dozer": 7048,
      "wɔremaakye": 7049,
      "bokitsi": 7050,
      "rantieɛ": 7051,
      "megaphone": 7052,
      "anobaebaeɛ": 7053,
      "bulldozer": 7054,
      "Mmasiwafoɔ": 7055,
      "sɛvis": 7056,
      "governor": 7057,
      "ahyɛnsewdze": 7058,
      ",,": 7059,
      "3de": 7060,
      "AC": 7061,
      "Asi": 7062,
      "Awa": 7063,
      "Awe": 7064,
      "Awo": 7065,
      "Anam": 7066,
      "Asɛ": 7067,
      "Asia": 7068,
      "Akuo": 7069,
      "Ayie": 7070,
      "Akan": 7071,
      "Afie": 7072,
      "Apaa": 7073,
      "Atuo": 7074,
      "Abaasa": 7075,
      "Akodoɔ": 7076,
      "Anwi": 7077,
      "Awiemhyɛn": 7078,
      "Awia": 7079,
      "Adziban": 7080,
      "Atwere": 7081,
      "Apem": 7082,
      "Ante": 7083,
      "Aseɛ": 7084,
      "Asɛe": 7085,
      "Asebɔ": 7086,
      "Aketse": 7087,
      "Adwabɔ": 7088,
      "Atuntumfoɔ": 7089,
      "Amuna": 7090,
      "Abibiri": 7091,
      "Akasakasa": 7092,
      "Amɛ": 7093,
      "Apampan": 7094,
      "Abeawa": 7095,
      "Amaamefo": 7096,
      "Ahyɛnsodeɛ": 7097,
      "Abibiman": 7098,
      "Abɔnframa": 7099,
      "Bre": 7100,
      "Bam": 7101,
      "Bree": 7102,
      "Bar": 7103,
      "Bɔdi": 7104,
      "Brɔdeɛ": 7105,
      "Bronya": 7106,
      "CE": 7107,
      "CO": 7108,
      "Cake": 7109,
      "Cana": 7110,
      "Curtain": 7111,
      "Canopy": 7112,
      "Cabinet": 7113,
      "Castle": 7114,
      "Centre": 7115,
      "DH": 7116,
      "Da": 7117,
      "Dr": 7118,
      "Dɛma": 7119,
      "Drobɛn": 7120,
      "Eb": 7121,
      "Es": 7122,
      "Egu": 7123,
      "Efu": 7124,
      "Ebea": 7125,
      "Ear": 7126,
      "Eli": 7127,
      "Ehyia": 7128,
      "Enipakuo": 7129,
      "Ensu": 7130,
      "Ekuro": 7131,
      "Edwumayɛ": 7132,
      "Endua": 7133,
      "Efiri": 7134,
      "Ehɛn": 7135,
      "Edwam": 7136,
      "Egwa": 7137,
      "Ekurow": 7138,
      "Ekyir": 7139,
      "Efundaka": 7140,
      "Edzan": 7141,
      "Efunuadaka": 7142,
      "Edwadibea": 7143,
      "Fo": 7144,
      "Faako": 7145,
      "Fɔm": 7146,
      "Fon": 7147,
      "Fangoo": 7148,
      "For": 7149,
      "Flask": 7150,
      "Gra": 7151,
      "Glo": 7152,
      "Green": 7153,
      "Gɛl": 7154,
      "Gɔɔta": 7155,
      "Griin": 7156,
      "Hu": 7157,
      "Hyi": 7158,
      "Hyehyɛ": 7159,
      "Hwi": 7160,
      "Hos": 7161,
      "II": 7162,
      "Ibinom": 7163,
      "Isl": 7164,
      "Immigration": 7165,
      "ICE": 7166,
      "Ja": 7167,
      "Je": 7168,
      "Jata": 7169,
      "Kya": 7170,
      "Kee": 7171,
      "Kɛseɛ": 7172,
      "Kɛtɛ": 7173,
      "Kamara": 7174,
      "Mmu": 7175,
      "Mbe": 7176,
      "Men": 7177,
      "Mbea": 7178,
      "Mban": 7179,
      "Mar": 7180,
      "Mpɔnkɔ": 7181,
      "Mame": 7182,
      "Mpata": 7183,
      "Mfe": 7184,
      "Mbɛrima": 7185,
      "Mframa": 7186,
      "Mbuuku": 7187,
      "Mbɛɛmua": 7188,
      "Mfutukwan": 7189,
      "NP": 7190,
      "Nso": 7191,
      "Nye": 7192,
      "Nyia": 7193,
      "Nya": 7194,
      "Nhyɛn": 7195,
      "Nkor": 7196,
      "Nnyi": 7197,
      "Nhwi": 7198,
      "Nnwura": 7199,
      "Num": 7200,
      "Nyaa": 7201,
      "Ndaka": 7202,
      "Nhaban": 7203,
      "Ngyata": 7204,
      "Ndaadze": 7205,
      "Nhyiamu": 7206,
      "Nteaseanam": 7207,
      "Ntwerɛeɛ": 7208,
      "Nfidi": 7209,
      "Nnyama": 7210,
      "Nwisie": 7211,
      "Ntakra": 7212,
      "Ori": 7213,
      "Opo": 7214,
      "Odu": 7215,
      "Obibini": 7216,
      "Okunu": 7217,
      "Ohonin": 7218,
      "Oguan": 7219,
      "Otemmuafoɔ": 7220,
      "Pra": 7221,
      "Pro": 7222,
      "Pape": 7223,
      "Panyini": 7224,
      "Sɛ": 7225,
      "Swe": 7226,
      "She": 7227,
      "Sraa": 7228,
      "Sɛm": 7229,
      "Swimming": 7230,
      "Snow": 7231,
      "Tv": 7232,
      "Tan": 7233,
      "Tabe": 7234,
      "Tom": 7235,
      "Tent": 7236,
      "Tape": 7237,
      "Tae": 7238,
      "Tii": 7239,
      "Temaa": 7240,
      "UK": 7241,
      "Ukra": 7242,
      "VC": 7243,
      "VVC": 7244,
      "Wu": 7245,
      "Wan": 7246,
      "Watwa": 7247,
      "Waka": 7248,
      "Watu": 7249,
      "Wabue": 7250,
      "Wakatakata": 7251,
      "Wasan": 7252,
      "Waduro": 7253,
      "Wadwow": 7254,
      "Wabuabua": 7255,
      "Yahyehyɛ": 7256,
      "Zo": 7257,
      "ahɔ": 7258,
      "aɔhyɛ": 7259,
      "awi": 7260,
      "afufu": 7261,
      "abaawa": 7262,
      "afufuw": 7263,
      "awiem": 7264,
      "all": 7265,
      "awɔrebɔ": 7266,
      "ater": 7267,
      "awiemhyɛn": 7268,
      "afon": 7269,
      "ach": 7270,
      "asuafoɔ": 7271,
      "aware": 7272,
      "apim": 7273,
      "abeawa": 7274,
      "bc": 7275,
      "by": 7276,
      "bz": 7277,
      "bbi": 7278,
      "bye": 7279,
      "brɔ": 7280,
      "bran": 7281,
      "bɛwɔ": 7282,
      "bronyi": 7283,
      "bbon": 7284,
      "bakɛt": 7285,
      "bɛseɛ": 7286,
      "cr": 7287,
      "chyɛ": 7288,
      "clo": 7289,
      "cag": 7290,
      "crow": 7291,
      "cir": 7292,
      "curtain": 7293,
      "ctiona": 7294,
      "castle": 7295,
      "centre": 7296,
      "center": 7297,
      "classroom": 7298,
      "dw": 7299,
      "dy": 7300,
      "dre": 7301,
      "daame": 7302,
      "dreen": 7303,
      "dwua": 7304,
      "drɛse": 7305,
      "ed": 7306,
      "eso": 7307,
      "ehyɛ": 7308,
      "enso": 7309,
      "esa": 7310,
      "epo": 7311,
      "ebo": 7312,
      "efam": 7313,
      "ekor": 7314,
      "esan": 7315,
      "ekɔn": 7316,
      "eboa": 7317,
      "eredi": 7318,
      "etiri": 7319,
      "ededa": 7320,
      "emua": 7321,
      "epia": 7322,
      "ekitakita": 7323,
      "ewiemhyɛn": 7324,
      "eves": 7325,
      "ewuraba": 7326,
      "etire": 7327,
      "ebutu": 7328,
      "ekuw": 7329,
      "ekutakuta": 7330,
      "edwom": 7331,
      "ebua": 7332,
      "edur": 7333,
      "efirafira": 7334,
      "etuntumfoɔ": 7335,
      "edwu": 7336,
      "ekuntunu": 7337,
      "edwi": 7338,
      "fl": 7339,
      "fen": 7340,
      "fako": 7341,
      "fadeɛ": 7342,
      "ffa": 7343,
      "fɔtɔ": 7344,
      "gs": 7345,
      "gaa": 7346,
      "gree": 7347,
      "gata": 7348,
      "ghi": 7349,
      "gabe": 7350,
      "gir": 7351,
      "gate": 7352,
      "graase": 7353,
      "glɔ": 7354,
      "ground": 7355,
      "gaase": 7356,
      "hn": 7357,
      "hro": 7358,
      "ham": 7359,
      "hue": 7360,
      "habammono": 7361,
      "ine": 7362,
      "isa": 7363,
      "ihwɛ": 7364,
      "iiɛ": 7365,
      "ilet": 7366,
      "iner": 7367,
      "jhyɛ": 7368,
      "jata": 7369,
      "kt": 7370,
      "kre": 7371,
      "ksi": 7372,
      "kte": 7373,
      "kani": 7374,
      "kakyi": 7375,
      "krɔ": 7376,
      "kwe": 7377,
      "kti": 7378,
      "kataa": 7379,
      "kɛyɛ": 7380,
      "kaka": 7381,
      "kraa": 7382,
      "kyɔ": 7383,
      "katuo": 7384,
      "kɛɛt": 7385,
      "krɔn": 7386,
      "krɔkye": 7387,
      "kahuro": 7388,
      "kabɔd": 7389,
      "lat": 7390,
      "lle": 7391,
      "lpi": 7392,
      "luu": 7393,
      "lɛnten": 7394,
      "mb": 7395,
      "mn": 7396,
      "mbo": 7397,
      "mrɛ": 7398,
      "mfam": 7399,
      "mane": 7400,
      "mɔm": 7401,
      "mɔfra": 7402,
      "mberanteɛ": 7403,
      "mente": 7404,
      "mɛɛma": 7405,
      "mbol": 7406,
      "mbepɔ": 7407,
      "mbua": 7408,
      "mberantiɛ": 7409,
      "mbir": 7410,
      "mbenyimba": 7411,
      "mborɔdze": 7412,
      "nh": 7413,
      "npa": 7414,
      "nsisi": 7415,
      "ntuntum": 7416,
      "nhyɛn": 7417,
      "ndaa": 7418,
      "nsɛ": 7419,
      "ntenten": 7420,
      "ndwuma": 7421,
      "nduku": 7422,
      "ntsena": 7423,
      "nsaa": 7424,
      "nhi": 7425,
      "nnim": 7426,
      "nket": 7427,
      "nkyerɛw": 7428,
      "nhɛ": 7429,
      "ngyata": 7430,
      "nsiesie": 7431,
      "nɛɛte": 7432,
      "nhwee": 7433,
      "nkyir": 7434,
      "nɛɛsefoɔ": 7435,
      "ntwam": 7436,
      "nkitiwaa": 7437,
      "op": 7438,
      "oso": 7439,
      "one": 7440,
      "oni": 7441,
      "ota": 7442,
      "odze": 7443,
      "ofra": 7444,
      "oka": 7445,
      "opi": 7446,
      "owura": 7447,
      "onyi": 7448,
      "ogy": 7449,
      "opanin": 7450,
      "okitakita": 7451,
      "oehu": 7452,
      "oper": 7453,
      "oedzi": 7454,
      "opro": 7455,
      "odumgyafoɔ": 7456,
      "pt": 7457,
      "pti": 7458,
      "pha": 7459,
      "plo": 7460,
      "pur": 7461,
      "presi": 7462,
      "plet": 7463,
      "pɔnko": 7464,
      "patre": 7465,
      "pping": 7466,
      "qua": 7467,
      "rni": 7468,
      "rbɔ": 7469,
      "rhwɛ": 7470,
      "rke": 7471,
      "rnu": 7472,
      "ranimfoɔ": 7473,
      "sno": 7474,
      "sso": 7475,
      "ssi": 7476,
      "sfo": 7477,
      "sti": 7478,
      "swu": 7479,
      "sha": 7480,
      "sɛse": 7481,
      "slɛ": 7482,
      "sca": 7483,
      "sport": 7484,
      "straw": 7485,
      "ssert": 7486,
      "stɔfin": 7487,
      "screw": 7488,
      "tv": 7489,
      "tran": 7490,
      "tti": 7491,
      "twan": 7492,
      "tɛnt": 7493,
      "tball": 7494,
      "taboo": 7495,
      "vɛ": 7496,
      "ving": 7497,
      "wne": 7498,
      "wma": 7499,
      "wwɔn": 7500,
      "wwan": 7501,
      "wɛse": 7502,
      "wrehwɛ": 7503,
      "wɛde": 7504,
      "wch": 7505,
      "whɛne": 7506,
      "yw": 7507,
      "yy": 7508,
      "yhyɛ": 7509,
      "ypa": 7510,
      "yani": 7511,
      "yatu": 7512,
      "yatutu": 7513,
      "yatwerɛtwerɛ": 7514,
      "zabe": 7515,
      "zibra": 7516,
      "Ɔmu": 7517,
      "Ɔbo": 7518,
      "Ɔhwɛ": 7519,
      "Ɔya": 7520,
      "Ɔgya": 7521,
      "Ɔkoto": 7522,
      "Ɔsɔ": 7523,
      "Ɔrebɔ": 7524,
      "Ɔkoro": 7525,
      "Ɔbronin": 7526,
      "Ɔkutakuta": 7527,
      "Ɔnye": 7528,
      "Ɔbɛɛma": 7529,
      "Ɔreserew": 7530,
      "Ɔfoforo": 7531,
      "Ɔrobɔ": 7532,
      "Ɔware": 7533,
      "Ɔbɛrema": 7534,
      "Ɔbotan": 7535,
      "Ɔreda": 7536,
      "Ɔdɔkotani": 7537,
      "Ɔbɛma": 7538,
      "Ɔkyerɛkyerɛnyi": 7539,
      "Ɛno": 7540,
      "Ɛso": 7541,
      "Ɛgu": 7542,
      "Ɛbo": 7543,
      "Ɛmo": 7544,
      "Ɛbea": 7545,
      "Ɛnan": 7546,
      "Ɛneɛma": 7547,
      "Ɛnneɛma": 7548,
      "Ɛntoma": 7549,
      "Ɛnnua": 7550,
      "Ɛkyɛw": 7551,
      "Ɛfidie": 7552,
      "Ɛnna": 7553,
      "Ɛdɛm": 7554,
      "Ɛwuraba": 7555,
      "Ɛmmaayewa": 7556,
      "Ɛnkonwa": 7557,
      "Ɛnhoma": 7558,
      "Ɛnkorɔfo": 7559,
      "Ɛboɔ": 7560,
      "Ɛsukuufoɔ": 7561,
      "Ɛkro": 7562,
      "Ɛɛɛɛ": 7563,
      "Ɛdom": 7564,
      "Ɛfun": 7565,
      "Ɛkoɔ": 7566,
      "ɔf": 7567,
      "ɔo": 7568,
      "ɔs": 7569,
      "ɔyi": 7570,
      "ɔse": 7571,
      "ɔkyɛ": 7572,
      "ɔti": 7573,
      "ɔataa": 7574,
      "ɔwo": 7575,
      "ɔten": 7576,
      "ɔhyɛn": 7577,
      "ɔgyinagyina": 7578,
      "ɔban": 7579,
      "ɔasi": 7580,
      "ɔsere": 7581,
      "ɔafa": 7582,
      "ɔsor": 7583,
      "ɔagye": 7584,
      "ɔsaw": 7585,
      "ɔbia": 7586,
      "ɔfoforɔ": 7587,
      "ɔdam": 7588,
      "ɔhohoro": 7589,
      "ɔkraman": 7590,
      "ɔsii": 7591,
      "ɔsebɔ": 7592,
      "ɔhya": 7593,
      "ɔpani": 7594,
      "ɔfr": 7595,
      "ɔmmɔɔ": 7596,
      "ɛb": 7597,
      "ɛk": 7598,
      "ɛbe": 7599,
      "ɛdeɛ": 7600,
      "ɛkyɛn": 7601,
      "ɛkye": 7602,
      "ɛmpa": 7603,
      "ɛtse": 7604,
      "ɛfɛ": 7605,
      "ɛkan": 7606,
      "ɛpɛ": 7607,
      "ɛmpo": 7608,
      "ɛbag": 7609,
      "ɛbue": 7610,
      "ɛtutu": 7611,
      "ɛtae": 7612,
      "ɛdam": 7613,
      "ɛgyata": 7614,
      "ɛwie": 7615,
      "ɛgyi": 7616,
      "ɛpu": 7617,
      "ɛketa": 7618,
      "ɛnii": 7619,
      "ɛhyerɛn": 7620,
      "ɛboro": 7621,
      "ɛkyene": 7622,
      "ɛdɔɔ": 7623,
      "ɛɛnante": 7624,
      "ɛkunturu": 7625,
      "ℇhɔ": 7626,
      "ℇpono": 7627,
      "ℇtam": 7628,
      "Ↄdze": 7629,
      "Ↄkita": 7630,
      "Ↄkuta": 7631,
      "wɔt": 7632,
      "wɔan": 7633,
      "wɔdeɛ": 7634,
      "wɔri": 7635,
      "wɔba": 7636,
      "wɔam": 7637,
      "wɔtaa": 7638,
      "wɔata": 7639,
      "wɔad": 7640,
      "wɔha": 7641,
      "wɔara": 7642,
      "wɔmp": 7643,
      "wɔade": 7644,
      "wɔahwehwɛ": 7645,
      "wɔwom": 7646,
      "wɔtwi": 7647,
      "wɔɔrehwɛ": 7648,
      "wɔfiri": 7649,
      "wɔsaw": 7650,
      "wɔagyina": 7651,
      "wɔridzi": 7652,
      "wɔhye": 7653,
      "wɔate": 7654,
      "wɔatoto": 7655,
      "wɔatene": 7656,
      "wɔabɛ": 7657,
      "wɔkyerɛw": 7658,
      "wɔɔto": 7659,
      "wɔahu": 7660,
      "wɔɔtɔn": 7661,
      "wɔdam": 7662,
      "wɔpae": 7663,
      "wɔtow": 7664,
      "wɔatwi": 7665,
      "wɔpam": 7666,
      "wɔabubu": 7667,
      "wɔtumi": 7668,
      "wɔkyea": 7669,
      "wɔape": 7670,
      "wɔabie": 7671,
      "wɔesiesie": 7672,
      "wɔapam": 7673,
      "wɔtwitwa": 7674,
      "wɔpaake": 7675,
      "wɔsam": 7676,
      "wɔfurafura": 7677,
      "wɔamoamoa": 7678,
      "wɔkenkan": 7679,
      "wɔtwerɛtwerɛ": 7680,
      "wɔayiyi": 7681,
      "wɔasesa": 7682,
      "wɔapae": 7683,
      "wɔdɔɔ": 7684,
      "wɔahyehɛ": 7685,
      "wɔatsena": 7686,
      "wɔtase": 7687,
      "wɔakeka": 7688,
      "wɔabegyina": 7689,
      "wɔakoa": 7690,
      "wɔdrop": 7691,
      "yɛgyina": 7692,
      "yɛse": 7693,
      "yɛtu": 7694,
      "yɛgu": 7695,
      "yɛhwɛ": 7696,
      "yɛase": 7697,
      "yɛabɔ": 7698,
      "yɛhyehyɛ": 7699,
      "yɛakye": 7700,
      "yɛkasa": 7701,
      "yɛdidi": 7702,
      "yɛpɛ": 7703,
      "yɛabobɔ": 7704,
      "yɛllow": 7705,
      "yɛnoa": 7706,
      "yɛbue": 7707,
      "yɛasen": 7708,
      "yɛresi": 7709,
      "yɛpam": 7710,
      "yɛdɛɛ": 7711,
      "yɛapam": 7712,
      "yɛtwitwa": 7713,
      "yɛresɔ": 7714,
      "yɛanoa": 7715,
      "yɛapia": 7716,
      "yɛtontɔn": 7717,
      "nane": 7718,
      "nase": 7719,
      "nabɔ": 7720,
      "naba": 7721,
      "naase": 7722,
      "naano": 7723,
      "naaba": 7724,
      "naakye": 7725,
      "naniwa": 7726,
      "nald": 7727,
      "nonso": 7728,
      "nodo": 7729,
      "nopi": 7730,
      "nonneɛ": 7731,
      "bimo": 7732,
      "biasi": 7733,
      "biredum": 7734,
      "yibea": 7735,
      "soe": 7736,
      "sofo": 7737,
      "soata": 7738,
      "sodie": 7739,
      "aaaa": 7740,
      "aadze": 7741,
      "aahyia": 7742,
      "anfo": 7743,
      "anda": 7744,
      "anteɛ": 7745,
      "anten": 7746,
      "anwi": 7747,
      "anneɛma": 7748,
      "anhyia": 7749,
      "ance": 7750,
      "antea": 7751,
      "antia": 7752,
      "rede": 7753,
      "rese": 7754,
      "resisi": 7755,
      "rewe": 7756,
      "refra": 7757,
      "reke": 7758,
      "rewi": 7759,
      "retete": 7760,
      "resan": 7761,
      "renu": 7762,
      "rebobɔ": 7763,
      "resen": 7764,
      "rego": 7765,
      "rehye": 7766,
      "resane": 7767,
      "refe": 7768,
      "resoa": 7769,
      "resosɔ": 7770,
      "rehyin": 7771,
      "refua": 7772,
      "refrafra": 7773,
      "remia": 7774,
      "repete": 7775,
      "rehuru": 7776,
      "resesaw": 7777,
      "ready": 7778,
      "redɛfɛ": 7779,
      "nen": 7780,
      "neti": 7781,
      "nedze": 7782,
      "nensam": 7783,
      "neɔma": 7784,
      "nenum": 7785,
      "nehwen": 7786,
      "nenyiwa": 7787,
      "nebun": 7788,
      "sir": 7789,
      "sis": 7790,
      "siu": 7791,
      "sina": 7792,
      "sima": 7793,
      "siri": 7794,
      "sinyi": 7795,
      "sikan": 7796,
      "sikiriti": 7797,
      "sikɛɛt": 7798,
      "dei": 7799,
      "dew": 7800,
      "defoɔ": 7801,
      "dewu": 7802,
      "deren": 7803,
      "dessert": 7804,
      "tenso": 7805,
      "tewa": 7806,
      "tefoɔ": 7807,
      "teta": 7808,
      "televi": 7809,
      "tempɔn": 7810,
      "mai": 7811,
      "mame": 7812,
      "mayewa": 7813,
      "madwa": 7814,
      "mahin": 7815,
      "kono": 7816,
      "kofo": 7817,
      "koat": 7818,
      "korɛ": 7819,
      "kokɔn": 7820,
      "kosɔ": 7821,
      "kool": 7822,
      "konka": 7823,
      "kodow": 7824,
      "mudze": 7825,
      "munu": 7826,
      "muade": 7827,
      "hɔm": 7828,
      "hɔno": 7829,
      "nsoi": 7830,
      "nsoo": 7831,
      "nsode": 7832,
      "nsogyina": 7833,
      "wɔnmo": 7834,
      "wase": 7835,
      "wakyɛ": 7836,
      "wadi": 7837,
      "waha": 7838,
      "wadua": 7839,
      "wadzi": 7840,
      "wave": 7841,
      "wasaw": 7842,
      "wasoɔ": 7843,
      "waet": 7844,
      "wapoma": 7845,
      "waworɔ": 7846,
      "watwitwa": 7847,
      "waduru": 7848,
      "wakuntunu": 7849,
      "wahyihyɛ": 7850,
      "akat": 7851,
      "aksa": 7852,
      "akɛyɛ": 7853,
      "akekyi": 7854,
      "akatadeɛ": 7855,
      "akyɛn": 7856,
      "akɛsa": 7857,
      "akabom": 7858,
      "akbɔɔd": 7859,
      "akwɛn": 7860,
      "fone": 7861,
      "fose": 7862,
      "fofuo": 7863,
      "fofro": 7864,
      "fones": 7865,
      "baaako": 7866,
      "ats": 7867,
      "atw": 7868,
      "atra": 7869,
      "atwan": 7870,
      "ataban": 7871,
      "atɛnt": 7872,
      "atwɛ": 7873,
      "atsɛm": 7874,
      "atakuo": 7875,
      "atakwaame": 7876,
      "hono": 7877,
      "hori": 7878,
      "home": 7879,
      "honyi": 7880,
      "hohorow": 7881,
      "hohro": 7882,
      "kɔp": 7883,
      "kɔfoɔ": 7884,
      "kɔbɔ": 7885,
      "kɔdzi": 7886,
      "kɔmi": 7887,
      "kɔfe": 7888,
      "kɔseɛ": 7889,
      "kɔbɔd": 7890,
      "raf": 7891,
      "rahwɛ": 7892,
      "rali": 7893,
      "radio": 7894,
      "pad": 7895,
      "pay": 7896,
      "pama": 7897,
      "pafam": 7898,
      "pamp": 7899,
      "pasaa": 7900,
      "pampo": 7901,
      "pawee": 7902,
      "nini": 7903,
      "nifoɔ": 7904,
      "nisuo": 7905,
      "nimpa": 7906,
      "niaba": 7907,
      "beb": 7908,
      "beaa": 7909,
      "bedeɛ": 7910,
      "bepo": 7911,
      "begya": 7912,
      "bepia": 7913,
      "begyi": 7914,
      "bering": 7915,
      "yen": 7916,
      "yeyɛ": 7917,
      "sai": 7918,
      "sadeɛ": 7919,
      "salo": 7920,
      "sait": 7921,
      "safoa": 7922,
      "ses": 7923,
      "set": 7924,
      "sefoɔ": 7925,
      "seneɛ": 7926,
      "semina": 7927,
      "secu": 7928,
      "tuu": 7929,
      "tuw": 7930,
      "tuatua": 7931,
      "mmbaa": 7932,
      "mmrɔfo": 7933,
      "mmenyin": 7934,
      "mmensa": 7935,
      "abra": 7936,
      "abɛyɛ": 7937,
      "abato": 7938,
      "abɛtwa": 7939,
      "abambɔ": 7940,
      "abronsan": 7941,
      "kusu": 7942,
      "kusum": 7943,
      "kumɔ": 7944,
      "fiɔ": 7945,
      "fifi": 7946,
      "fiin": 7947,
      "fikyiri": 7948,
      "baakode": 7949,
      "baakonso": 7950,
      "ensuo": 7951,
      "enda": 7952,
      "enfam": 7953,
      "entsi": 7954,
      "entsen": 7955,
      "enwee": 7956,
      "rotɔn": 7957,
      "roll": 7958,
      "roplen": 7959,
      "kyɛr": 7960,
      "kyɛs": 7961,
      "ahi": 7962,
      "ahw": 7963,
      "ahan": 7964,
      "ahya": 7965,
      "ahii": 7966,
      "ahim": 7967,
      "rine": 7968,
      "ride": 7969,
      "ritwa": 7970,
      "ritsi": 7971,
      "riphone": 7972,
      "ries": 7973,
      "rier": 7974,
      "rity": 7975,
      "ribbon": 7976,
      "rikatuo": 7977,
      "supii": 7978,
      "sunie": 7979,
      "subonto": 7980,
      "taya": 7981,
      "tape": 7982,
      "Wɔɔ": 7983,
      "Wɔan": 7984,
      "Wɔab": 7985,
      "Wɔbɔ": 7986,
      "Wɔren": 7987,
      "Wɔtsena": 7988,
      "Wɔafa": 7989,
      "Wɔapagya": 7990,
      "Wɔfrɛ": 7991,
      "Wɔsoso": 7992,
      "Wɔahye": 7993,
      "Wɔasɛe": 7994,
      "Wɔapegya": 7995,
      "Wɔapagyapagya": 7996,
      "Wɔakyerɛw": 7997,
      "Wɔakatakata": 7998,
      "Wɔafira": 7999
    },
    "merges": [
      [
        "w",
        "ɔ"
      ],
      [
        "y",
        "ɛ"
      ],
      [
        "n",
        "a"
      ],
      [
        "n",
        "o"
      ],
      [
        "b",
        "i"
      ],
      [
        "y",
        "i"
      ],
      [
        "s",
        "o"
      ],
      [
        "a",
        "a"
      ],
      [
        "a",
        "n"
      ],
      [
        "r",
        "e"
      ],
      [
        "n",
        "e"
      ],
      [
        "s",
        "i"
      ],
      [
        "d",
        "e"
      ],
      [
        "t",
        "e"
      ],
      [
        "m",
        "a"
      ],
      [
        "k",
        "o"
      ],
      [
        "m",
        "u"
      ],
      [
        "h",
        "ɔ"
      ],
      [
        "h",
        "yɛ"
      ],
      [
        "n",
        "so"
      ],
      [
        "yi",
        "na"
      ],
      [
        "wɔ",
        "n"
      ],
      [
        "w",
        "a"
      ],
      [
        "a",
        "k"
      ],
      [
        "f",
        "o"
      ],
      [
        "b",
        "aa"
      ],
      [
        "a",
        "t"
      ],
      [
        "h",
        "o"
      ],
      [
        "g",
        "yina"
      ],
      [
        "k",
        "ɔ"
      ],
      [
        "r",
        "a"
      ],
      [
        "p",
        "a"
      ],
      [
        "n",
        "i"
      ],
      [
        "b",
        "e"
      ],
      [
        "y",
        "e"
      ],
      [
        "s",
        "a"
      ],
      [
        "s",
        "e"
      ],
      [
        "t",
        "u"
      ],
      [
        "m",
        "m"
      ],
      [
        "a",
        "b"
      ],
      [
        "k",
        "u"
      ],
      [
        "f",
        "i"
      ],
      [
        "de",
        "ɛ"
      ],
      [
        "baa",
        "ko"
      ],
      [
        "e",
        "n"
      ],
      [
        "r",
        "o"
      ],
      [
        "k",
        "yɛ"
      ],
      [
        "a",
        "h"
      ],
      [
        "r",
        "i"
      ],
      [
        "fo",
        "ɔ"
      ],
      [
        "s",
        "u"
      ],
      [
        "t",
        "a"
      ],
      [
        "d",
        "an"
      ],
      [
        "W",
        "ɔ"
      ],
      [
        "an",
        "i"
      ],
      [
        "b",
        "ɔ"
      ],
      [
        "g",
        "u"
      ],
      [
        "n",
        "sa"
      ],
      [
        "d",
        "o"
      ],
      [
        "ak",
        "yi"
      ],
      [
        "t",
        "o"
      ],
      [
        "h",
        "w"
      ],
      [
        "r",
        "ɔ"
      ],
      [
        "d",
        "i"
      ],
      [
        "d",
        "z"
      ],
      [
        "b",
        "a"
      ],
      [
        "N",
        "a"
      ],
      [
        "f",
        "u"
      ],
      [
        "p",
        "o"
      ],
      [
        "no",
        "m"
      ],
      [
        "a",
        "m"
      ],
      [
        "ni",
        "pa"
      ],
      [
        "M",
        "m"
      ],
      [
        "si",
        "si"
      ],
      [
        "wɔ",
        "re"
      ],
      [
        "t",
        "aa"
      ],
      [
        "b",
        "o"
      ],
      [
        "w",
        "e"
      ],
      [
        "re",
        "e"
      ],
      [
        "at",
        "a"
      ],
      [
        "e",
        "bi"
      ],
      [
        "n",
        "n"
      ],
      [
        "a",
        "ho"
      ],
      [
        "ani",
        "m"
      ],
      [
        "r",
        "ɛ"
      ],
      [
        "r",
        "an"
      ],
      [
        "mm",
        "i"
      ],
      [
        "u",
        "a"
      ],
      [
        "kyɛ",
        "n"
      ],
      [
        "tu",
        "m"
      ],
      [
        "b",
        "ree"
      ],
      [
        "su",
        "o"
      ],
      [
        "n",
        "yina"
      ],
      [
        "d",
        "a"
      ],
      [
        "be",
        "bree"
      ],
      [
        "ri",
        "ma"
      ],
      [
        "hw",
        "ɛ"
      ],
      [
        "t",
        "i"
      ],
      [
        "en",
        "u"
      ],
      [
        "tu",
        "n"
      ],
      [
        "at",
        "aa"
      ],
      [
        "nyina",
        "a"
      ],
      [
        "ɛ",
        "n"
      ],
      [
        "yi",
        "a"
      ],
      [
        "ɔ",
        "re"
      ],
      [
        "tun",
        "tum"
      ],
      [
        "kɔ",
        "ɔ"
      ],
      [
        "dz",
        "e"
      ],
      [
        "k",
        "i"
      ],
      [
        "fi",
        "taa"
      ],
      [
        "n",
        "kyɛn"
      ],
      [
        "f",
        "ra"
      ],
      [
        "te",
        "ɛ"
      ],
      [
        "k",
        "a"
      ],
      [
        "m",
        "o"
      ],
      [
        "w",
        "o"
      ],
      [
        "kɔ",
        "kɔɔ"
      ],
      [
        "w",
        "u"
      ],
      [
        "ran",
        "teɛ"
      ],
      [
        "ye",
        "hyɛ"
      ],
      [
        "mmi",
        "enu"
      ],
      [
        "N",
        "nipa"
      ],
      [
        "m",
        "e"
      ],
      [
        "ɛ",
        "na"
      ],
      [
        "k",
        "ye"
      ],
      [
        "a",
        "ko"
      ],
      [
        "y",
        "a"
      ],
      [
        "a",
        "d"
      ],
      [
        "e",
        "ɛ"
      ],
      [
        "w",
        "an"
      ],
      [
        "Wɔ",
        "n"
      ],
      [
        "ki",
        "ta"
      ],
      [
        "ɔ",
        "n"
      ],
      [
        "ɛ",
        "wɔ"
      ],
      [
        "m",
        "ma"
      ],
      [
        "f",
        "am"
      ],
      [
        "h",
        "a"
      ],
      [
        "be",
        "a"
      ],
      [
        "ah",
        "yia"
      ],
      [
        "hɔ",
        "n"
      ],
      [
        "po",
        "no"
      ],
      [
        "E",
        "bi"
      ],
      [
        "na",
        "m"
      ],
      [
        "aa",
        "me"
      ],
      [
        "te",
        "n"
      ],
      [
        "so",
        "ro"
      ],
      [
        "a",
        "deɛ"
      ],
      [
        "ne",
        "ɛ"
      ],
      [
        "k",
        "wan"
      ],
      [
        "a",
        "se"
      ],
      [
        "wɔ",
        "de"
      ],
      [
        "hyɛ",
        "n"
      ],
      [
        "ɛ",
        "yɛ"
      ],
      [
        "ɛ",
        "se"
      ],
      [
        "do",
        "ɔ"
      ],
      [
        "a",
        "s"
      ],
      [
        "ɔ",
        "hyɛ"
      ],
      [
        "k",
        "e"
      ],
      [
        "nn",
        "wa"
      ],
      [
        "e",
        "si"
      ],
      [
        "k",
        "yi"
      ],
      [
        "ab",
        "ɔ"
      ],
      [
        "na",
        "n"
      ],
      [
        "rɔ",
        "fo"
      ],
      [
        "ɛ",
        "re"
      ],
      [
        "ɛ",
        "ɛ"
      ],
      [
        "wu",
        "ma"
      ],
      [
        "w",
        "i"
      ],
      [
        "an",
        "e"
      ],
      [
        "f",
        "a"
      ],
      [
        "h",
        "yehyɛ"
      ],
      [
        "ab",
        "o"
      ],
      [
        "te",
        "te"
      ],
      [
        "at",
        "wa"
      ],
      [
        "neɛ",
        "ma"
      ],
      [
        "l",
        "e"
      ],
      [
        "rɔ",
        "foɔ"
      ],
      [
        "fu",
        "fu"
      ],
      [
        "kye",
        "rɛ"
      ],
      [
        "d",
        "ua"
      ],
      [
        "aa",
        "ko"
      ],
      [
        "aho",
        "suo"
      ],
      [
        "t",
        "we"
      ],
      [
        "g",
        "ya"
      ],
      [
        "a",
        "no"
      ],
      [
        "m",
        "fi"
      ],
      [
        "m",
        "pa"
      ],
      [
        "n",
        "to"
      ],
      [
        "a",
        "pa"
      ],
      [
        "n",
        "k"
      ],
      [
        "ak",
        "a"
      ],
      [
        "n",
        "suo"
      ],
      [
        "p",
        "i"
      ],
      [
        "ɔ",
        "m"
      ],
      [
        "ak",
        "u"
      ],
      [
        "b",
        "u"
      ],
      [
        "M",
        "aame"
      ],
      [
        "d",
        "aa"
      ],
      [
        "M",
        "ma"
      ],
      [
        "B",
        "aako"
      ],
      [
        "t",
        "wa"
      ],
      [
        "k",
        "aa"
      ],
      [
        "Mm",
        "aa"
      ],
      [
        "a",
        "ra"
      ],
      [
        "mm",
        "aa"
      ],
      [
        "bi",
        "nom"
      ],
      [
        "s",
        "ɛ"
      ],
      [
        "a",
        "yɛ"
      ],
      [
        "n",
        "neɛma"
      ],
      [
        "t",
        "se"
      ],
      [
        "ataa",
        "de"
      ],
      [
        "ab",
        "a"
      ],
      [
        "d",
        "u"
      ],
      [
        "gyina",
        "gyina"
      ],
      [
        "b",
        "an"
      ],
      [
        "mma",
        "rima"
      ],
      [
        "k",
        "ɛse"
      ],
      [
        "a",
        "r"
      ],
      [
        "wa",
        "daa"
      ],
      [
        "yi",
        "n"
      ],
      [
        "ku",
        "ra"
      ],
      [
        "nto",
        "ma"
      ],
      [
        "l",
        "o"
      ],
      [
        "ɔ",
        "fra"
      ],
      [
        "ye",
        "wa"
      ],
      [
        "a",
        "g"
      ],
      [
        "ɔ",
        "de"
      ],
      [
        "N",
        "ku"
      ],
      [
        "at",
        "o"
      ],
      [
        "di",
        "e"
      ],
      [
        "ko",
        "r"
      ],
      [
        "s",
        "ra"
      ],
      [
        "n",
        "nipa"
      ],
      [
        "ako",
        "kɔ"
      ],
      [
        "n",
        "ko"
      ],
      [
        "ah",
        "yehyɛ"
      ],
      [
        "s",
        "an"
      ],
      [
        "ab",
        "an"
      ],
      [
        "a",
        "si"
      ],
      [
        "N",
        "k"
      ],
      [
        "bea",
        "eɛ"
      ],
      [
        "a",
        "p"
      ],
      [
        "a",
        "hyɛ"
      ],
      [
        "e",
        "kyi"
      ],
      [
        "dz",
        "i"
      ],
      [
        "m",
        "p"
      ],
      [
        "n",
        "ku"
      ],
      [
        "ɔ",
        "yɛ"
      ],
      [
        "aho",
        "doɔ"
      ],
      [
        "f",
        "ɛ"
      ],
      [
        "m",
        "fo"
      ],
      [
        "t",
        "ɔ"
      ],
      [
        "e",
        "ranteɛ"
      ],
      [
        "ad",
        "wuma"
      ],
      [
        "kɛse",
        "ɛ"
      ],
      [
        "a",
        "gu"
      ],
      [
        "wu",
        "ra"
      ],
      [
        "kɔ",
        "n"
      ],
      [
        "fufu",
        "o"
      ],
      [
        "n",
        "u"
      ],
      [
        "r",
        "u"
      ],
      [
        "wɔ",
        "dze"
      ],
      [
        "ak",
        "ye"
      ],
      [
        "ɛ",
        "bi"
      ],
      [
        "ako",
        "nnwa"
      ],
      [
        "sra",
        "deɛ"
      ],
      [
        "l",
        "i"
      ],
      [
        "ni",
        "n"
      ],
      [
        "B",
        "i"
      ],
      [
        "ɛ",
        "ne"
      ],
      [
        "baa",
        "wa"
      ],
      [
        "Mma",
        "rima"
      ],
      [
        "a",
        "de"
      ],
      [
        "ɛ",
        "dan"
      ],
      [
        "ekyi",
        "r"
      ],
      [
        "n",
        "ta"
      ],
      [
        "be",
        "ranteɛ"
      ],
      [
        "h",
        "yia"
      ],
      [
        "P",
        "apa"
      ],
      [
        "e",
        "a"
      ],
      [
        "a",
        "fi"
      ],
      [
        "t",
        "ɔn"
      ],
      [
        "ten",
        "ten"
      ],
      [
        "ke",
        "te"
      ],
      [
        "Ɔ",
        "baa"
      ],
      [
        "ba",
        "rima"
      ],
      [
        "d",
        "wa"
      ],
      [
        "b",
        "l"
      ],
      [
        "te",
        "na"
      ],
      [
        "a",
        "ma"
      ],
      [
        "p",
        "aku"
      ],
      [
        "u",
        "e"
      ],
      [
        "ku",
        "ta"
      ],
      [
        "m",
        "i"
      ],
      [
        "a",
        "sa"
      ],
      [
        "ɔ",
        "mo"
      ],
      [
        "n",
        "ua"
      ],
      [
        "m",
        "aame"
      ],
      [
        "d",
        "ɔm"
      ],
      [
        "ata",
        "deɛ"
      ],
      [
        "ɛ",
        "hyɛ"
      ],
      [
        "ah",
        "we"
      ],
      [
        "nsa",
        "m"
      ],
      [
        "bi",
        "bi"
      ],
      [
        "ɛ",
        "nsa"
      ],
      [
        "ah",
        "aban"
      ],
      [
        "nn",
        "ua"
      ],
      [
        "d",
        "ɛ"
      ],
      [
        "s",
        "ɛn"
      ],
      [
        "ataa",
        "deɛ"
      ],
      [
        "ɛ",
        "kyɛ"
      ],
      [
        "ka",
        "sa"
      ],
      [
        "pi",
        "i"
      ],
      [
        "A",
        "bo"
      ],
      [
        "ak",
        "ɔ"
      ],
      [
        "baa",
        "bi"
      ],
      [
        "e",
        "gyina"
      ],
      [
        "si",
        "a"
      ],
      [
        "Nku",
        "rɔfoɔ"
      ],
      [
        "mo",
        "no"
      ],
      [
        "paku",
        "o"
      ],
      [
        "d",
        "wuma"
      ],
      [
        "n",
        "yi"
      ],
      [
        "ɛ",
        "te"
      ],
      [
        "ɛn",
        "na"
      ],
      [
        "p",
        "e"
      ],
      [
        "re",
        "n"
      ],
      [
        "a",
        "so"
      ],
      [
        "se",
        "re"
      ],
      [
        "ata",
        "de"
      ],
      [
        "N",
        "ko"
      ],
      [
        "n",
        "taa"
      ],
      [
        "hɔ",
        "nom"
      ],
      [
        "mmi",
        "ɛnsa"
      ],
      [
        "a",
        "dze"
      ],
      [
        "bo",
        "a"
      ],
      [
        "ata",
        "r"
      ],
      [
        "ɔ",
        "baa"
      ],
      [
        "wɔ",
        "hyɛ"
      ],
      [
        "hw",
        "i"
      ],
      [
        "pa",
        "pa"
      ],
      [
        "m",
        "ba"
      ],
      [
        "akyi",
        "re"
      ],
      [
        "re",
        "hwɛ"
      ],
      [
        "bo",
        "bɔ"
      ],
      [
        "ane",
        "a"
      ],
      [
        "ab",
        "le"
      ],
      [
        "en",
        "yi"
      ],
      [
        "o",
        "bi"
      ],
      [
        "ag",
        "o"
      ],
      [
        "h",
        "e"
      ],
      [
        "ahwe",
        "hwɛ"
      ],
      [
        "ad",
        "u"
      ],
      [
        "as",
        "ɔ"
      ],
      [
        "Mm",
        "ɔfra"
      ],
      [
        "Mm",
        "eranteɛ"
      ],
      [
        "wo",
        "m"
      ],
      [
        "ɔ",
        "te"
      ],
      [
        "ro",
        "w"
      ],
      [
        "su",
        "a"
      ],
      [
        "du",
        "ku"
      ],
      [
        "Ebi",
        "nom"
      ],
      [
        "m",
        "an"
      ],
      [
        "wɔre",
        "hwɛ"
      ],
      [
        "A",
        "b"
      ],
      [
        "hw",
        "e"
      ],
      [
        "e",
        "m"
      ],
      [
        "ku",
        "o"
      ],
      [
        "te",
        "ne"
      ],
      [
        "Ɛ",
        "dan"
      ],
      [
        "r",
        "aa"
      ],
      [
        "ko",
        "to"
      ],
      [
        "e",
        "gu"
      ],
      [
        "Ɛ",
        "bi"
      ],
      [
        "g",
        "ye"
      ],
      [
        "p",
        "an"
      ],
      [
        "wɔ",
        "wɔ"
      ],
      [
        "re",
        "di"
      ],
      [
        "mm",
        "o"
      ],
      [
        "wɔre",
        "yɛ"
      ],
      [
        "ku",
        "u"
      ],
      [
        "bl",
        "ue"
      ],
      [
        "nn",
        "u"
      ],
      [
        "tse",
        "na"
      ],
      [
        "ni",
        "pakuo"
      ],
      [
        "D",
        "an"
      ],
      [
        "N",
        "nua"
      ],
      [
        "ataa",
        "re"
      ],
      [
        "g",
        "e"
      ],
      [
        "ebi",
        "nom"
      ],
      [
        "mm",
        "ɔfra"
      ],
      [
        "twe",
        "rɛ"
      ],
      [
        "A",
        "beranteɛ"
      ],
      [
        "f",
        "ɛɛ"
      ],
      [
        "h",
        "u"
      ],
      [
        "ran",
        "kaa"
      ],
      [
        "s",
        "ɔ"
      ],
      [
        "t",
        "able"
      ],
      [
        "kyɛ",
        "w"
      ],
      [
        "n",
        "su"
      ],
      [
        "ak",
        "ata"
      ],
      [
        "Bi",
        "nom"
      ],
      [
        "mfi",
        "mfi"
      ],
      [
        "a",
        "fa"
      ],
      [
        "k",
        "ak"
      ],
      [
        "eɛ",
        "nsa"
      ],
      [
        "ɔn",
        "kɔ"
      ],
      [
        "c",
        "ar"
      ],
      [
        "re",
        "bɔ"
      ],
      [
        "N",
        "i"
      ],
      [
        "r",
        "ataa"
      ],
      [
        "nko",
        "nnwa"
      ],
      [
        "akokɔ",
        "sradeɛ"
      ],
      [
        "O",
        "bi"
      ],
      [
        "fufu",
        "w"
      ],
      [
        "mpa",
        "boa"
      ],
      [
        "ni",
        "wa"
      ],
      [
        "P",
        "o"
      ],
      [
        "ɛ",
        "de"
      ],
      [
        "se",
        "n"
      ],
      [
        "n",
        "nan"
      ],
      [
        "e",
        "sisi"
      ],
      [
        "s",
        "aa"
      ],
      [
        "gu",
        "gu"
      ],
      [
        "i",
        "ɛ"
      ],
      [
        "mm",
        "eɛnsa"
      ],
      [
        "b",
        "ɛ"
      ],
      [
        "esi",
        "e"
      ],
      [
        "h",
        "i"
      ],
      [
        "at",
        "we"
      ],
      [
        "n",
        "wura"
      ],
      [
        "baa",
        "yewa"
      ],
      [
        "do",
        "doɔ"
      ],
      [
        "ebi",
        "en"
      ],
      [
        "f",
        "rankaa"
      ],
      [
        "t",
        "si"
      ],
      [
        "hwi",
        "ren"
      ],
      [
        "wɔ",
        "gyina"
      ],
      [
        "c",
        "o"
      ],
      [
        "s",
        "k"
      ],
      [
        "kete",
        "wa"
      ],
      [
        "re",
        "sa"
      ],
      [
        "ti",
        "ri"
      ],
      [
        "li",
        "si"
      ],
      [
        "ahwehwɛ",
        "niwa"
      ],
      [
        "mm",
        "ɔ"
      ],
      [
        "ta",
        "m"
      ],
      [
        "p",
        "ɔnkɔ"
      ],
      [
        "A",
        "ba"
      ],
      [
        "N",
        "nipakuo"
      ],
      [
        "ani",
        "n"
      ],
      [
        "ɛ",
        "si"
      ],
      [
        "mfo",
        "nin"
      ],
      [
        "yi",
        "e"
      ],
      [
        "ro",
        "ni"
      ],
      [
        "twe",
        "ne"
      ],
      [
        "adu",
        "ane"
      ],
      [
        "K",
        "o"
      ],
      [
        "ɛ",
        "hyɛn"
      ],
      [
        "afi",
        "die"
      ],
      [
        "po",
        "n"
      ],
      [
        "l",
        "a"
      ],
      [
        "t",
        "wi"
      ],
      [
        "ɛ",
        "pono"
      ],
      [
        "Abo",
        "rɔfo"
      ],
      [
        "fɛɛ",
        "fɛ"
      ],
      [
        "nk",
        "wadaa"
      ],
      [
        "Wɔ",
        "de"
      ],
      [
        "di",
        "di"
      ],
      [
        "l",
        "lo"
      ],
      [
        "Ɔ",
        "hyɛ"
      ],
      [
        "Nk",
        "wadaa"
      ],
      [
        "gu",
        "a"
      ],
      [
        "wɔ",
        "te"
      ],
      [
        "ad",
        "aka"
      ],
      [
        "ɔ",
        "ɔre"
      ],
      [
        "wi",
        "em"
      ],
      [
        "enyi",
        "m"
      ],
      [
        "a",
        "fu"
      ],
      [
        "Ɛ",
        "na"
      ],
      [
        "Ɔ",
        "baako"
      ],
      [
        "re",
        "yɛ"
      ],
      [
        "Mm",
        "o"
      ],
      [
        "apa",
        "gya"
      ],
      [
        "k",
        "an"
      ],
      [
        "de",
        "da"
      ],
      [
        "p",
        "ɔ"
      ],
      [
        "fi",
        "e"
      ],
      [
        "wɔ",
        "ahyehyɛ"
      ],
      [
        "ni",
        "m"
      ],
      [
        "Mm",
        "i"
      ],
      [
        "kak",
        "ra"
      ],
      [
        "B",
        "a"
      ],
      [
        "ɛ",
        "da"
      ],
      [
        "wɔ",
        "yɛ"
      ],
      [
        "yɛ",
        "de"
      ],
      [
        "ak",
        "ɛse"
      ],
      [
        "so",
        "r"
      ],
      [
        "be",
        "ebi"
      ],
      [
        "en",
        "te"
      ],
      [
        "as",
        "ɛ"
      ],
      [
        "g",
        "o"
      ],
      [
        "ɔ",
        "wɔ"
      ],
      [
        "ah",
        "yi"
      ],
      [
        "p",
        "ɛ"
      ],
      [
        "ɛn",
        "t"
      ],
      [
        "abo",
        "bɔ"
      ],
      [
        "mfimfi",
        "ni"
      ],
      [
        "a",
        "f"
      ],
      [
        "ɔre",
        "hwɛ"
      ],
      [
        "ma",
        "sk"
      ],
      [
        "at",
        "u"
      ],
      [
        "fi",
        "die"
      ],
      [
        "ka",
        "ma"
      ],
      [
        "akye",
        "kye"
      ],
      [
        "B",
        "ea"
      ],
      [
        "a",
        "bi"
      ],
      [
        "kyɛn",
        "se"
      ],
      [
        "tsi",
        "r"
      ],
      [
        "yɛ",
        "n"
      ],
      [
        "ɛna",
        "m"
      ],
      [
        "akye",
        "rɛ"
      ],
      [
        "r",
        "s"
      ],
      [
        "no",
        "se"
      ],
      [
        "re",
        "kɔ"
      ],
      [
        "ata",
        "re"
      ],
      [
        "ag",
        "ye"
      ],
      [
        "Mm",
        "ranteɛ"
      ],
      [
        "aho",
        "ma"
      ],
      [
        "ab",
        "u"
      ],
      [
        "bɔ",
        "fra"
      ],
      [
        "g",
        "y"
      ],
      [
        "abɔ",
        "fra"
      ],
      [
        "we",
        "a"
      ],
      [
        "d",
        "ɔ"
      ],
      [
        "n",
        "wa"
      ],
      [
        "ki",
        "t"
      ],
      [
        "Ba",
        "rima"
      ],
      [
        "po",
        "lisi"
      ],
      [
        "nku",
        "rɔfoɔ"
      ],
      [
        "v",
        "e"
      ],
      [
        "mm",
        "eranteɛ"
      ],
      [
        "Ni",
        "pa"
      ],
      [
        "l",
        "l"
      ],
      [
        "K",
        "aa"
      ],
      [
        "ago",
        "rɔ"
      ],
      [
        "m",
        "aa"
      ],
      [
        "n",
        "kɔ"
      ],
      [
        "Ɛ",
        "hyɛn"
      ],
      [
        "re",
        "twa"
      ],
      [
        "su",
        "kuu"
      ],
      [
        "aho",
        "row"
      ],
      [
        "ɛnt",
        "ɛn"
      ],
      [
        "p",
        "aa"
      ],
      [
        "bi",
        "ri"
      ],
      [
        "ho",
        "ne"
      ],
      [
        "p",
        "anin"
      ],
      [
        "wɔre",
        "di"
      ],
      [
        "ahyi",
        "am"
      ],
      [
        "bɔ",
        "ɔ"
      ],
      [
        "esi",
        "a"
      ],
      [
        "a",
        "beranteɛ"
      ],
      [
        "n",
        "hyɛ"
      ],
      [
        "Ab",
        "ranteɛ"
      ],
      [
        "C",
        "ar"
      ],
      [
        "ɛ",
        "so"
      ],
      [
        "fɛ",
        "fɛɛfɛ"
      ],
      [
        "Mmi",
        "enu"
      ],
      [
        "A",
        "man"
      ],
      [
        "k",
        "ente"
      ],
      [
        "ne",
        "nam"
      ],
      [
        "be",
        "sia"
      ],
      [
        "ku",
        "ro"
      ],
      [
        "abo",
        "a"
      ],
      [
        "N",
        "e"
      ],
      [
        "na",
        "a"
      ],
      [
        "to",
        "p"
      ],
      [
        "am",
        "e"
      ],
      [
        "tse",
        "n"
      ],
      [
        "a",
        "dan"
      ],
      [
        "fu",
        "ra"
      ],
      [
        "anim",
        "foɔ"
      ],
      [
        "ahaban",
        "mono"
      ],
      [
        "Nku",
        "rɔfo"
      ],
      [
        "N",
        "suo"
      ],
      [
        "wɔre",
        "bɔ"
      ],
      [
        "dwuma",
        "yɛ"
      ],
      [
        "l",
        "ɔɔre"
      ],
      [
        "n",
        "yin"
      ],
      [
        "p",
        "hone"
      ],
      [
        "ni",
        "iɛ"
      ],
      [
        "tu",
        "o"
      ],
      [
        "am",
        "an"
      ],
      [
        "bibi",
        "foɔ"
      ],
      [
        "be",
        "nku"
      ],
      [
        "A",
        "baayewa"
      ],
      [
        "m",
        "po"
      ],
      [
        "ko",
        "ro"
      ],
      [
        "baa",
        "sa"
      ],
      [
        "n",
        "na"
      ],
      [
        "mo",
        "to"
      ],
      [
        "asi",
        "esie"
      ],
      [
        "bibi",
        "re"
      ],
      [
        "N",
        "yi"
      ],
      [
        "kyerɛ",
        "kyerɛ"
      ],
      [
        "atwe",
        "rɛ"
      ],
      [
        "benku",
        "m"
      ],
      [
        "ɔ",
        "so"
      ],
      [
        "an",
        "wea"
      ],
      [
        "mm",
        "e"
      ],
      [
        "Nko",
        "nnwa"
      ],
      [
        "biri",
        "bi"
      ],
      [
        "B",
        "o"
      ],
      [
        "wɔ",
        "nam"
      ],
      [
        "ni",
        "fa"
      ],
      [
        "ab",
        "ɔn"
      ],
      [
        "H",
        "ɔn"
      ],
      [
        "i",
        "n"
      ],
      [
        "n",
        "hwiren"
      ],
      [
        "ɔ",
        "gyina"
      ],
      [
        "t",
        "ɛ"
      ],
      [
        "w",
        "ɛ"
      ],
      [
        "wɔ",
        "ro"
      ],
      [
        "fo",
        "fo"
      ],
      [
        "ntaa",
        "de"
      ],
      [
        "ɔ",
        "baako"
      ],
      [
        "da",
        "deɛ"
      ],
      [
        "mma",
        "baawa"
      ],
      [
        "llo",
        "w"
      ],
      [
        "p",
        "ra"
      ],
      [
        "a",
        "sisi"
      ],
      [
        "k",
        "rataa"
      ],
      [
        "ɛ",
        "bɔ"
      ],
      [
        "wɔ",
        "hyehyɛ"
      ],
      [
        "re",
        "en"
      ],
      [
        "ne",
        "a"
      ],
      [
        "wo",
        "e"
      ],
      [
        "S",
        "u"
      ],
      [
        "dz",
        "ɛ"
      ],
      [
        "abo",
        "rɔfo"
      ],
      [
        "n",
        "dua"
      ],
      [
        "ko",
        "doɔ"
      ],
      [
        "fi",
        "ri"
      ],
      [
        "ap",
        "top"
      ],
      [
        "Aba",
        "baawa"
      ],
      [
        "akɛse",
        "ɛ"
      ],
      [
        "akyekye",
        "re"
      ],
      [
        "A",
        "dan"
      ],
      [
        "Ɔ",
        "mo"
      ],
      [
        "be",
        "be"
      ],
      [
        "wo",
        "gyina"
      ],
      [
        "ki",
        "ti"
      ],
      [
        "sɛ",
        "m"
      ],
      [
        "hwe",
        "ne"
      ],
      [
        "Nyi",
        "mpa"
      ],
      [
        "k",
        "ɛntɛn"
      ],
      [
        "ye",
        "llow"
      ],
      [
        "ba",
        "g"
      ],
      [
        "a",
        "ya"
      ],
      [
        "ɔ",
        "no"
      ],
      [
        "at",
        "i"
      ],
      [
        "n",
        "sia"
      ],
      [
        "re",
        "sere"
      ],
      [
        "baa",
        "ge"
      ],
      [
        "pan",
        "yin"
      ],
      [
        "nnu",
        "m"
      ],
      [
        "Ko",
        "r"
      ],
      [
        "b",
        "ɛyɛ"
      ],
      [
        "sa",
        "w"
      ],
      [
        "Po",
        "no"
      ],
      [
        "f",
        "ɔm"
      ],
      [
        "n",
        "g"
      ],
      [
        "ak",
        "i"
      ],
      [
        "bebe",
        "ree"
      ],
      [
        "a",
        "gyina"
      ],
      [
        "o",
        "n"
      ],
      [
        "ɛ",
        "gyina"
      ],
      [
        "wo",
        "ma"
      ],
      [
        "nyi",
        "mpa"
      ],
      [
        "A",
        "bɔfra"
      ],
      [
        "N",
        "neɛma"
      ],
      [
        "g",
        "reen"
      ],
      [
        "Mmaa",
        "yewa"
      ],
      [
        "polisi",
        "foɔ"
      ],
      [
        "si",
        "e"
      ],
      [
        "ro",
        "nin"
      ],
      [
        "san",
        "tene"
      ],
      [
        "Mmo",
        "fra"
      ],
[...]
